{
  "version": "1.0",
  "truncation": null,
  "padding": null,
  "added_tokens": [
    {
      "id": 0,
      "content": "<|endoftext|>",
      "single_word": false,
      "lstrip": false,
      "rstrip": false,
      "normalized": false,
      "special": true
    },
    {
      "id": 1,
      "content": "\n",
      "single_word": false,
      "lstrip": false,
      "rstrip": false,
      "normalized": false,
      "special": true
    }
  ],
  "normalizer": null,
  "pre_tokenizer": {
    "type": "ByteLevel",
    "add_prefix_space": false,
    "trim_offsets": true,
    "use_regex": true
  },
  "post_processor": {
    "type": "ByteLevel",
    "add_prefix_space": true,
    "trim_offsets": false,
    "use_regex": true
  },
  "decoder": {
    "type": "ByteLevel",
    "add_prefix_space": true,
    "trim_offsets": true,
    "use_regex": true
  },
  "model": {
    "type": "BPE",
    "dropout": null,
    "unk_token": null,
    "continuing_subword_prefix": null,
    "end_of_word_suffix": null,
    "fuse_unk": false,
    "byte_fallback": false,
    "vocab": {
      "<|endoftext|>": 0,
      "\n": 1,
      "!": 2,
      "\"": 3,
      "#": 4,
      "$": 5,
      "%": 6,
      "&": 7,
      "'": 8,
      "(": 9,
      ")": 10,
      "*": 11,
      "+": 12,
      ",": 13,
      "-": 14,
      ".": 15,
      "/": 16,
      "0": 17,
      "1": 18,
      "2": 19,
      "3": 20,
      "4": 21,
      "5": 22,
      "6": 23,
      "7": 24,
      "8": 25,
      "9": 26,
      ":": 27,
      ";": 28,
      "<": 29,
      "=": 30,
      ">": 31,
      "?": 32,
      "@": 33,
      "A": 34,
      "B": 35,
      "C": 36,
      "D": 37,
      "E": 38,
      "F": 39,
      "G": 40,
      "H": 41,
      "I": 42,
      "J": 43,
      "K": 44,
      "L": 45,
      "M": 46,
      "N": 47,
      "O": 48,
      "P": 49,
      "Q": 50,
      "R": 51,
      "S": 52,
      "T": 53,
      "U": 54,
      "V": 55,
      "W": 56,
      "X": 57,
      "Y": 58,
      "Z": 59,
      "[": 60,
      "]": 61,
      "^": 62,
      "_": 63,
      "`": 64,
      "a": 65,
      "b": 66,
      "c": 67,
      "d": 68,
      "e": 69,
      "f": 70,
      "g": 71,
      "h": 72,
      "i": 73,
      "j": 74,
      "k": 75,
      "l": 76,
      "m": 77,
      "n": 78,
      "o": 79,
      "p": 80,
      "q": 81,
      "r": 82,
      "s": 83,
      "t": 84,
      "u": 85,
      "v": 86,
      "w": 87,
      "x": 88,
      "y": 89,
      "z": 90,
      "{": 91,
      "}": 92,
      "»": 93,
      "¿": 94,
      "Ä": 95,
      "â": 96,
      "ï": 97,
      "Ċ": 98,
      "č": 99,
      "Ġ": 100,
      "ĩ": 101,
      "Ī": 102,
      "į": 103,
      "ĳ": 104,
      "ŀ": 105,
      "is": 106,
      "Ġt": 107,
      "or": 108,
      "ck": 109,
      "he": 110,
      "Ġa": 111,
      "hu": 112,
      "ĠN": 113,
      "huck": 114,
      "Chuck": 115,
      "ris": 116,
      "orris": 117,
      "ĠNorris": 118,
      "in": 119,
      "čĊ": 120,
      "Ġw": 121,
      "Ġs": 122,
      "Ġo": 123,
      "Ġthe": 124,
      "er": 125,
      "Ġb": 126,
      "ou": 127,
      "Ġc": 128,
      "Ġh": 129,
      "an": 130,
      "ĠChuck": 131,
      "ed": 132,
      "es": 133,
      "Ġf": 134,
      "at": 135,
      "it": 136,
      "nd": 137,
      "re": 138,
      "Ġd": 139,
      "ll": 140,
      "on": 141,
      "Ġp": 142,
      "ing": 143,
      "as": 144,
      "Ġto": 145,
      "ar": 146,
      "en": 147,
      "Ġm": 148,
      "Ġin": 149,
      "Ġof": 150,
      "le": 151,
      "Ġon": 152,
      "Ġg": 153,
      "Ġhe": 154,
      "Ġn": 155,
      "ce": 156,
      "Ġand": 157,
      "Ġl": 158,
      "Ġy": 159,
      "Ġbe": 160,
      "se": 161,
      "Ġis": 162,
      "Ġth": 163,
      "Ġk": 164,
      "ro": 165,
      "Ġhis": 166,
      "Ġe": 167,
      "..": 168,
      "Ġyou": 169,
      "im": 170,
      "ot": 171,
      "ow": 172,
      "al": 173,
      "ay": 174,
      "ad": 175,
      "ut": 176,
      "Ġr": 177,
      "Ġcan": 178,
      "ly": 179,
      "ver": 180,
      "st": 181,
      "id": 182,
      "om": 183,
      "et": 184,
      "ith": 185,
      "ĠT": 186,
      "ill": 187,
      "ve": 188,
      "am": 189,
      "Ġwas": 190,
      "Ġwith": 191,
      "ld": 192,
      "Ġit": 193,
      "Ġu": 194,
      "ent": 195,
      "ic": 196,
      "ick": 197,
      "ig": 198,
      "'s": 199,
      "all": 200,
      "hen": 201,
      "Ġst": 202,
      "Ġdo": 203,
      "ir": 204,
      "Ġfor": 205,
      "Ġre": 206,
      "ct": 207,
      "ound": 208,
      "ĠH": 209,
      "oo": 210,
      "ĠS": 211,
      "Ġthat": 212,
      "Ġwh": 213,
      "ke": 214,
      "ion": 215,
      "'t": 216,
      "Ġan": 217,
      "Ġas": 218,
      "au": 219,
      "ch": 220,
      "ĠB": 221,
      "ur": 222,
      "ter": 223,
      "Ġ\"": 224,
      "ĠA": 225,
      "ĠC": 226,
      "un": 227,
      "ouse": 228,
      "Ġkick": 229,
      "Ġj": 230,
      "Ġhim": 231,
      "ra": 232,
      "if": 233,
      "ĠM": 234,
      "ht": 235,
      "ĠI": 236,
      "est": 237,
      "Ġonce": 238,
      "il": 239,
      "Ġhas": 240,
      "Ġat": 241,
      "Ġse": 242,
      "op": 243,
      "Ġsh": 244,
      "The": 245,
      "ack": 246,
      "ie": 247,
      "Ġne": 248,
      "Ġround": 249,
      "Ġdoes": 250,
      "ĠW": 251,
      "Ġde": 252,
      "and": 253,
      "Ġfa": 254,
      "Ġha": 255,
      "Ġkn": 256,
      "Ġout": 257,
      "house": 258,
      "Ġby": 259,
      "th": 260,
      "ard": 261,
      "ause": 262,
      "Ġnot": 263,
      "00": 264,
      "us": 265,
      "ight": 266,
      "od": 267,
      "rom": 268,
      "Ġbec": 269,
      "Ġroundhouse": 270,
      "ust": 271,
      "Ġyour": 272,
      "!!": 273,
      "pp": 274,
      "ol": 275,
      "Ġch": 276,
      "ers": 277,
      "Ġsp": 278,
      "Ġli": 279,
      "When": 280,
      "one": 281,
      "ĠThe": 282,
      "ĠHe": 283,
      "ĠD": 284,
      "ĠP": 285,
      "ge": 286,
      "Ġ1": 287,
      "ant": 288,
      "ear": 289,
      "ould": 290,
      "ĠG": 291,
      "Ġfrom": 292,
      "ak": 293,
      "...": 294,
      "her": 295,
      "Ġever": 296,
      "ame": 297,
      "Ġbecause": 298,
      "ri": 299,
      "ally": 300,
      "Ġso": 301,
      "Ġknow": 302,
      "Ġonly": 303,
      "Ġpl": 304,
      "ĠR": 305,
      "ate": 306,
      "ome": 307,
      "Ġdoesn": 308,
      "Ġwor": 309,
      "Ġkill": 310,
      "ess": 311,
      "Ġone": 312,
      "ap": 313,
      "Ġwill": 314,
      "Ġle": 315,
      "art": 316,
      "Ġget": 317,
      "ĠF": 318,
      "Ġare": 319,
      "um": 320,
      "Ġman": 321,
      "Ġal": 322,
      "ain": 323,
      "Ġwhen": 324,
      "Ġup": 325,
      "ays": 326,
      "Ġor": 327,
      "ore": 328,
      "to": 329,
      "el": 330,
      "Ġjust": 331,
      "ell": 332,
      "ime": 333,
      "ake": 334,
      "Ġv": 335,
      "qu": 336,
      "ood": 337,
      "ast": 338,
      "Ġhave": 339,
      "Ġall": 340,
      "os": 341,
      "uck": 342,
      "99": 343,
      "ĠO": 344,
      "oug": 345,
      "out": 346,
      "ul": 347,
      "ĠE": 348,
      "ĠJ": 349,
      "Ġbut": 350,
      "ĠL": 351,
      "Ġgo": 352,
      "ile": 353,
      "Ġno": 354,
      "Ġpe": 355,
      "Ġex": 356,
      "Ġsa": 357,
      "nt": 358,
      "ist": 359,
      "Ġinto": 360,
      "Ġface": 361,
      "Ġbl": 362,
      "....": 363,
      "Ġmo": 364,
      "ac": 365,
      "Ġthey": 366,
      "iv": 367,
      "ĠK": 368,
      "Ġcon": 369,
      "Ġhad": 370,
      "ive": 371,
      "If": 372,
      "Ġus": 373,
      "ble": 374,
      "Ġback": 375,
      "ong": 376,
      "ies": 377,
      "ind": 378,
      "Ġro": 379,
      "ople": 380,
      "Ġ'": 381,
      "Ġ2": 382,
      "ook": 383,
      "Ġtime": 384,
      "Ġthem": 385,
      "Ġwould": 386,
      "Ġcom": 387,
      "ade": 388,
      "ull": 389,
      "alk": 390,
      "ag": 391,
      "te": 392,
      "ine": 393,
      "Ġpro": 394,
      "ice": 395,
      "Ġsc": 396,
      "ee": 397,
      "ry": 398,
      "Ġsu": 399,
      "Ġwho": 400,
      "ink": 401,
      "ang": 402,
      "ough": 403,
      "ond": 404,
      "Ġevery": 405,
      "Ġpeople": 406,
      "ath": 407,
      "Ġcl": 408,
      "Ġthen": 409,
      "Ġnever": 410,
      "Ġaf": 411,
      "Ġass": 412,
      "ere": 413,
      "ass": 414,
      "ide": 415,
      "wn": 416,
      "Ġab": 417,
      "Ġoff": 418,
      "Ġar": 419,
      "Ġdid": 420,
      "ated": 421,
      "ation": 422,
      "Ġlike": 423,
      "ip": 424,
      "are": 425,
      "Ġany": 426,
      "orn": 427,
      "lf": 428,
      "our": 429,
      "Ġkicked": 430,
      "own": 431,
      "ven": 432,
      "Ġme": 433,
      "Ġact": 434,
      "Ġlo": 435,
      "ire": 436,
      "man": 437,
      "pt": 438,
      "Ġplay": 439,
      "Ġcall": 440,
      "Ġgot": 441,
      "Ġworld": 442,
      "Ġtw": 443,
      "Ġfir": 444,
      "vent": 445,
      "Ġte": 446,
      "ĠNO": 447,
      "oot": 448,
      "Ġhu": 449,
      "ater": 450,
      "per": 451,
      "ous": 452,
      "ite": 453,
      "ru": 454,
      "ife": 455,
      "urn": 456,
      "ob": 457,
      "Ġover": 458,
      "iss": 459,
      "ure": 460,
      "ity": 461,
      "imp": 462,
      "Ġsaid": 463,
      "Ġthere": 464,
      "ree": 465,
      "Ġmade": 466,
      "Ġun": 467,
      "!!!!": 468,
      "ab": 469,
      "ves": 470,
      "ĠTh": 471,
      "Ġ3": 472,
      "Ġif": 473,
      "les": 474,
      "hes": 475,
      "Ġthis": 476,
      "Ġeat": 477,
      "Ġfirst": 478,
      "Ġthan": 479,
      "Ġwhat": 480,
      "\".": 481,
      "ock": 482,
      "Ġen": 483,
      "Ġmake": 484,
      "ber": 485,
      "ually": 486,
      "iz": 487,
      "self": 488,
      "fore": 489,
      "Ġabout": 490,
      "Ġsm": 491,
      "ied": 492,
      "Ġsl": 493,
      "Ġdown": 494,
      "Ġask": 495,
      "Ġfe": 496,
      "Ġafter": 497,
      "ĠU": 498,
      "Ġday": 499,
      "ect": 500,
      "Ġwe": 501,
      "Ġco": 502,
      "ace": 503,
      "Ġwere": 504,
      "Ġfl": 505,
      "Ġsome": 506,
      "ort": 507,
      "hed": 508,
      "ĠIt": 509,
      "nder": 510,
      "ich": 511,
      "pl": 512,
      "Ġdon": 513,
      "Ġrec": 514,
      "Ġwhile": 515,
      "9999": 516,
      "ans": 517,
      "itt": 518,
      "ok": 519,
      "ĠCh": 520,
      "akes": 521,
      "Ġinvent": 522,
      "Ġsw": 523,
      "Ġactually": 524,
      "age": 525,
      "Ġsay": 526,
      "Ġhow": 527,
      "row": 528,
      "mer": 529,
      "ps": 530,
      "Ġcre": 531,
      "Ġneed": 532,
      "ears": 533,
      "Ġwon": 534,
      "Ġlook": 535,
      "Ġtheir": 536,
      "Ġsec": 537,
      "ways": 538,
      "atch": 539,
      "ff": 540,
      "Ġsur": 541,
      "Ġ-": 542,
      "ĠV": 543,
      "Ġown": 544,
      "CK": 545,
      "ub": 546,
      "Ġtr": 547,
      "ors": 548,
      "Ġbefore": 549,
      "red": 550,
      "ĠY": 551,
      "Ġwant": 552,
      "Ġaw": 553,
      "Ġwalk": 554,
      "ho": 555,
      "ud": 556,
      "Ġ5": 557,
      "ary": 558,
      "Ġsee": 559,
      "ving": 560,
      "Ġturn": 561,
      "Ġhand": 562,
      "Ġbeat": 563,
      "aug": 564,
      "On": 565,
      "Ġac": 566,
      "Ġfact": 567,
      "ody": 568,
      "Ġgets": 569,
      "Ġinvented": 570,
      "ild": 571,
      "Ġknows": 572,
      "ark": 573,
      "Ġkilled": 574,
      "ach": 575,
      "Ġag": 576,
      "Ġbet": 577,
      "Ġwom": 578,
      "ool": 579,
      "IS": 580,
      "Ġwent": 581,
      "Ġcar": 582,
      "Ġcould": 583,
      "ason": 584,
      "Ġalways": 585,
      "Ġnow": 586,
      "Ġbeard": 587,
      "very": 588,
      "ment": 589,
      "Ġdr": 590,
      "Ġgr": 591,
      "Ġwhy": 592,
      "gg": 593,
      "Ġche": 594,
      "Ġshit": 595,
      "ys": 596,
      "ish": 597,
      "ex": 598,
      "here": 599,
      "Ġher": 600,
      "Ġthr": 601,
      "Ġhimself": 602,
      "Ġgu": 603,
      "ord": 604,
      "Ġdeath": 605,
      "Ġho": 606,
      "Ġcont": 607,
      "UCK": 608,
      "Ġapp": 609,
      "Ġey": 610,
      "Ġhouse": 611,
      "arth": 612,
      "ence": 613,
      "Ġthing": 614,
      "ĠSt": 615,
      "Ġthrough": 616,
      "ved": 617,
      "Ġbre": 618,
      "Ġfr": 619,
      "Ġlife": 620,
      "ict": 621,
      "Ġtwo": 622,
      "Ġsecond": 623,
      "aw": 624,
      "ount": 625,
      "ars": 626,
      "ave": 627,
      "act": 628,
      "Ġpen": 629,
      "Ġfuck": 630,
      "Ġhead": 631,
      "Ġspe": 632,
      "ther": 633,
      "Ġreason": 634,
      "ank": 635,
      "Ġrun": 636,
      "erson": 637,
      "Ġqu": 638,
      "Ġsn": 639,
      "ens": 640,
      "eth": 641,
      "ail": 642,
      "ep": 643,
      "med": 644,
      "In": 645,
      "Ġname": 646,
      "Ġbeen": 647,
      "Ġcalled": 648,
      "HUCK": 649,
      "Ġsk": 650,
      "Ġpre": 651,
      "Ġmov": 652,
      "Ġpun": 653,
      "Ġbel": 654,
      "RR": 655,
      "ph": 656,
      "Ġbr": 657,
      "ates": 658,
      "Ġperson": 659,
      "pped": 660,
      "ia": 661,
      "ning": 662,
      "Ġwr": 663,
      "ance": 664,
      "other": 665,
      "ue": 666,
      "Ġbu": 667,
      "Ġpr": 668,
      "Ġput": 669,
      "Ġend": 670,
      "em": 671,
      "og": 672,
      "ase": 673,
      "Ġknown": 674,
      "ft": 675,
      "Ġway": 676,
      "ered": 677,
      "Ġball": 678,
      "Ġgre": 679,
      "Ġaround": 680,
      "Ġtra": 681,
      "Ġtell": 682,
      "ros": 683,
      "ĠNORR": 684,
      "ĠNORRIS": 685,
      "Ġim": 686,
      "Ġdis": 687,
      "0000": 688,
      "Ġcomp": 689,
      "ger": 690,
      "iver": 691,
      "Ġwater": 692,
      "Ġeven": 693,
      "Ġsex": 694,
      "Ġmore": 695,
      "ions": 696,
      "erm": 697,
      "Ġbull": 698,
      "Ġgoes": 699,
      "cid": 700,
      "ds": 701,
      "int": 702,
      "ently": 703,
      "ĠAnd": 704,
      "Ġhard": 705,
      "Ġwithout": 706,
      "Ġstill": 707,
      "Ġuses": 708,
      "ĠGod": 709,
      "ons": 710,
      "Ġlight": 711,
      "000": 712,
      "Ġbo": 713,
      "Ġits": 714,
      "Ġuse": 715,
      "Ġasked": 716,
      "ost": 717,
      "oke": 718,
      "Ġwin": 719,
      "Ġinst": 720,
      "Ġunder": 721,
      ".\"": 722,
      "ci": 723,
      "ey": 724,
      "ont": 725,
      "oth": 726,
      "igh": 727,
      "ign": 728,
      "Ġste": 729,
      "ĠIn": 730,
      "ult": 731,
      "ĠThat": 732,
      "Ġpenis": 733,
      "Ġ4": 734,
      "Ġph": 735,
      "Ġper": 736,
      "vel": 737,
      "ever": 738,
      "the": 739,
      "up": 740,
      "Ġtake": 741,
      "ets": 742,
      "Ġreal": 743,
      "Ġdead": 744,
      "Wh": 745,
      "day": 746,
      "ory": 747,
      "There": 748,
      "thing": 749,
      "bo": 750,
      "ose": 751,
      "Ġborn": 752,
      "Ġgood": 753,
      "Ġres": 754,
      "Ġkicks": 755,
      "imply": 756,
      "so": 757,
      "Ġlast": 758,
      "Ġent": 759,
      "Ġgame": 760,
      "Ġshow": 761,
      "Ġother": 762,
      "Ġbad": 763,
      "Ġthink": 764,
      "ĠTex": 765,
      "oll": 766,
      "Ġ&": 767,
      "Ġsays": 768,
      "Ġfound": 769,
      "Ġdied": 770,
      "gs": 771,
      "Ġbir": 772,
      "Ġpiss": 773,
      "Ġcreated": 774,
      "ction": 775,
      "Ġmovie": 776,
      "ĠTexas": 777,
      "Ġgl": 778,
      "ian": 779,
      "Ġsimply": 780,
      "Ġgiv": 781,
      "Ġstart": 782,
      "Ġblack": 783,
      "Ġdidn": 784,
      "Ġdrink": 785,
      "ather": 786,
      "ings": 787,
      "ash": 788,
      "Ġnight": 789,
      "Ġshe": 790,
      "Ġbro": 791,
      "able": 792,
      "pe": 793,
      "xt": 794,
      "Ġsle": 795,
      "Ġfight": 796,
      "Ġgun": 797,
      "Ġthree": 798,
      "igin": 799,
      "Ġused": 800,
      "Ġaway": 801,
      "Ġtri": 802,
      "Ġsame": 803,
      "ought": 804,
      "Ġsurv": 805,
      "Ġcra": 806,
      "Ġdie": 807,
      "imes": 808,
      "Ġnew": 809,
      "Ġhair": 810,
      "oss": 811,
      "99999999": 812,
      "ittle": 813,
      "'.": 814,
      "ec": 815,
      "kes": 816,
      "ting": 817,
      "Ġ7": 818,
      "Ġcame": 819,
      "Ġfoot": 820,
      "Ġread": 821,
      "ĠWhen": 822,
      "Ġhapp": 823,
      "Ġlive": 824,
      "meric": 825,
      "bs": 826,
      "ty": 827,
      "Ġwhere": 828,
      "Ġbig": 829,
      "Ġfart": 830,
      "Ġenough": 831,
      "Ġwood": 832,
      "Ġbar": 833,
      "als": 834,
      "Ġstar": 835,
      "Ġagain": 836,
      "Ġbelie": 837,
      "It": 838,
      "ible": 839,
      "Ġsing": 840,
      "Ġfire": 841,
      "att": 842,
      "Ġmu": 843,
      "Ġwhich": 844,
      "aper": 845,
      "Ġalso": 846,
      "!!!!!!!!": 847,
      "ER": 848,
      "body": 849,
      "oh": 850,
      "Ġwar": 851,
      "Ġfind": 852,
      "ating": 853,
      "Ġtoo": 854,
      "Ġinf": 855,
      "Ġgive": 856,
      "Ġkid": 857,
      "Ġchick": 858,
      "Ġmy": 859,
      "ĠCHUCK": 860,
      "Ġshot": 861,
      "ross": 862,
      "av": 863,
      "ale": 864,
      "fter": 865,
      "aster": 866,
      "ower": 867,
      "ĠBut": 868,
      "Ġrecently": 869,
      "Ġbetter": 870,
      "Ġbreak": 871,
      "ches": 872,
      "Ġimp": 873,
      "Ġold": 874,
      "Ġlong": 875,
      "Ġyear": 876,
      "Ġyears": 877,
      "ĠDe": 878,
      "ately": 879,
      "Ġlet": 880,
      "Ġorigin": 881,
      "Ġseconds": 882,
      "cl": 883,
      "ike": 884,
      "we": 885,
      "Ġhit": 886,
      "Ġdest": 887,
      "Ġdri": 888,
      "ards": 889,
      "ump": 890,
      "Ġmany": 891,
      "Ġcr": 892,
      "Ġchuck": 893,
      "ane": 894,
      "esus": 895,
      "Ġpart": 896,
      "Ġtook": 897,
      "Ġmil": 898,
      "ĠThey": 899,
      "Ġusing": 900,
      "ily": 901,
      "Ġpo": 902,
      "Ġins": 903,
      "cept": 904,
      "ists": 905,
      "Ġwomen": 906,
      "Ġ(": 907,
      "Ġi": 908,
      "Ġsign": 909,
      "Ġop": 910,
      "rew": 911,
      "Ġmin": 912,
      "Ġbeing": 913,
      "Ġate": 914,
      "Ġ20": 915,
      "ew": 916,
      "Ġrem": 917,
      "iend": 918,
      "ush": 919,
      "ĠOn": 920,
      "Ġmost": 921,
      "air": 922,
      "less": 923,
      "ness": 924,
      "ann": 925,
      "ren": 926,
      "Ġdro": 927,
      "uss": 928,
      "ball": 929,
      "ks": 930,
      "Ġtest": 931,
      "ange": 932,
      "ator": 933,
      "Ġtold": 934,
      "Ġearth": 935,
      "amp": 936,
      "Ġstr": 937,
      "Ġexpl": 938,
      "Ġblood": 939,
      "aught": 940,
      "Ġeyes": 941,
      "Every": 942,
      "cle": 943,
      "uper": 944,
      "Ġmon": 945,
      "Ġmakes": 946,
      "ĠAmeric": 947,
      "Ġ19": 948,
      "!\"": 949,
      "Ġgave": 950,
      "Ġbeer": 951,
      "Ġright": 952,
      "fer": 953,
      "ms": 954,
      "ric": 955,
      "Ġwatch": 956,
      "Ġfear": 957,
      "ream": 958,
      "Ġlit": 959,
      "raid": 960,
      "Ġatt": 961,
      "Ġchild": 962,
      "'re": 963,
      "gin": 964,
      "old": 965,
      "Ġz": 966,
      "Ġtakes": 967,
      "Ġmet": 968,
      "Ġwants": 969,
      "augh": 970,
      "You": 971,
      "ait": 972,
      "Ġcut": 973,
      "Ġstop": 974,
      "Ġnext": 975,
      "Ġ10": 976,
      "ants": 977,
      "aking": 978,
      "........": 979,
      "Ġafraid": 980,
      "Ġeats": 981,
      "Ġsomeone": 982,
      "Ġpunch": 983,
      "'ll": 984,
      "cer": 985,
      "ix": 986,
      "ise": 987,
      "ased": 988,
      "ott": 989,
      "ng": 990,
      "Ġ6": 991,
      "Ġtimes": 992,
      "omb": 993,
      "amed": 994,
      "Ġunt": 995,
      "Ġrock": 996,
      "Ġbirth": 997,
      "Ġsurviv": 998,
      "Ġchicken": 999,
      "az": 1000,
      "mon": 1001,
      "ny": 1002,
      "Ġair": 1003,
      "rist": 1004,
      "Ġele": 1005,
      "icks": 1006,
      "ĠWh": 1007,
      "Ġcons": 1008,
      "ĠYou": 1009,
      "der": 1010,
      "Ġsun": 1011,
      "Ġfin": 1012,
      "Ġpull": 1013,
      "Ġland": 1014,
      "alf": 1015,
      "aus": 1016,
      "ĠAl": 1017,
      "ize": 1018,
      "Ġturned": 1019,
      "Ġwoman": 1020,
      "Ġguy": 1021,
      "Ġdestro": 1022,
      "AN": 1023,
      "ched": 1024,
      "ling": 1025,
      "oc": 1026,
      "wer": 1027,
      "Ġam": 1028,
      "Ġwear": 1029,
      "Ġinter": 1030,
      "aur": 1031,
      "Once": 1032,
      "Ġhold": 1033,
      "Some": 1034,
      "Ġad": 1035,
      "Ġbed": 1036,
      "Ġfly": 1037,
      "itch": 1038,
      "Ġmother": 1039,
      "Ġrest": 1040,
      "iding": 1041,
      "ilet": 1042,
      "Ġballs": 1043,
      "ced": 1044,
      "ib": 1045,
      "Ġboot": 1046,
      "Ġlater": 1047,
      "Ġkee": 1048,
      "chool": 1049,
      "Ġdef": 1050,
      "ular": 1051,
      "Ġgoing": 1052,
      "Ġsaw": 1053,
      "ĠNOM": 1054,
      "ĠThis": 1055,
      "Ġimmed": 1056,
      "iverse": 1057,
      "Ġopen": 1058,
      "ful": 1059,
      "ious": 1060,
      "atter": 1061,
      "Ġtoilet": 1062,
      "ctor": 1063,
      "ĠSte": 1064,
      "Ġeye": 1065,
      "Ġgreat": 1066,
      "Ġsingle": 1067,
      "Ġminut": 1068,
      "OU": 1069,
      "ah": 1070,
      "ts": 1071,
      "ĠNo": 1072,
      "Ġcome": 1073,
      "Ġcount": 1074,
      "ese": 1075,
      "ition": 1076,
      "Ġpay": 1077,
      "Ġgod": 1078,
      "ady": 1079,
      "ĠHis": 1080,
      "ĠSe": 1081,
      "Ġshould": 1082,
      "ode": 1083,
      "Ġlikes": 1084,
      "Ġperf": 1085,
      "Ġuntil": 1086,
      "Ġimmedi": 1087,
      "LL": 1088,
      "Ġ8": 1089,
      "Ġbow": 1090,
      "Ġhome": 1091,
      "Ġfing": 1092,
      "Ġfun": 1093,
      "ared": 1094,
      "ands": 1095,
      "oney": 1096,
      "Ġkills": 1097,
      "Ġspeed": 1098,
      "ax": 1099,
      "hind": 1100,
      "Ġhalf": 1101,
      "ized": 1102,
      "ollow": 1103,
      "co": 1104,
      "du": 1105,
      "when": 1106,
      "Ġtry": 1107,
      "orm": 1108,
      "ero": 1109,
      "err": 1110,
      "Ġpower": 1111,
      "ĠThen": 1112,
      "Ġblow": 1113,
      "Ġanything": 1114,
      "Ġteeth": 1115,
      "Ġentire": 1116,
      "Ġmuch": 1117,
      "Ġdestroy": 1118,
      "cc": 1119,
      "cy": 1120,
      "led": 1121,
      "ins": 1122,
      "Ġthrow": 1123,
      ".....": 1124,
      "Ġroom": 1125,
      "Ġswim": 1126,
      "Ġhole": 1127,
      "Ġphone": 1128,
      "Ġimmediately": 1129,
      "dy": 1130,
      "ead": 1131,
      "me": 1132,
      "my": 1133,
      "Ġtalk": 1134,
      "Ġwall": 1135,
      "Ġser": 1136,
      "Ġboth": 1137,
      "Ġpop": 1138,
      "Ġnum": 1139,
      "Ġbehind": 1140,
      "Ġisn": 1141,
      "ĠSuper": 1142,
      "ĠAr": 1143,
      "Ġword": 1144,
      "Ġwork": 1145,
      "anger": 1146,
      "Ġlove": 1147,
      "rue": 1148,
      "ĠUn": 1149,
      "get": 1150,
      "hing": 1151,
      "oy": 1152,
      "ress": 1153,
      "Ġ9": 1154,
      "ince": 1155,
      "Ġhor": 1156,
      "Ġhour": 1157,
      "Ġdick": 1158,
      "ened": 1159,
      "Ġhel": 1160,
      "Ġheart": 1161,
      "ald": 1162,
      "ical": 1163,
      "ĠSp": 1164,
      "uring": 1165,
      "ĠIf": 1166,
      "Ġdecid": 1167,
      "Ġknock": 1168,
      "Ġplayed": 1169,
      "Ġsleep": 1170,
      "Ġoriginally": 1171,
      "Don": 1172,
      "hh": 1173,
      "ipp": 1174,
      "kick": 1175,
      "orld": 1176,
      "its": 1177,
      "Ġpain": 1178,
      "Ġred": 1179,
      "ama": 1180,
      "Ġret": 1181,
      "ĠBl": 1182,
      "acks": 1183,
      "Ġleft": 1184,
      "Ġwhole": 1185,
      "Ġbetwe": 1186,
      "Ġbetween": 1187,
      "IN": 1188,
      "ron": 1189,
      "ton": 1190,
      "ten": 1191,
      "ual": 1192,
      "Ġtou": 1193,
      "Ġsqu": 1194,
      "Ġbest": 1195,
      "Ġfollow": 1196,
      "Ġdays": 1197,
      "ares": 1198,
      "Ġmen": 1199,
      "ift": 1200,
      "Ġvis": 1201,
      "ĠEx": 1202,
      "Ġeveryone": 1203,
      "Ġuniverse": 1204,
      "Ġfeel": 1205,
      "chuck": 1206,
      "Ġschool": 1207,
      "outh": 1208,
      "Ġhigh": 1209,
      "Ġmay": 1210,
      "Ġref": 1211,
      "ĠSo": 1212,
      "Ġdel": 1213,
      "Ġnothing": 1214,
      "Ġspace": 1215,
      "Ġhuman": 1216,
      "Ġtried": 1217,
      "EA": 1218,
      "Th": 1219,
      "ram": 1220,
      "sh": 1221,
      "Ġice": 1222,
      "Ġbody": 1223,
      "Ġcat": 1224,
      "Ġfull": 1225,
      "ited": 1226,
      "Ġpaper": 1227,
      "Ġmus": 1228,
      "Ġgir": 1229,
      "Ġgra": 1230,
      "Ġnamed": 1231,
      "Ġlist": 1232,
      "Ġcann": 1233,
      "illion": 1234,
      "ters": 1235,
      "ific": 1236,
      "Ġfav": 1237,
      "ries": 1238,
      "Ġanyone": 1239,
      "Ġwalked": 1240,
      "Ġfriend": 1241,
      "00000000": 1242,
      "Ġgives": 1243,
      "ohn": 1244,
      "Ġ201": 1245,
      "by": 1246,
      "ym": 1247,
      "ze": 1248,
      "Ġwell": 1249,
      "Ġsom": 1250,
      "Ġset": 1251,
      "Ġcour": 1252,
      "Ġfam": 1253,
      "Ġbear": 1254,
      "Ġthought": 1255,
      "Ġegg": 1256,
      "Ġran": 1257,
      "Ġrel": 1258,
      "ĠDo": 1259,
      "ape": 1260,
      "ĠEarth": 1261,
      "Ġlost": 1262,
      "\",": 1263,
      "de": 1264,
      "ped": 1265,
      "ined": 1266,
      "Ġwind": 1267,
      "Ġwait": 1268,
      "Ġcur": 1269,
      "Ġem": 1270,
      "ames": 1271,
      "ents": 1272,
      "Ġjump": 1273,
      "ĠWorld": 1274,
      "Ġdoesnt": 1275,
      "Ġwords": 1276,
      "Ġpres": 1277,
      "Ġinstant": 1278,
      "Ġconsid": 1279,
      "'d": 1280,
      "ces": 1281,
      "ged": 1282,
      "ier": 1283,
      "ject": 1284,
      "Ġwhe": 1285,
      "Ġsol": 1286,
      "Ġsong": 1287,
      "ert": 1288,
      "Ġbott": 1289,
      "Ġcross": 1290,
      "Ġcaus": 1291,
      "Ġmom": 1292,
      "Ġmoney": 1293,
      "vered": 1294,
      "ster": 1295,
      "Ġstand": 1296,
      "Ġdoor": 1297,
      "Ġans": 1298,
      "Ġkicking": 1299,
      "estion": 1300,
      "ope": 1301,
      "Ġplays": 1302,
      "Ġkilling": 1303,
      "alker": 1304,
      "Ġsub": 1305,
      "Ġsaying": 1306,
      "Ġcontest": 1307,
      "Ġfucking": 1308,
      "Ġbuild": 1309,
      "Ġliter": 1310,
      "app": 1311,
      "io": 1312,
      "ial": 1313,
      "Ġside": 1314,
      "Ġcow": 1315,
      "Ġmiss": 1316,
      "Ġlittle": 1317,
      "ids": 1318,
      "Ġur": 1319,
      "ĠBe": 1320,
      "ĠCl": 1321,
      "Ġcomes": 1322,
      "Ġplaying": 1323,
      "Ġsmell": 1324,
      "Ġhands": 1325,
      "AA": 1326,
      "CHUCK": 1327,
      "ls": 1328,
      "ored": 1329,
      "Ġwears": 1330,
      "Ġcause": 1331,
      "ready": 1332,
      "ones": 1333,
      "Ġpict": 1334,
      "arn": 1335,
      "Ġrep": 1336,
      "key": 1337,
      "Ġchar": 1338,
      "iving": 1339,
      "Ġsuch": 1340,
      "Ġsuper": 1341,
      "ruce": 1342,
      "okes": 1343,
      "Ġcheck": 1344,
      "What": 1345,
      "Ġresult": 1346,
      "ossible": 1347,
      "ND": 1348,
      "apped": 1349,
      "net": 1350,
      "Ġ$": 1351,
      "Ġsou": 1352,
      "Ġob": 1353,
      "Ġbra": 1354,
      "Ġbab": 1355,
      "Ġce": 1356,
      "Ġfour": 1357,
      "ature": 1358,
      "Ġdes": 1359,
      "Ġinv": 1360,
      "Ġthrew": 1361,
      "Ġel": 1362,
      "irgin": 1363,
      "ĠMr": 1364,
      "Ġatte": 1365,
      "ĠRound": 1366,
      "Ġalready": 1367,
      "ains": 1368,
      "Ġext": 1369,
      "ips": 1370,
      "Ġago": 1371,
      "Ġfront": 1372,
      "Ġbroke": 1373,
      "Ġminutes": 1374,
      "After": 1375,
      "ES": 1376,
      "ipped": 1377,
      "oon": 1378,
      "pit": 1379,
      "vil": 1380,
      "Ġthu": 1381,
      "Ġsince": 1382,
      "Ġfast": 1383,
      "ret": 1384,
      "Ġdire": 1385,
      "Ġpie": 1386,
      "ene": 1387,
      "Ġmorn": 1388,
      "ident": 1389,
      "ĠTH": 1390,
      "ures": 1391,
      "Ġhaving": 1392,
      "ĠJohn": 1393,
      "Ġcomm": 1394,
      "Ġacc": 1395,
      "9999999999999999": 1396,
      "Ġhours": 1397,
      "br": 1398,
      "gy": 1399,
      "mor": 1400,
      "ming": 1401,
      "ov": 1402,
      "Ġbang": 1403,
      "Ġcry": 1404,
      "Ġhot": 1405,
      "onn": 1406,
      "Ġpet": 1407,
      "Ġgrow": 1408,
      "Ġheard": 1409,
      "Ġeach": 1410,
      "Ġdoll": 1411,
      "Ġbecame": 1412,
      "Ġlives": 1413,
      "Ġexist": 1414,
      "Ġfeet": 1415,
      "Ġneeds": 1416,
      "Ġinstead": 1417,
      "Ġhorse": 1418,
      "IT": 1419,
      "Ġty": 1420,
      "Ġterr": 1421,
      "ork": 1422,
      "Ġsound": 1423,
      "Ġcol": 1424,
      "Ġdin": 1425,
      "Ġmess": 1426,
      "Ġmass": 1427,
      "rote": 1428,
      "Ġequ": 1429,
      "idd": 1430,
      "Ġstra": 1431,
      "Ġreally": 1432,
      "ĠBig": 1433,
      "ĠMan": 1434,
      "ilt": 1435,
      "ĠWe": 1436,
      "ĠPr": 1437,
      "Ġgold": 1438,
      "Ġmoon": 1439,
      "Ġproble": 1440,
      "Ġwanted": 1441,
      "Ġnumber": 1442,
      "Ġfavor": 1443,
      "bed": 1444,
      "eg": 1445,
      "ler": 1446,
      "pic": 1447,
      "uff": 1448,
      "Ġterm": 1449,
      "Ġtrue": 1450,
      "Ġwee": 1451,
      "Ġble": 1452,
      "Ġbook": 1453,
      "Ġcig": 1454,
      "Ġfar": 1455,
      "reat": 1456,
      "Ġdif": 1457,
      "Ġdark": 1458,
      "Ġpol": 1459,
      "Ġthro": 1460,
      "Ġrepl": 1461,
      "Ġshoot": 1462,
      "ĠGr": 1463,
      "Ġlegs": 1464,
      "ĠFr": 1465,
      "Ġallow": 1466,
      "Ġpissed": 1467,
      "ecause": 1468,
      "Ġmonth": 1469,
      "Ġfinger": 1470,
      "Ġcourse": 1471,
      "Ġmorning": 1472,
      "God": 1473,
      "Ġtaught": 1474,
      "Ġaut": 1475,
      "Ġcond": 1476,
      "Ġfish": 1477,
      "Ġdra": 1478,
      "let": 1479,
      "Ġhell": 1480,
      "Ġhear": 1481,
      "Ġthose": 1482,
      "amn": 1483,
      "Ġwasn": 1484,
      "ired": 1485,
      "ĠSh": 1486,
      "unch": 1487,
      "Ġjoke": 1488,
      "Ġsho": 1489,
      "olf": 1490,
      "ĠThere": 1491,
      "ĠRanger": 1492,
      "ĠFor": 1493,
      "ĠJust": 1494,
      "Ġcalls": 1495,
      "Ġtwice": 1496,
      "ĠChrist": 1497,
      "Ġlooks": 1498,
      "ething": 1499,
      "ails": 1500,
      "Ġskull": 1501,
      "Ġwrong": 1502,
      "Ġtestic": 1503,
      "Ġdecided": 1504,
      "Ġliterally": 1505,
      "All": 1506,
      "iol": 1507,
      "Ġtree": 1508,
      "ĠNe": 1509,
      "Ġbased": 1510,
      "oun": 1511,
      "Ġpants": 1512,
      "Ġgen": 1513,
      "Ġless": 1514,
      "oose": 1515,
      "Ġseen": 1516,
      "Ġ12": 1517,
      "Ġplace": 1518,
      "Ġlead": 1519,
      "Ġscared": 1520,
      "Ġteam": 1521,
      "Ġhur": 1522,
      "Ġthings": 1523,
      "cident": 1524,
      "Ġbox": 1525,
      "Ġmilk": 1526,
      "ĠAmerican": 1527,
      "Ġinstantly": 1528,
      "Ġfavorite": 1529,
      "',": 1530,
      "As": 1531,
      "For": 1532,
      "iam": 1533,
      "land": 1534,
      "ma": 1535,
      "mas": 1536,
      "of": 1537,
      "sc": 1538,
      "head": 1539,
      "Ġcle": 1540,
      "Ġcop": 1541,
      "Ġfat": 1542,
      "Ġpar": 1543,
      "Ġinc": 1544,
      "allen": 1545,
      "Ġforce": 1546,
      "ĠAs": 1547,
      "ĠAfter": 1548,
      "ract": 1549,
      "ĠMc": 1550,
      "Ġknife": 1551,
      "Ġchange": 1552,
      "Ġplan": 1553,
      "Ġalive": 1554,
      "Ġorg": 1555,
      "ĠOr": 1556,
      "Ġexp": 1557,
      "Ġcoll": 1558,
      "Ġtruck": 1559,
      "Ġawes": 1560,
      "hole": 1561,
      "Ġturns": 1562,
      "One": 1563,
      "ĠStar": 1564,
      "Ġpunched": 1565,
      "Ġputs": 1566,
      "Ġbelieve": 1567,
      "ĠDeath": 1568,
      "Ġbirthday": 1569,
      "AT": 1570,
      "Jesus": 1571,
      "OO": 1572,
      "cra": 1573,
      "king": 1574,
      "wh": 1575,
      "Ġir": 1576,
      "Ġvery": 1577,
      "Ġsand": 1578,
      "Ġbur": 1579,
      "Ġfil": 1580,
      "Ġfist": 1581,
      "Ġlar": 1582,
      "ĠTo": 1583,
      "ĠBr": 1584,
      "ĠAll": 1585,
      "ĠWith": 1586,
      "oles": 1587,
      "ĠPl": 1588,
      "ried": 1589,
      "apt": 1590,
      "Ġgetting": 1591,
      "Ġroll": 1592,
      "Ġeverything": 1593,
      "Ġweap": 1594,
      "Ġquestion": 1595,
      "cial": 1596,
      "Ġstarted": 1597,
      "Ġinfin": 1598,
      "Ġpoint": 1599,
      "aughter": 1600,
      "Ġsomething": 1601,
      "ON": 1602,
      "awn": 1603,
      "be": 1604,
      "ient": 1605,
      "lic": 1606,
      "ne": 1607,
      "ove": 1608,
      "ug": 1609,
      "wards": 1610,
      "Ġ,": 1611,
      "ĠZ": 1612,
      "ĠNot": 1613,
      "ina": 1614,
      "Ġsuck": 1615,
      "Ġbag": 1616,
      "Ġham": 1617,
      "Ġfather": 1618,
      "rees": 1619,
      "Ġduring": 1620,
      "Ġpot": 1621,
      "Ġpick": 1622,
      "Ġpass": 1623,
      "Ġpub": 1624,
      "ense": 1625,
      "Ġmouth": 1626,
      "room": 1627,
      "uts": 1628,
      "ĠAn": 1629,
      "Ġnear": 1630,
      "Ġspell": 1631,
      "ospit": 1632,
      "Ġmove": 1633,
      "Ġclass": 1634,
      "Ġclose": 1635,
      "Ġlooking": 1636,
      "Ġground": 1637,
      "Ġspeak": 1638,
      "Ġdisco": 1639,
      "board": 1640,
      "Ġfarts": 1641,
      "!!!!!!!!!!!!!!!!": 1642,
      "Ġkeeps": 1643,
      "Ġdeliver": 1644,
      "Ġanswer": 1645,
      "Ġpicture": 1646,
      "Ġbaby": 1647,
      "Ġdiffer": 1648,
      "Little": 1649,
      "ience": 1650,
      "ished": 1651,
      "inj": 1652,
      "Ġwife": 1653,
      "Ġsal": 1654,
      "erc": 1655,
      "Ġbit": 1656,
      "Ġcaught": 1657,
      "Ġfive": 1658,
      "Ġgay": 1659,
      "ceed": 1660,
      "Ġrain": 1661,
      "illa": 1662,
      "ention": 1663,
      "Ġstri": 1664,
      "ĠCAN": 1665,
      "Ġvirgin": 1666,
      "Ġnose": 1667,
      "Ġblind": 1668,
      "Ġroad": 1669,
      "Ġarm": 1670,
      "Ġowns": 1671,
      "Ġglass": 1672,
      "Ġdrinks": 1673,
      "Ġexplod": 1674,
      "Ġconsidered": 1675,
      "onna": 1676,
      "eor": 1677,
      "gn": 1678,
      "ien": 1679,
      "kin": 1680,
      "lo": 1681,
      "mb": 1682,
      "ring": 1683,
      "ying": 1684,
      "zz": 1685,
      "Ġage": 1686,
      "Ġcase": 1687,
      "reet": 1688,
      "Ġdies": 1689,
      "ĠTV": 1690,
      "Ġwithin": 1691,
      "Ġstare": 1692,
      "Ġreg": 1693,
      "Ġsend": 1694,
      "ĠWalker": 1695,
      "Ġfail": 1696,
      "Ġ100": 1697,
      "anta": 1698,
      "Ġleg": 1699,
      "els": 1700,
      "osaur": 1701,
      "Ġhunt": 1702,
      "izz": 1703,
      "Ġtrans": 1704,
      "ĠYOU": 1705,
      "Ġacross": 1706,
      "ments": 1707,
      "Ġagainst": 1708,
      "Ġkids": 1709,
      "Ġelse": 1710,
      "ospital": 1711,
      "'ve": 1712,
      "?\"": 1713,
      "VER": 1714,
      "ael": 1715,
      "dered": 1716,
      "fast": 1717,
      "ken": 1718,
      "ner": 1719,
      "time": 1720,
      "Ġ0": 1721,
      "ĠNew": 1722,
      "Ġsent": 1723,
      "Ġburn": 1724,
      "esc": 1725,
      "reen": 1726,
      "arch": 1727,
      "Ġmind": 1728,
      "Ġlaw": 1729,
      "Ġyell": 1730,
      "ades": 1731,
      "str": 1732,
      "Ġstate": 1733,
      "Ġrece": 1734,
      "ĠAt": 1735,
      "ified": 1736,
      "Ġshort": 1737,
      "aked": 1738,
      "aps": 1739,
      "Ġupon": 1740,
      "ĠJesus": 1741,
      "ĠKing": 1742,
      "ĠKick": 1743,
      "angu": 1744,
      "Ġmeans": 1745,
      "ichael": 1746,
      "itten": 1747,
      "Ġrunning": 1748,
      "Ġmovies": 1749,
      "Ġtravel": 1750,
      "cient": 1751,
      "Ġhappened": 1752,
      "clud": 1753,
      "Ġdrive": 1754,
      "Ġinside": 1755,
      "ĠAmerica": 1756,
      "Ġpopular": 1757,
      "ĠRoundhouse": 1758,
      "'m": 1759,
      "How": 1760,
      "aves": 1761,
      "gle": 1762,
      "ium": 1763,
      "lves": 1764,
      "vol": 1765,
      "Ġwrote": 1766,
      "Ġcro": 1767,
      "Ġfaster": 1768,
      "Ġprom": 1769,
      "Ġpuss": 1770,
      "Ġtoday": 1771,
      "Ġtoget": 1772,
      "Ġnorris": 1773,
      "Ġlangu": 1774,
      "uth": 1775,
      "Ġriding": 1776,
      "illed": 1777,
      "ĠHow": 1778,
      "Ġwhis": 1779,
      "ĠBecause": 1780,
      "ĠIS": 1781,
      "!!!": 1782,
      "Ġliving": 1783,
      "ĠDon": 1784,
      "ĠRe": 1785,
      "apan": 1786,
      "ĠON": 1787,
      "Ġexact": 1788,
      "Ġexcept": 1789,
      "ives": 1790,
      "ages": 1791,
      "ably": 1792,
      "ĠUS": 1793,
      "Ġrecord": 1794,
      "Ġ50": 1795,
      "ountain": 1796,
      "Ġbuilt": 1797,
      "Ġbullet": 1798,
      "Ġsteel": 1799,
      "ĠInter": 1800,
      "Ġbreakfast": 1801,
      "Ġwearing": 1802,
      "Ġperfect": 1803,
      "ĠSuperman": 1804,
      "Ġhelp": 1805,
      "Ġfriends": 1806,
      "Ġcaused": 1807,
      "Ġsoul": 1808,
      "Ġtogether": 1809,
      "af": 1810,
      "bow": 1811,
      "ef": 1812,
      "fers": 1813,
      "hip": 1814,
      "iant": 1815,
      "mpt": 1816,
      "ping": 1817,
      "round": 1818,
      "rho": 1819,
      "way": 1820,
      "ised": 1821,
      "Ġwat": 1822,
      "Ġbus": 1823,
      "Ġcent": 1824,
      "Ġhospital": 1825,
      "ats": 1826,
      "Ġmir": 1827,
      "Ġmur": 1828,
      "Ġmatch": 1829,
      "Ġoften": 1830,
      "Ġgas": 1831,
      "Ġgonna": 1832,
      "cean": 1833,
      "vers": 1834,
      "ides": 1835,
      "ills": 1836,
      "ically": 1837,
      "allow": 1838,
      "ĠBruce": 1839,
      "unk": 1840,
      "elt": 1841,
      "ucky": 1842,
      "ĠOf": 1843,
      "Ġnobody": 1844,
      "Ġsaf": 1845,
      "......": 1846,
      "Ġwalks": 1847,
      "Ġprefers": 1848,
      "Ġtells": 1849,
      "rench": 1850,
      "Ġwatching": 1851,
      "Ġattack": 1852,
      "Ġdestroyed": 1853,
      "ackson": 1854,
      "Ġmusic": 1855,
      "Ġfamily": 1856,
      "Ġdirect": 1857,
      "Ġtesticles": 1858,
      "craft": 1859,
      "Ġdiscovered": 1860,
      "&#": 1861,
      "CH": 1862,
      "ED": 1863,
      "ILL": 1864,
      "Most": 1865,
      "No": 1866,
      "book": 1867,
      "end": 1868,
      "eps": 1869,
      "ycle": 1870,
      "Ġ.": 1871,
      "ĠX": 1872,
      "Ġtast": 1873,
      "Ġtatt": 1874,
      "ino": 1875,
      "Ġsy": 1876,
      "Ġsize": 1877,
      "Ġocc": 1878,
      "Ġtheory": 1879,
      "Ġbare": 1880,
      "Ġbitch": 1881,
      "Ġfree": 1882,
      "Ġdue": 1883,
      "Ġpair": 1884,
      "Ġtop": 1885,
      "arate": 1886,
      "Ġmust": 1887,
      "Ġline": 1888,
      "Ġthous": 1889,
      "Ġeas": 1890,
      "Ġear": 1891,
      "uter": 1892,
      "Ġitself": 1893,
      "ĠHE": 1894,
      "raph": 1895,
      "ĠMon": 1896,
      "Ġchallen": 1897,
      "Ġsperm": 1898,
      "ummer": 1899,
      "Ġorder": 1900,
      "Ġvide": 1901,
      "osed": 1902,
      "Ġloc": 1903,
      "Ġeating": 1904,
      "Ġsecret": 1905,
      "achine": 1906,
      "Ġappear": 1907,
      "anks": 1908,
      "Ġmiles": 1909,
      "Ġstrong": 1910,
      "Ġzero": 1911,
      "Ġboots": 1912,
      "Ġtouch": 1913,
      "morrho": 1914,
      "Ġstraight": 1915,
      "Ġtattoo": 1916,
      "EN": 1917,
      "St": 1918,
      "ai": 1919,
      "but": 1920,
      "che": 1921,
      "dd": 1922,
      "ky": 1923,
      "yle": 1924,
      "Ġere": 1925,
      "Ġtit": 1926,
      "Ġtur": 1927,
      "Ġable": 1928,
      "hur": 1929,
      "ines": 1930,
      "Ġsix": 1931,
      "Ġcast": 1932,
      "Ġcatch": 1933,
      "any": 1934,
      "anic": 1935,
      "ators": 1936,
      "Ġdream": 1937,
      "Ġpig": 1938,
      "Ġpark": 1939,
      "Ġmed": 1940,
      "Ġmere": 1941,
      "lete": 1942,
      "Ġgolf": 1943,
      "ution": 1944,
      "Ġdoctor": 1945,
      "ĠSc": 1946,
      "ĠSn": 1947,
      "Ġanother": 1948,
      "ĠChe": 1949,
      "esting": 1950,
      "Ġspl": 1951,
      "Ġviol": 1952,
      "Ġprodu": 1953,
      "Ġscream": 1954,
      "Ġdidnt": 1955,
      "ational": 1956,
      "ables": 1957,
      "Ġsmall": 1958,
      "Ġcoff": 1959,
      "Ġdont": 1960,
      "Ġcreate": 1961,
      "Ġbeats": 1962,
      "Ġaccident": 1963,
      "Ġapple": 1964,
      "Ġappro": 1965,
      "ember": 1966,
      "Ġresp": 1967,
      "Ġbadass": 1968,
      "attle": 1969,
      "Ġcannot": 1970,
      "Ġwheel": 1971,
      "Ġproblem": 1972,
      "Ġmonths": 1973,
      "Ġmirr": 1974,
      "Be": 1975,
      "iet": 1976,
      "mber": 1977,
      "rary": 1978,
      "Ġtig": 1979,
      "hut": 1980,
      "inct": 1981,
      "inator": 1982,
      "Ġsat": 1983,
      "Ġbath": 1984,
      "Ġcorn": 1985,
      "Ġfall": 1986,
      "ither": 1987,
      "Ġmad": 1988,
      "Ġmaking": 1989,
      "Ġinclud": 1990,
      "Ġstay": 1991,
      "Ġstory": 1992,
      "ĠAND": 1993,
      "ĠIs": 1994,
      "They": 1995,
      "ained": 1996,
      "Ġvol": 1997,
      "ĠLee": 1998,
      "Ġmoves": 1999,
      "Ġcoming": 2000,
      "Ġproceed": 2001,
      "Ġ30": 2002,
      "iction": 2003,
      "Ġsnee": 2004,
      "Ġtrain": 2005,
      "Ġcomputer": 2006,
      "Ġboy": 2007,
      "Ġsteak": 2008,
      "boy": 2009,
      "Ġstaring": 2010,
      "Ġchildren": 2011,
      "Ġadd": 2012,
      "Ġkeep": 2013,
      "kicked": 2014,
      "ĠBlack": 2015,
      "Ġdinosaur": 2016,
      "Ġawesome": 2017,
      "50": 2018,
      "AS": 2019,
      "Do": 2020,
      "aid": 2021,
      "aving": 2022,
      "fort": 2023,
      "gan": 2024,
      "hood": 2025,
      "iens": 2026,
      "oice": 2027,
      "res": 2028,
      "Ġesc": 2029,
      "Ġap": 2030,
      "ĠNob": 2031,
      "Ġwond": 2032,
      "Ġopp": 2033,
      "Ġcor": 2034,
      "Ġcook": 2035,
      "Ġcity": 2036,
      "Ġdamn": 2037,
      "Ġple": 2038,
      "Ġpri": 2039,
      "Ġpast": 2040,
      "ask": 2041,
      "Ġmod": 2042,
      "Ġmist": 2043,
      "Ġmatter": 2044,
      "lebr": 2045,
      "Ġgall": 2046,
      "Ġhemorrho": 2047,
      "Ġnu": 2048,
      "selves": 2049,
      "Ġkey": 2050,
      "Ġyoung": 2051,
      "Ġdog": 2052,
      "Ġdos": 2053,
      "Ġdoing": 2054,
      "Ġanim": 2055,
      "ĠBar": 2056,
      "unt": 2057,
      "Ġjob": 2058,
      "ested": 2059,
      "iling": 2060,
      "Ġchang": 2061,
      "Ġ14": 2062,
      "Ġsold": 2063,
      "Ġplane": 2064,
      "Ġlevel": 2065,
      "Ġlearn": 2066,
      "ĠEvery": 2067,
      "ĠJack": 2068,
      "ĠJackson": 2069,
      "ĠLe": 2070,
      "Ġexper": 2071,
      "ived": 2072,
      "Ġthemselves": 2073,
      "Ġwouldn": 2074,
      "Ġproper": 2075,
      "Ġscrew": 2076,
      "Ġsupp": 2077,
      "onds": 2078,
      "Ġasshole": 2079,
      "Ġmean": 2080,
      "Ġenj": 2081,
      "Ġslow": 2082,
      "Ġ--": 2083,
      "gger": 2084,
      "Ġchew": 2085,
      "Ġcontin": 2086,
      "Ġruns": 2087,
      "Ġskin": 2088,
      "ograph": 2089,
      "Ġhappens": 2090,
      "Ġoriginal": 2091,
      "ĠOne": 2092,
      "Ġrestaur": 2093,
      "Ġgreatest": 2094,
      "Ġsubm": 2095,
      "Ġiron": 2096,
      "Ġpussy": 2097,
      "AR": 2098,
      "Ch": 2099,
      "Who": 2100,
      "aj": 2101,
      "aven": 2102,
      "bers": 2103,
      "cum": 2104,
      "eat": 2105,
      "hous": 2106,
      "ians": 2107,
      "men": 2108,
      "ox": 2109,
      "ole": 2110,
      "ple": 2111,
      "uice": 2112,
      "Ġ#": 2113,
      "Ġide": 2114,
      "Ġten": 2115,
      "ĠNor": 2116,
      "iness": 2117,
      "ering": 2118,
      "Ġcool": 2119,
      "Ġhang": 2120,
      "Ġdou": 2121,
      "Ġdad": 2122,
      "Ġtooth": 2123,
      "Ġmar": 2124,
      "Ġmillion": 2125,
      "Ġint": 2126,
      "Ġyet": 2127,
      "Ġbeef": 2128,
      "ads": 2129,
      "adow": 2130,
      "Ġrace": 2131,
      "Ġrub": 2132,
      "omen": 2133,
      "ics": 2134,
      "Ġforg": 2135,
      "Ġrequ": 2136,
      "ĠSanta": 2137,
      "Ġwhite": 2138,
      "aul": 2139,
      "ĠAm": 2140,
      "Ġself": 2141,
      "Ġshadow": 2142,
      "ield": 2143,
      "Ġneck": 2144,
      "Ġ18": 2145,
      "ĠRuss": 2146,
      "Ġordered": 2147,
      "Ġvac": 2148,
      "ĠOb": 2149,
      "ĠJapan": 2150,
      "Ġbutter": 2151,
      "ached": 2152,
      "Ġconf": 2153,
      "Ġsure": 2154,
      "arent": 2155,
      "Ġtele": 2156,
      "Ġsmart": 2157,
      "Ġfew": 2158,
      "itting": 2159,
      "redator": 2160,
      "Ġcouldn": 2161,
      "Ġquick": 2162,
      "Ġthinks": 2163,
      "Ġwoodchuck": 2164,
      "Ġbelief": 2165,
      "hhhh": 2166,
      "Ġ2012": 2167,
      "Ġwindow": 2168,
      "Ġcelebr": 2169,
      "ĠTHE": 2170,
      "Ġthroat": 2171,
      "Ġallowed": 2172,
      "Ġcondom": 2173,
      "Ġorgas": 2174,
      "Ġvirginity": 2175,
      "Ġcoffee": 2176,
      "Ġmirror": 2177,
      "77": 2178,
      "An": 2179,
      "Cont": 2180,
      "Ste": 2181,
      "XX": 2182,
      "com": 2183,
      "eople": 2184,
      "gram": 2185,
      "mons": 2186,
      "und": 2187,
      "ĠQ": 2188,
      "Ġbomb": 2189,
      "Ġcir": 2190,
      "Ġfre": 2191,
      "Ġfut": 2192,
      "Ġfool": 2193,
      "ative": 2194,
      "Ġdet": 2195,
      "Ġmain": 2196,
      "Ġmag": 2197,
      "Ġmachine": 2198,
      "Ġninj": 2199,
      "Ġlaugh": 2200,
      "roll": 2201,
      "ims": 2202,
      "aly": 2203,
      "ste": 2204,
      "omes": 2205,
      "Ġstup": 2206,
      "ured": 2207,
      "iew": 2208,
      "Ġdec": 2209,
      "Ġknew": 2210,
      "Ġyourself": 2211,
      "olog": 2212,
      "ĠPro": 2213,
      "Ġleast": 2214,
      "ĠFl": 2215,
      "Ġrole": 2216,
      "agal": 2217,
      "Ġprote": 2218,
      "Ġmeat": 2219,
      "ĠNOT": 2220,
      "Ġfem": 2221,
      "Ġflo": 2222,
      "ĠVin": 2223,
      "Only": 2224,
      "Ġfacts": 2225,
      "Ġsnow": 2226,
      "Ġpress": 2227,
      "Ġgreen": 2228,
      "Ġwins": 2229,
      "Why": 2230,
      "Ġnightm": 2231,
      "Ġsleeps": 2232,
      "Ġsurvive": 2233,
      "avy": 2234,
      "Ġparty": 2235,
      "Ġdrop": 2236,
      "Ġ198": 2237,
      "Ġpulled": 2238,
      "ĠSeagal": 2239,
      "ING": 2240,
      "Ġattempt": 2241,
      "Ġinfinity": 2242,
      "Ġpublic": 2243,
      "Ġstupid": 2244,
      "AY": 2245,
      "FC": 2246,
      "OR": 2247,
      "back": 2248,
      "fuck": 2249,
      "gon": 2250,
      "gun": 2251,
      "like": 2252,
      "oly": 2253,
      "riend": 2254,
      "ule": 2255,
      "vis": 2256,
      "vice": 2257,
      "wo": 2258,
      "where": 2259,
      "Ġ:": 2260,
      "ĠNow": 2261,
      "Ġson": 2262,
      "Ġbase": 2263,
      "Ġhat": 2264,
      "Ġhiding": 2265,
      "rent": 2266,
      "Ġda": 2267,
      "Ġdiam": 2268,
      "Ġpound": 2269,
      "Ġpack": 2270,
      "Ġpush": 2271,
      "Ġmic": 2272,
      "Ġmaster": 2273,
      "ley": 2274,
      "Ġgift": 2275,
      "Ġyard": 2276,
      "Ġke": 2277,
      "otal": 2278,
      "othes": 2279,
      "ute": 2280,
      "Ġcancer": 2281,
      "Ġform": 2282,
      "ĠShe": 2283,
      "urger": 2284,
      "Ġjokes": 2285,
      "Ġjuice": 2286,
      "ĠMar": 2287,
      "Ġseat": 2288,
      "Ġshark": 2289,
      "Ġspr": 2290,
      "ĠPh": 2291,
      "Ġsoon": 2292,
      "ĠFact": 2293,
      "ĠLu": 2294,
      "acher": 2295,
      "Ġoffic": 2296,
      "ipe": 2297,
      "Ġaction": 2298,
      "Ġloves": 2299,
      "Ġhung": 2300,
      "hess": 2301,
      "Ġeng": 2302,
      "reddy": 2303,
      "host": 2304,
      "Ġchest": 2305,
      "Ġwrite": 2306,
      "Ġrealized": 2307,
      "Ġbroken": 2308,
      "pend": 2309,
      "Ġcrap": 2310,
      "Ġwarning": 2311,
      "Ġimpossible": 2312,
      "Ġsurvived": 2313,
      "Ġeleph": 2314,
      "Ġfinished": 2315,
      "Ġbowl": 2316,
      "Ġtrying": 2317,
      "Ġstanding": 2318,
      "Ġdollars": 2319,
      "Ġterror": 2320,
      "Ġdelivered": 2321,
      "ĠHowever": 2322,
      "Ġdinosaurs": 2323,
      "fortun": 2324,
      "Contrary": 2325,
      ",\"": 2326,
      "cing": 2327,
      "ding": 2328,
      "eb": 2329,
      "gen": 2330,
      "pris": 2331,
      "ses": 2332,
      "vity": 2333,
      "ward": 2334,
      "yd": 2335,
      "you": 2336,
      "zer": 2337,
      "Ġ...": 2338,
      "ister": 2339,
      "Ġwet": 2340,
      "Ġsight": 2341,
      "Ġbuck": 2342,
      "Ġcard": 2343,
      "Ġcure": 2344,
      "Ġhates": 2345,
      "ato": 2346,
      "itar": 2347,
      "Ġpat": 2348,
      "Ġpizz": 2349,
      "arl": 2350,
      "Ġmult": 2351,
      "Ġind": 2352,
      "lect": 2353,
      "Ġnine": 2354,
      "Ġlot": 2355,
      "Ġbell": 2356,
      "aded": 2357,
      "Ġrh": 2358,
      "Ġride": 2359,
      "lym": 2360,
      "ĠTotal": 2361,
      "aun": 2362,
      "iff": 2363,
      "ĠMac": 2364,
      "ils": 2365,
      "Ġchop": 2366,
      "Ġchance": 2367,
      "Ġsport": 2368,
      "Ġ11": 2369,
      "ĠGym": 2370,
      "ĠRock": 2371,
      "umb": 2372,
      "Ġbutt": 2373,
      "Ġbackwards": 2374,
      "Ġ200": 2375,
      "Ġclim": 2376,
      "Ġhum": 2377,
      "Ġhuge": 2378,
      "ortal": 2379,
      "Ġguys": 2380,
      "Ġwrest": 2381,
      "Ġwritten": 2382,
      "Ġunderst": 2383,
      "Ġgiving": 2384,
      "Ġgiven": 2385,
      "Ġcrack": 2386,
      "anned": 2387,
      "Ġsurvivors": 2388,
      "Ġinternet": 2389,
      "Ġflying": 2390,
      "Ġbuilding": 2391,
      "Ġattend": 2392,
      "Ġequal": 2393,
      "iddle": 2394,
      "ĠPrime": 2395,
      "Ġbleed": 2396,
      "ĠChristmas": 2397,
      "Ġgener": 2398,
      "ĠMcDon": 2399,
      "Ġplanet": 2400,
      "Ġlarge": 2401,
      "Ġweapon": 2402,
      "Ġexploded": 2403,
      "Ġlanguage": 2404,
      "Ġchallenged": 2405,
      "Ġvideo": 2406,
      "Ġerection": 2407,
      "Ġchanged": 2408,
      "Ġidea": 2409,
      ").": 2410,
      "??": 2411,
      "At": 2412,
      "go": 2413,
      "gest": 2414,
      "ned": 2415,
      "nam": 2416,
      "side": 2417,
      "with": 2418,
      "yr": 2419,
      "Ġer": 2420,
      "ishes": 2421,
      "Ġtong": 2422,
      "Ġtough": 2423,
      "Ġtears": 2424,
      "Ġast": 2425,
      "Ġoil": 2426,
      "Ġocean": 2427,
      "Ġban": 2428,
      "Ġband": 2429,
      "Ġbored": 2430,
      "Ġcell": 2431,
      "Ġcup": 2432,
      "Ġchess": 2433,
      "Ġhon": 2434,
      "Ġfood": 2435,
      "itness": 2436,
      "ndred": 2437,
      "rect": 2438,
      "Ġpost": 2439,
      "Ġmot": 2440,
      "Ġgro": 2441,
      "Ġeither": 2442,
      "Ġrad": 2443,
      "Ġripped": 2444,
      "omic": 2445,
      "ĠTr": 2446,
      "ammed": 2447,
      "icycle": 2448,
      "Ġstud": 2449,
      "Ġstates": 2450,
      "ird": 2451,
      "ĠHaw": 2452,
      "ĠMichael": 2453,
      "ility": 2454,
      "Ġsever": 2455,
      "ĠWill": 2456,
      "Ġliqu": 2457,
      "ĠDay": 2458,
      "ĠPac": 2459,
      "ĠPredator": 2460,
      "ĠGu": 2461,
      "ume": 2462,
      "Ġbutton": 2463,
      "aces": 2464,
      "Ġprob": 2465,
      "Ġclothes": 2466,
      "ptim": 2467,
      "Ġhundred": 2468,
      "ously": 2469,
      "Ġasks": 2470,
      "ected": 2471,
      "Ġwebs": 2472,
      "oker": 2473,
      "Ġswam": 2474,
      "orses": 2475,
      "Ġprep": 2476,
      "Ġbrut": 2477,
      "Ġpersonal": 2478,
      "Ġbuy": 2479,
      "Ġcompet": 2480,
      "Ġcomplete": 2481,
      "Ġbullets": 2482,
      "Ġdrinking": 2483,
      "Ġsheer": 2484,
      "Ġfighting": 2485,
      "Ġhappen": 2486,
      "Ġremo": 2487,
      "Ġremember": 2488,
      "Ġelect": 2489,
      "ĠWhat": 2490,
      "Ġholds": 2491,
      "Ġfingers": 2492,
      "aldo": 2493,
      "Ġreturn": 2494,
      "Ġeggs": 2495,
      "Ġbottom": 2496,
      "99999999999999999999999999999999": 2497,
      "Ġfilm": 2498,
      "Ġwatches": 2499,
      "Ġproceeded": 2500,
      "Ġrestaurant": 2501,
      "ĠObama": 2502,
      "Ġfuture": 2503,
      "Ġtongue": 2504,
      "11": 2505,
      "27": 2506,
      "CE": 2507,
      "He": 2508,
      "Super": 2509,
      "To": 2510,
      "bor": 2511,
      "do": 2512,
      "lock": 2513,
      "ney": 2514,
      "nold": 2515,
      "pes": 2516,
      "use": 2517,
      "work": 2518,
      "ism": 2519,
      "Ġtank": 2520,
      "Ġtable": 2521,
      "Ġtaking": 2522,
      "Ġaud": 2523,
      "Ġshut": 2524,
      "erman": 2525,
      "Ġbill": 2526,
      "Ġbone": 2527,
      "Ġbillion": 2528,
      "Ġcap": 2529,
      "ances": 2530,
      "Ġfan": 2531,
      "Ġfif": 2532,
      "Ġdone": 2533,
      "Ġdare": 2534,
      "arry": 2535,
      "Ġmight": 2536,
      "Ġmiddle": 2537,
      "Ġhere": 2538,
      "Ġlucky": 2539,
      "Ġkind": 2540,
      "Ġhist": 2541,
      "Ġep": 2542,
      "Ġrap": 2543,
      "verse": 2544,
      "stem": 2545,
      "ĠTom": 2546,
      "ĠTerm": 2547,
      "amm": 2548,
      "Ġstone": 2549,
      "Ġdogs": 2550,
      "irt": 2551,
      "Ġforest": 2552,
      "Ġrefer": 2553,
      "ĠHouse": 2554,
      "oop": 2555,
      "oogle": 2556,
      "Ġwhale": 2557,
      "ĠBob": 2558,
      "urb": 2559,
      "Ġje": 2560,
      "ĠMine": 2561,
      "ĠMost": 2562,
      "Ġneigh": 2563,
      "Ġdeg": 2564,
      "Ġdep": 2565,
      "Ġbecome": 2566,
      "Whenever": 2567,
      "ĠPri": 2568,
      "Ġ15": 2569,
      "Ġ17": 2570,
      "rizz": 2571,
      "ĠRed": 2572,
      "Ġleave": 2573,
      "Ġvict": 2574,
      "ĠEVER": 2575,
      "ĠLad": 2576,
      "Ġblock": 2577,
      "Ġprogram": 2578,
      "ations": 2579,
      "lfriend": 2580,
      "berg": 2581,
      "Ġslapped": 2582,
      "Ġfeed": 2583,
      "Ġcold": 2584,
      "Ġgrade": 2585,
      "Ġbelt": 2586,
      "Ġended": 2587,
      "ighter": 2588,
      "Ġphys": 2589,
      "While": 2590,
      "Ġguns": 2591,
      "ĠiP": 2592,
      "Ġzomb": 2593,
      "Ġpunching": 2594,
      "iously": 2595,
      "Ġpowerful": 2596,
      "Ġknocked": 2597,
      "Ġfollowing": 2598,
      "0000000000000000": 2599,
      "Ġpresident": 2600,
      "AAAA": 2601,
      "Ġthus": 2602,
      "Ġpiece": 2603,
      "Ġcolor": 2604,
      "Ġmassive": 2605,
      "Ġweek": 2606,
      "Ġpolice": 2607,
      "Ġfatal": 2608,
      "Ġwhiskey": 2609,
      "Ġmurder": 2610,
      "Ġtitle": 2611,
      "Ġtiger": 2612,
      "Ġgallon": 2613,
      "stein": 2614,
      "Ġnightmares": 2615,
      "Ġdaily": 2616,
      "ĠTerminator": 2617,
      "67": 2618,
      "Al": 2619,
      "II": 2620,
      "NA": 2621,
      "People": 2622,
      "aff": 2623,
      "bit": 2624,
      "cess": 2625,
      "for": 2626,
      "gu": 2627,
      "holes": 2628,
      "ius": 2629,
      "kn": 2630,
      "lant": 2631,
      "sp": 2632,
      "ues": 2633,
      "wood": 2634,
      "orilla": 2635,
      "inese": 2636,
      "instein": 2637,
      "Ġsit": 2638,
      "Ġbat": 2639,
      "Ġbite": 2640,
      "oud": 2641,
      "Ġcou": 2642,
      "Ġcode": 2643,
      "Ġhi": 2644,
      "ester": 2645,
      "Ġfell": 2646,
      "Ġfilled": 2647,
      "Ġdist": 2648,
      "Ġdiv": 2649,
      "Ġpin": 2650,
      "Ġpool": 2651,
      "Ġmountain": 2652,
      "lex": 2653,
      "Ġgiant": 2654,
      "Ġheaven": 2655,
      "Ġnat": 2656,
      "Ġepic": 2657,
      "ote": 2658,
      "add": 2659,
      "uty": 2660,
      "ĠTO": 2661,
      "Ġstore": 2662,
      "Ġstreet": 2663,
      "ctors": 2664,
      "ĠSl": 2665,
      "ĠCan": 2666,
      "ĠCom": 2667,
      "Ġjud": 2668,
      "ĠMiss": 2669,
      "ĠIN": 2670,
      "Ġsees": 2671,
      "Ġsell": 2672,
      "opoly": 2673,
      "ief": 2674,
      "ieve": 2675,
      "Ġdevil": 2676,
      "ushes": 2677,
      "olt": 2678,
      "Ġchain": 2679,
      "Ġchains": 2680,
      "ĠRob": 2681,
      "Ġlemon": 2682,
      "ĠFrench": 2683,
      "Ġvs": 2684,
      "ĠOlym": 2685,
      "ĠEver": 2686,
      "Ġsave": 2687,
      ".......": 2688,
      "Ġtheme": 2689,
      "Ġscore": 2690,
      "Ġcla": 2691,
      "Ġteacher": 2692,
      "Ġ300": 2693,
      "Ġthank": 2694,
      "Ġlooked": 2695,
      "Ġtruth": 2696,
      "Ġgrand": 2697,
      "gged": 2698,
      "Ġcheese": 2699,
      "Ġfres": 2700,
      "Ġgren": 2701,
      "Ġthinking": 2702,
      "Ġfootball": 2703,
      "Ġbreaks": 2704,
      "Ġsigns": 2705,
      "clear": 2706,
      "Ġattention": 2707,
      "................": 2708,
      "Ġholding": 2709,
      "ĠSteve": 2710,
      "Ġminute": 2711,
      "ĠArm": 2712,
      "Ġpaint": 2713,
      "Ġgirlfriend": 2714,
      "Ġcurrent": 2715,
      "Ġurin": 2716,
      "Ġbrain": 2717,
      "Ġreplied": 2718,
      "ĠFrance": 2719,
      "Ġclean": 2720,
      "Ġsandw": 2721,
      "Ġdifferent": 2722,
      "cientists": 2723,
      "Ġexactly": 2724,
      "Ġcenter": 2725,
      "Ġfalls": 2726,
      "Ġmistake": 2727,
      "Ġvacation": 2728,
      "arents": 2729,
      "pendables": 2730,
      "Ġelephant": 2731,
      "Ġpizza": 2732,
      "ĠMinecraft": 2733,
      "--": 2734,
      "20": 2735,
      "68": 2736,
      "DS": 2737,
      "OT": 2738,
      "SS": 2739,
      "down": 2740,
      "ging": 2741,
      "gers": 2742,
      "him": 2743,
      "hand": 2744,
      "oys": 2745,
      "pr": 2746,
      "rat": 2747,
      "sama": 2748,
      "ta": 2749,
      "Ġtre": 2750,
      "Ġtill": 2751,
      "Ġtall": 2752,
      "Ġtied": 2753,
      "Ġav": 2754,
      "Ġwitness": 2755,
      "Ġour": 2756,
      "Ġboo": 2757,
      "Ġbattle": 2758,
      "Ġcal": 2759,
      "Ġcock": 2760,
      "Ġfought": 2761,
      "itler": 2762,
      "render": 2763,
      "Ġduck": 2764,
      "Ġdaughter": 2765,
      "ony": 2766,
      "Ġpu": 2767,
      "Ġpink": 2768,
      "asqu": 2769,
      "Ġtoen": 2770,
      "arm": 2771,
      "arr": 2772,
      "Ġmast": 2773,
      "Ġhes": 2774,
      "Ġlay": 2775,
      "Ġlick": 2776,
      "Ġlate": 2777,
      "Ġlawn": 2778,
      "Ġbegin": 2779,
      "Ġking": 2780,
      "Ġevent": 2781,
      "Ġeff": 2782,
      "verage": 2783,
      "ĠTe": 2784,
      "illy": 2785,
      "ices": 2786,
      "icide": 2787,
      "Ġstom": 2788,
      "ires": 2789,
      "Ġforever": 2790,
      "ĠSer": 2791,
      "Ġann": 2792,
      "ĠBear": 2793,
      "ĠMay": 2794,
      "iles": 2795,
      "Ġseven": 2796,
      "Ġsearch": 2797,
      "ops": 2798,
      "oped": 2799,
      "Ġroundhous": 2800,
      "Ġdevel": 2801,
      "ights": 2802,
      "Ġspin": 2803,
      "Ġ13": 2804,
      "ulk": 2805,
      "ĠKill": 2806,
      "Ġrode": 2807,
      "Ġscient": 2808,
      "Ġart": 2809,
      "iple": 2810,
      "Ġmeas": 2811,
      "ptly": 2812,
      "obra": 2813,
      "Ġsmoke": 2814,
      "Ġslap": 2815,
      "itted": 2816,
      "Ġswallow": 2817,
      "Ġneeded": 2818,
      "Ġsurrender": 2819,
      "ube": 2820,
      "Ġtelling": 2821,
      "roshim": 2822,
      "Ġimm": 2823,
      "Ġstarts": 2824,
      "Ġreads": 2825,
      "Ġready": 2826,
      "Ġbigger": 2827,
      "Ġbelieves": 2828,
      "Ġfinds": 2829,
      "Ġinsp": 2830,
      "Ġbowling": 2831,
      "Ġthrows": 2832,
      "Ġtalking": 2833,
      "Ġvisited": 2834,
      "Ġbottle": 2835,
      "Ġmoment": 2836,
      "Ġtaste": 2837,
      "ĠPacific": 2838,
      "ptimus": 2839,
      "Ġhistory": 2840,
      "asquatch": 2841,
      "roshima": 2842,
      "),": 2843,
      "65": 2844,
      "Just": 2845,
      "KE": 2846,
      "OD": 2847,
      "con": 2848,
      "coh": 2849,
      "dge": 2850,
      "ege": 2851,
      "ges": 2852,
      "giving": 2853,
      "iber": 2854,
      "lish": 2855,
      "oe": 2856,
      "pon": 2857,
      "phen": 2858,
      "zed": 2859,
      "isode": 2860,
      "Ġtear": 2861,
      "rison": 2862,
      "ern": 2863,
      "Ġbank": 2864,
      "Ġcrow": 2865,
      "Ġcried": 2866,
      "atic": 2867,
      "iting": 2868,
      "itive": 2869,
      "reme": 2870,
      "regn": 2871,
      "Ġden": 2872,
      "Ġdares": 2873,
      "Ġpill": 2874,
      "Ġpimp": 2875,
      "Ġpossible": 2876,
      "Ġparents": 2877,
      "ara": 2878,
      "aring": 2879,
      "enes": 2880,
      "Ġmid": 2881,
      "Ġmile": 2882,
      "Ġmark": 2883,
      "Ġgames": 2884,
      "Ġlaug": 2885,
      "Ġlift": 2886,
      "Ġbegan": 2887,
      "Ġthough": 2888,
      "Ġthreat": 2889,
      "Ġkarate": 2890,
      "rodu": 2891,
      "Ġevol": 2892,
      "ots": 2893,
      "ales": 2894,
      "Ġcant": 2895,
      "omy": 2896,
      "ĠTw": 2897,
      "ĠTit": 2898,
      "ille": 2899,
      "amas": 2900,
      "Ġfore": 2901,
      "ĠHummer": 2902,
      "Ġang": 2903,
      "Ġanal": 2904,
      "ĠBy": 2905,
      "ĠBin": 2906,
      "ury": 2907,
      "ĠAf": 2908,
      "ĠCo": 2909,
      "ĠCon": 2910,
      "ung": 2911,
      "ests": 2912,
      "ili": 2913,
      "iler": 2914,
      "Ġhasn": 2915,
      "ĠWaldo": 2916,
      "Ġdem": 2917,
      "used": 2918,
      "aken": 2919,
      "ĠRich": 2920,
      "Ġworth": 2921,
      "ĠFreddy": 2922,
      "Ġalone": 2923,
      "Ġpee": 2924,
      "Ġblink": 2925,
      "acul": 2926,
      "ĠKFC": 2927,
      "Ġusually": 2928,
      "Ġ25": 2929,
      "Ġcomb": 2930,
      "Ġabs": 2931,
      "obs": 2932,
      "Ġenc": 2933,
      "bert": 2934,
      "Ġflu": 2935,
      "Ġwalking": 2936,
      "Ġ500": 2937,
      "Ġcarry": 2938,
      "Ġbreat": 2939,
      "Ġbreath": 2940,
      "Ġspecial": 2941,
      "Ġpregn": 2942,
      "phone": 2943,
      "Ġbring": 2944,
      "Ġunderw": 2945,
      "box": 2946,
      "Ġfarted": 2947,
      "Ġletters": 2948,
      "Ġhits": 2949,
      "balls": 2950,
      "ampions": 2951,
      "Ġstrang": 2952,
      "Ġperform": 2953,
      "Ġdecides": 2954,
      "Ġsquee": 2955,
      "Ġsquare": 2956,
      "That": 2957,
      "apping": 2958,
      "Ġurine": 2959,
      "Ġobject": 2960,
      "Ġmessage": 2961,
      "Ġfishing": 2962,
      "what": 2963,
      "Ġpotato": 2964,
      "Ġstrikes": 2965,
      "Ġyellow": 2966,
      "Ġreceived": 2967,
      "ĠAtlant": 2968,
      "Ġsafe": 2969,
      "Ġsystem": 2970,
      "Ġthousands": 2971,
      "hurch": 2972,
      "Ġaccidentally": 2973,
      "ictionary": 2974,
      "Ġnuclear": 2975,
      "Ġfemale": 2976,
      "Ġwebsite": 2977,
      "Ġepisode": 2978,
      "rizzly": 2979,
      "ĠLaden": 2980,
      "ĠOlympic": 2981,
      "Ġfresh": 2982,
      "Ġmasturb": 2983,
      "cohol": 2984,
      "Ġlaughed": 2985,
      "Ġpregnant": 2986,
      "\"?": 2987,
      "**": 2988,
      "AL": 2989,
      "Big": 2990,
      "IG": 2991,
      "LY": 2992,
      "OM": 2993,
      "SE": 2994,
      "We": 2995,
      "ae": 2996,
      "bles": 2997,
      "cher": 2998,
      "cul": 2999,
      "cles": 3000,
      "een": 3001,
      "gie": 3002,
      "iag": 3003,
      "jack": 3004,
      "jacul": 3005,
      "mm": 3006,
      "most": 3007,
      "no": 3008,
      "pse": 3009,
      "rest": 3010,
      "son": 3011,
      "war": 3012,
      "Ġill": 3013,
      "ison": 3014,
      "Ġtin": 3015,
      "Ġwed": 3016,
      "Ġwide": 3017,
      "erry": 3018,
      "Ġbike": 3019,
      "Ġcare": 3020,
      "Ġcred": 3021,
      "Ġcord": 3022,
      "Ġcert": 3023,
      "Ġhorses": 3024,
      "ana": 3025,
      "Ġfro": 3026,
      "Ġfig": 3027,
      "Ġdig": 3028,
      "Ġdictionary": 3029,
      "Ġpit": 3030,
      "Ġpur": 3031,
      "Ġpos": 3032,
      "Ġtot": 3033,
      "Ġones": 3034,
      "Ġnails": 3035,
      "Ġnaked": 3036,
      "Ġbea": 3037,
      "rol": 3038,
      "Ġejacul": 3039,
      "alt": 3040,
      "Ġrul": 3041,
      "Ġrare": 3042,
      "vern": 3043,
      "etimes": 3044,
      "ental": 3045,
      "ica": 3046,
      "Ġreverse": 3047,
      "ĠHi": 3048,
      "ĠHulk": 3049,
      "ĠSch": 3050,
      "ĠBE": 3051,
      "ĠBang": 3052,
      "ĠAL": 3053,
      "ĠCN": 3054,
      "ĠCru": 3055,
      "une": 3056,
      "Ġjack": 3057,
      "iful": 3058,
      "ĠIT": 3059,
      "Ġshatter": 3060,
      "ieber": 3061,
      "ĠWar": 3062,
      "ĠWars": 3063,
      "Ġdecl": 3064,
      "Ġknee": 3065,
      "that": 3066,
      "Ġchin": 3067,
      "Ġlived": 3068,
      "ĠDO": 3069,
      "ĠDra": 3070,
      "artial": 3071,
      "ĠFear": 3072,
      "Ġalcohol": 3073,
      "Ġorange": 3074,
      "quis": 3075,
      "ĠOF": 3076,
      "ĠOptimus": 3077,
      "ĠEng": 3078,
      "Ġblue": 3079,
      "aco": 3080,
      "ĠKn": 3081,
      "Ġrob": 3082,
      "aged": 3083,
      "Ġscene": 3084,
      "Ġscenes": 3085,
      "Ġclos": 3086,
      "Ġassholes": 3087,
      "ornad": 3088,
      "Ġmeet": 3089,
      "pton": 3090,
      "Ġunless": 3091,
      "Ġenem": 3092,
      "Ġflav": 3093,
      "Ġsomebody": 3094,
      "oked": 3095,
      "Ġsurger": 3096,
      "Ġaccept": 3097,
      "Ġguess": 3098,
      "Ġfucks": 3099,
      "Ġends": 3100,
      "Ġbulls": 3101,
      "okemon": 3102,
      "ĠInst": 3103,
      "Ġbird": 3104,
      "Ġbirds": 3105,
      "attles": 3106,
      "Ġshotgun": 3107,
      "Ġimpregn": 3108,
      "Ġpartic": 3109,
      "ĠOnly": 3110,
      "Ġexplos": 3111,
      "Ġmeteor": 3112,
      "Ġstopped": 3113,
      "Someone": 3114,
      "ibal": 3115,
      "Ġdefe": 3116,
      "ĠSteven": 3117,
      "Ġ80": 3118,
      "Ġswimming": 3119,
      "ipping": 3120,
      "ĠExcept": 3121,
      "ĠExpendables": 3122,
      "Ġgirl": 3123,
      "appy": 3124,
      "Ġcowboy": 3125,
      "Ġcharact": 3126,
      "Ġcommand": 3127,
      "ITH": 3128,
      "leted": 3129,
      "ounter": 3130,
      "Ġweapons": 3131,
      "!!!!!!!!!!!!!!!!!!!!!!!!!!!!!!!!": 3132,
      "ĠReaper": 3133,
      "ĠInternet": 3134,
      "Ġeasily": 3135,
      "Ġlocal": 3136,
      "Ġappeared": 3137,
      "anksgiving": 3138,
      "Before": 3139,
      "Ġquickly": 3140,
      "Ġninjas": 3141,
      "Ġprotect": 3142,
      "Ġfloor": 3143,
      "arlie": 3144,
      "Ġremoved": 3145,
      "Superman": 3146,
      "Ġneighbor": 3147,
      "Ġnatur": 3148,
      "Ġangry": 3149,
      "Ġsurgery": 3150,
      "45": 3151,
      "AM": 3152,
      "Bob": 3153,
      "ICK": 3154,
      "OL": 3155,
      "OP": 3156,
      "Sh": 3157,
      "Scientists": 3158,
      "TH": 3159,
      "cre": 3160,
      "cies": 3161,
      "gr": 3162,
      "lands": 3163,
      "off": 3164,
      "par": 3165,
      "pet": 3166,
      "port": 3167,
      "tch": 3168,
      "there": 3169,
      "uct": 3170,
      "Ġing": 3171,
      "Ġve": 3172,
      "ises": 3173,
      "Ġtax": 3174,
      "Ġtape": 3175,
      "Ġtrees": 3176,
      "orp": 3177,
      "Ġach": 3178,
      "ĠNE": 3179,
      "Ġwish": 3180,
      "Ġsil": 3181,
      "eral": 3182,
      "ergy": 3183,
      "Ġbanned": 3184,
      "Ġchu": 3185,
      "Ġcru": 3186,
      "Ġcamp": 3187,
      "edly": 3188,
      "Ġfix": 3189,
      "atman": 3190,
      "ites": 3191,
      "itary": 3192,
      "rel": 3193,
      "onic": 3194,
      "Ġpays": 3195,
      "Ġpred": 3196,
      "inger": 3197,
      "Ġmill": 3198,
      "Ġgar": 3199,
      "Ġghost": 3200,
      "Ġlim": 3201,
      "Ġlaun": 3202,
      "alo": 3203,
      "alent": 3204,
      "alds": 3205,
      "Ġrand": 3206,
      "stop": 3207,
      "eter": 3208,
      "ams": 3209,
      "Ġund": 3210,
      "Ġstep": 3211,
      "Ġdoctors": 3212,
      "Ġdodge": 3213,
      "Ġant": 3214,
      "tern": 3215,
      "Ġjum": 3216,
      "ĠMary": 3217,
      "ĠMars": 3218,
      "ĠWITH": 3219,
      "Ġdeep": 3220,
      "Ġknuck": 3221,
      "ĠDr": 3222,
      "Ġknowing": 3223,
      "ession": 3224,
      "Ġlemons": 3225,
      "ums": 3226,
      "Ġaliens": 3227,
      "Ġven": 3228,
      "Ġvoice": 3229,
      "Ġview": 3230,
      "ĠEn": 3231,
      "ĠEinstein": 3232,
      "ĠEquis": 3233,
      "ache": 3234,
      "aches": 3235,
      "Ġconst": 3236,
      "tend": 3237,
      "Ġsuff": 3238,
      "Ġclub": 3239,
      "Ġarr": 3240,
      "Ġlose": 3241,
      "pty": 3242,
      "Ġtem": 3243,
      "Ġtext": 3244,
      "ruction": 3245,
      "Ġsmile": 3246,
      "Ġsmokes": 3247,
      "Ġslam": 3248,
      "Ġcover": 3249,
      "ĠChinese": 3250,
      "Ġacid": 3251,
      "Ġshits": 3252,
      "Ġguitar": 3253,
      "ording": 3254,
      "Ġcontact": 3255,
      "Ġfucked": 3256,
      "Ġsnake": 3257,
      "Ġprevent": 3258,
      "Ġending": 3259,
      "Ġlightning": 3260,
      "othing": 3261,
      "Ġcraps": 3262,
      "Ġlets": 3263,
      "aneously": 3264,
      "Ġdrown": 3265,
      "Ġexplode": 3266,
      "aze": 3267,
      "ĠWhite": 3268,
      "Ġshoulder": 3269,
      "Ġperfor": 3270,
      "Ġnumbers": 3271,
      "ĠArnold": 3272,
      "Ġfollowed": 3273,
      "This": 3274,
      "Ġgravity": 3275,
      "Ġfamous": 3276,
      "Ġjumped": 3277,
      "Ġchecks": 3278,
      "Ġbanging": 3279,
      "Ġtype": 3280,
      "Ġtypes": 3281,
      "ĠPres": 3282,
      "Ġproblems": 3283,
      "Ġcigar": 3284,
      "Ġcigars": 3285,
      "ĠGrand": 3286,
      "Ġdraw": 3287,
      "Ġshoes": 3288,
      "Ġhurt": 3289,
      "Ġhammer": 3290,
      "eorge": 3291,
      "load": 3292,
      "Ġhunting": 3293,
      "strong": 3294,
      "Ġdirectly": 3295,
      "Ġsplit": 3296,
      "Ġincluding": 3297,
      "Ġcorrect": 3298,
      "Ġhemorrhoids": 3299,
      "Ġscrewed": 3300,
      "Ġenjoys": 3301,
      "ĠNorth": 3302,
      "Ġdouble": 3303,
      "ĠRussia": 3304,
      "Ġelectric": 3305,
      "esterday": 3306,
      "Ġclaim": 3307,
      "Ġcurrently": 3308,
      "Ġeffect": 3309,
      "16": 3310,
      "82": 3311,
      "Any": 3312,
      "Acc": 3313,
      "De": 3314,
      "EE": 3315,
      "LE": 3316,
      "TER": 3317,
      "bing": 3318,
      "can": 3319,
      "cri": 3320,
      "ii": 3321,
      "ik": 3322,
      "ior": 3323,
      "jd": 3324,
      "la": 3325,
      "min": 3326,
      "tle": 3327,
      "ups": 3328,
      "walk": 3329,
      "zen": 3330,
      "Ġ*": 3331,
      "Ġx": 3332,
      "Ġed": 3333,
      "cks": 3334,
      "het": 3335,
      "ination": 3336,
      "Ġsim": 3337,
      "Ġsens": 3338,
      "Ġox": 3339,
      "erg": 3340,
      "Ġcobra": 3341,
      "Ġhook": 3342,
      "Ġhope": 3343,
      "ĠChucks": 3344,
      "esb": 3345,
      "Ġfine": 3346,
      "Ġfists": 3347,
      "Ġfield": 3348,
      "iter": 3349,
      "itter": 3350,
      "Ġdry": 3351,
      "onge": 3352,
      "Ġpile": 3353,
      "Ġporn": 3354,
      "Ġpian": 3355,
      "Ġpaj": 3356,
      "asion": 3357,
      "arant": 3358,
      "enly": 3359,
      "Ġmer": 3360,
      "Ġmat": 3361,
      "Ġmerc": 3362,
      "Ġnick": 3363,
      "Ġnun": 3364,
      "Ġlion": 3365,
      "Ġthird": 3366,
      "oted": 3367,
      "aling": 3368,
      "alif": 3369,
      "Ġring": 3370,
      "Ġrac": 3371,
      "aming": 3372,
      "ammer": 3373,
      "Ġstab": 3374,
      "Ġstunt": 3375,
      "Ġrepe": 3376,
      "ĠSw": 3377,
      "ĠSim": 3378,
      "ĠSasquatch": 3379,
      "ĠBra": 3380,
      "ĠBell": 3381,
      "ĠBieber": 3382,
      "ĠASS": 3383,
      "ĠCH": 3384,
      "unn": 3385,
      "Ġjaw": 3386,
      "ĠMC": 3387,
      "ĠMy": 3388,
      "ĠInd": 3389,
      "eston": 3390,
      "oph": 3391,
      "Ġshr": 3392,
      "ĠWH": 3393,
      "olic": 3394,
      "ĠPope": 3395,
      "gend": 3396,
      "Ġ199": 3397,
      "ĠGra": 3398,
      "ĠGreen": 3399,
      "hern": 3400,
      "rix": 3401,
      "Ġalong": 3402,
      "ĠOh": 3403,
      "ĠEd": 3404,
      "ĠJobs": 3405,
      "Ġpeace": 3406,
      "Ġfacebook": 3407,
      "Ġ21": 3408,
      "Ġ27": 3409,
      "ager": 3410,
      "agas": 3411,
      "agle": 3412,
      "Ġprof": 3413,
      "Ġsugg": 3414,
      "Ġsucc": 3415,
      "Ġsudd": 3416,
      "Ġsuicide": 3417,
      "Ġeverybody": 3418,
      "Ġarms": 3419,
      "aret": 3420,
      "Ġanybody": 3421,
      "Ġmem": 3422,
      "rupt": 3423,
      "obia": 3424,
      "ission": 3425,
      "Ġenergy": 3426,
      "Ġweak": 3427,
      "ĠIts": 3428,
      "Ġrecent": 3429,
      "Ġsword": 3430,
      "Ġsweat": 3431,
      "Ġsurf": 3432,
      "Ġsurpris": 3433,
      "Ġaward": 3434,
      "Ġseeing": 3435,
      "Ġbrick": 3436,
      "Ġpray": 3437,
      "Ġperman": 3438,
      "Ġentered": 3439,
      "olly": 3440,
      "Ġstares": 3441,
      "Ġlonger": 3442,
      "Ġdriving": 3443,
      "Ġdropped": 3444,
      "Ġmetal": 3445,
      "Ġrocket": 3446,
      "Ġfinally": 3447,
      "Ġlanded": 3448,
      "ĠSea": 3449,
      "Ġspeeding": 3450,
      "Ġthrowing": 3451,
      "Ġcats": 3452,
      "Ġsometimes": 3453,
      "Ġrelig": 3454,
      "ĠDoctor": 3455,
      "Ġpresent": 3456,
      "Ġansw": 3457,
      "Ġreport": 3458,
      "Ġextinct": 3459,
      "Ġcrying": 3460,
      "Ġexistence": 3461,
      "ĠGrim": 3462,
      "Ġautom": 3463,
      "Ġshoe": 3464,
      "ĠForce": 3465,
      "Ġburst": 3466,
      "Ġdifference": 3467,
      "Ġregular": 3468,
      "Ġtransl": 3469,
      "Ġpromptly": 3470,
      "ĠInteresting": 3471,
      "Ġoccur": 3472,
      "Ġthousand": 3473,
      "ASA": 3474,
      "ĠNobel": 3475,
      "ĠNobody": 3476,
      "Ġwonder": 3477,
      "Ġplease": 3478,
      "Ġkeyboard": 3479,
      "Ġtoothp": 3480,
      "ĠAmaz": 3481,
      "Ġorgasms": 3482,
      "Ġbaseball": 3483,
      "Ġdiamonds": 3484,
      "Ġbucket": 3485,
      "Ġmultiple": 3486,
      "Ġseveral": 3487,
      "Ġliquid": 3488,
      "Ġprobably": 3489,
      "279": 3490,
      "known": 3491,
      "Ġchainsaw": 3492,
      "ĠArmstrong": 3493,
      "Ġroundhoused": 3494,
      "65279": 3495,
      "Ġpillow": 3496,
      "ĠTitanic": 3497,
      "ĠHiroshima": 3498,
      "Ġpredict": 3499,
      "Ġrandom": 3500,
      "Ġjumps": 3501,
      "According": 3502,
      "Ġpajamas": 3503,
      "Ġsuddenly": 3504,
      "30": 3505,
      "57": 3506,
      "Did": 3507,
      "HH": 3508,
      "IF": 3509,
      "Two": 3510,
      "UN": 3511,
      "burger": 3512,
      "cent": 3513,
      "damn": 3514,
      "fy": 3515,
      "foot": 3516,
      "iod": 3517,
      "pie": 3518,
      "rd": 3519,
      "rase": 3520,
      "ront": 3521,
      "then": 3522,
      "ville": 3523,
      "ware": 3524,
      "Ġtour": 3525,
      "Ġtru": 3526,
      "Ġtornad": 3527,
      "orse": 3528,
      "orter": 3529,
      "hem": 3530,
      "Ġaverage": 3531,
      "inal": 3532,
      "incid": 3533,
      "Ġwine": 3534,
      "Ġwire": 3535,
      "Ġbes": 3536,
      "Ġben": 3537,
      "Ġbun": 3538,
      "Ġbought": 3539,
      "Ġcos": 3540,
      "Ġcries": 3541,
      "Ġchurch": 3542,
      "esp": 3543,
      "Ġfit": 3544,
      "Ġfold": 3545,
      "ities": 3546,
      "nding": 3547,
      "Ġdance": 3548,
      "Ġdump": 3549,
      "Ġped": 3550,
      "Ġpow": 3551,
      "Ġpock": 3552,
      "Ġpier": 3553,
      "ashes": 3554,
      "Ġtoe": 3555,
      "Ġtool": 3556,
      "ari": 3557,
      "Ġmail": 3558,
      "Ġmention": 3559,
      "Ġnap": 3560,
      "Ġnice": 3561,
      "Ġnuts": 3562,
      "cember": 3563,
      "Ġlow": 3564,
      "Ġlic": 3565,
      "Ġlie": 3566,
      "Ġlos": 3567,
      "Ġyards": 3568,
      "rot": 3569,
      "roke": 3570,
      "imate": 3571,
      "aled": 3572,
      "adly": 3573,
      "Ġru": 3574,
      "Ġrate": 3575,
      "Ġrage": 3576,
      "Ġcand": 3577,
      "verine": 3578,
      "oms": 3579,
      "ĠTime": 3580,
      "ami": 3581,
      "enty": 3582,
      "Ġstor": 3583,
      "Ġstones": 3584,
      "Ġrele": 3585,
      "Ġrevol": 3586,
      "ĠHar": 3587,
      "oooo": 3588,
      "ĠSan": 3589,
      "ĠSand": 3590,
      "ĠSome": 3591,
      "ĠBB": 3592,
      "ĠBull": 3593,
      "ĠBatman": 3594,
      "ifying": 3595,
      "ĠMother": 3596,
      "ĠMoon": 3597,
      "ĠIron": 3598,
      "opping": 3599,
      "ĠWW": 3600,
      "ĠWood": 3601,
      "ĠWalk": 3602,
      "Ġdeal": 3603,
      "thal": 3604,
      "uses": 3605,
      "ushed": 3606,
      "Ġbecomes": 3607,
      "olverine": 3608,
      "Ġchoice": 3609,
      "Ġspit": 3610,
      "Ġspent": 3611,
      "ĠDos": 3612,
      "Ġ16": 3613,
      "ĠGo": 3614,
      "ĠGold": 3615,
      "ĠGreat": 3616,
      "ĠGerman": 3617,
      "aki": 3618,
      "ĠRule": 3619,
      "atever": 3620,
      "Ġworse": 3621,
      "aine": 3622,
      "eled": 3623,
      "Ġallig": 3624,
      "acon": 3625,
      "ĠKICK": 3626,
      "Ġconn": 3627,
      "Ġrow": 3628,
      "Ġprove": 3629,
      "Ġprocess": 3630,
      "Ġscare": 3631,
      "Ġscares": 3632,
      "Ġscreen": 3633,
      "rypton": 3634,
      "Ġmember": 3635,
      "Ġplayer": 3636,
      "issors": 3637,
      "ĠThanksgiving": 3638,
      "Ġcost": 3639,
      "Ġflat": 3640,
      "Ġflight": 3641,
      "Ġfloss": 3642,
      "oking": 3643,
      "ĠCharlie": 3644,
      "Ġhowever": 3645,
      "Ġcream": 3646,
      "ĠVeg": 3647,
      "Ġtrick": 3648,
      "redible": 3649,
      "ĠYork": 3650,
      "uda": 3651,
      "ude": 3652,
      "Ġhandle": 3653,
      "Ġbearded": 3654,
      "Ġheads": 3655,
      "Ġsnakes": 3656,
      "Ġpunches": 3657,
      "Ġpersonally": 3658,
      "Ġimage": 3659,
      "Ġlights": 3660,
      "Ġboard": 3661,
      "Ġwinning": 3662,
      "Ġ40": 3663,
      "Ġphrase": 3664,
      "Ġdeadly": 3665,
      "Ġglob": 3666,
      "ashing": 3667,
      "Ġtrip": 3668,
      "Ġ70": 3669,
      "Ġdestruction": 3670,
      "Ġdrives": 3671,
      "Ġinsult": 3672,
      "ĠOnce": 3673,
      "anna": 3674,
      "Everybody": 3675,
      "rican": 3676,
      "Ġinteresting": 3677,
      "Ġmotherfuck": 3678,
      "Ġcountry": 3679,
      "Ġfunny": 3680,
      "Ġseries": 3681,
      "ĠUnited": 3682,
      "Ġsleeping": 3683,
      "Ġvision": 3684,
      "Ġfeeling": 3685,
      "Ġcured": 3686,
      "ĠClaus": 3687,
      "Ġobv": 3688,
      "Ġinvol": 3689,
      "Ġextreme": 3690,
      "Ġdollar": 3691,
      "Ġblew": 3692,
      "Ġcigaret": 3693,
      "ĠJustin": 3694,
      "ĠNeed": 3695,
      "Ġinfinite": 3696,
      "Ġsends": 3697,
      "Ġfailure": 3698,
      "CHuck": 3699,
      "Ġmerely": 3700,
      "Ġbathroom": 3701,
      "Ġescape": 3702,
      "Ġoppon": 3703,
      "asket": 3704,
      "Ġhemorrhoid": 3705,
      "Ġlearned": 3706,
      "Ġexperience": 3707,
      "Ġenjoy": 3708,
      "ography": 3709,
      "Ġorgasm": 3710,
      "Ġmicrow": 3711,
      "fortunately": 3712,
      "Ġradius": 3713,
      "ĠHawking": 3714,
      "Ġgrenade": 3715,
      "Ġsandwich": 3716,
      "Ġforehead": 3717,
      "Ġencounter": 3718,
      "ampionship": 3719,
      "ĠCruise": 3720,
      "Ġenemies": 3721,
      "Ġdefeated": 3722,
      "Ġknuckle": 3723,
      "ĠPresident": 3724,
      "Ġpiano": 3725,
      "agasaki": 3726,
      "Ġsuccess": 3727,
      "40": 3728,
      "48": 3729,
      "60": 3730,
      "Bl": 3731,
      "MA": 3732,
      "Man": 3733,
      "Michael": 3734,
      "Many": 3735,
      "NO": 3736,
      "Old": 3737,
      "PS": 3738,
      "RE": 3739,
      "UT": 3740,
      "don": 3741,
      "every": 3742,
      "ease": 3743,
      "ground": 3744,
      "ij": 3745,
      "ially": 3746,
      "kl": 3747,
      "kicks": 3748,
      "lk": 3749,
      "lor": 3750,
      "lar": 3751,
      "mi": 3752,
      "met": 3753,
      "mate": 3754,
      "more": 3755,
      "mark": 3756,
      "night": 3757,
      "name": 3758,
      "py": 3759,
      "pro": 3760,
      "rit": 3761,
      "ral": 3762,
      "sk": 3763,
      "sun": 3764,
      "some": 3765,
      "ued": 3766,
      "uke": 3767,
      "vin": 3768,
      "vit": 3769,
      "yan": 3770,
      "yard": 3771,
      "zene": 3772,
      "Ġest": 3773,
      "isa": 3774,
      "ora": 3775,
      "inc": 3776,
      "Ġwoke": 3777,
      "Ġsick": 3778,
      "Ġsense": 3779,
      "Ġsitting": 3780,
      "Ġbi": 3781,
      "Ġbor": 3782,
      "Ġbin": 3783,
      "Ġbub": 3784,
      "Ġbatter": 3785,
      "Ġbones": 3786,
      "Ġcas": 3787,
      "Ġcake": 3788,
      "Ġcab": 3789,
      "Ġcards": 3790,
      "Ġhate": 3791,
      "Ġhous": 3792,
      "Ġfelt": 3793,
      "atin": 3794,
      "atan": 3795,
      "atures": 3796,
      "reak": 3797,
      "Ġdate": 3798,
      "Ġdanger": 3799,
      "Ġdying": 3800,
      "Ġpure": 3801,
      "Ġpage": 3802,
      "Ġposs": 3803,
      "Ġpicks": 3804,
      "Ġprison": 3805,
      "aser": 3806,
      "arp": 3807,
      "eng": 3808,
      "ening": 3809,
      "Ġmis": 3810,
      "Ġmount": 3811,
      "Ġmeth": 3812,
      "Ġmoose": 3813,
      "lection": 3814,
      "Ġonto": 3815,
      "Ġgard": 3816,
      "Ġgorilla": 3817,
      "Ġheld": 3818,
      "Ġheavy": 3819,
      "Ġnor": 3820,
      "Ġnon": 3821,
      "Ġnorm": 3822,
      "Ġnames": 3823,
      "Ġlad": 3824,
      "Ġlif": 3825,
      "Ġlions": 3826,
      "Ġlav": 3827,
      "Ġlesb": 3828,
      "Ġyesterday": 3829,
      "Ġisland": 3830,
      "Ġeight": 3831,
      "Ġevil": 3832,
      "uto": 3833,
      "Ġra": 3834,
      "state": 3835,
      "ider": 3836,
      "amb": 3837,
      "Ġupp": 3838,
      "icken": 3839,
      "alled": 3840,
      "Ġstick": 3841,
      "Ġstink": 3842,
      "Ġstuff": 3843,
      "Ġstyle": 3844,
      "Ġdocum": 3845,
      "Ġreach": 3846,
      "Ġreached": 3847,
      "ctions": 3848,
      "ĠHot": 3849,
      "ĠHIS": 3850,
      "ĠSH": 3851,
      "ĠST": 3852,
      "ĠSy": 3853,
      "ĠSun": 3854,
      "ĠSqu": 3855,
      "ĠSec": 3856,
      "ĠSonic": 3857,
      "chn": 3858,
      "ĠBu": 3859,
      "ĠBow": 3860,
      "ĠBill": 3861,
      "ĠBible": 3862,
      "ĠAp": 3863,
      "ĠAir": 3864,
      "ĠAnt": 3865,
      "ĠCalif": 3866,
      "Ġjer": 3867,
      "Ġjet": 3868,
      "ĠIm": 3869,
      "Ġsea": 3870,
      "opher": 3871,
      "Ġshock": 3872,
      "ĠWall": 3873,
      "ĠWILL": 3874,
      "Ġdeb": 3875,
      "Ġdemon": 3876,
      "Ġfair": 3877,
      "Ġouter": 3878,
      "Ġoutta": 3879,
      "using": 3880,
      "Ġchair": 3881,
      "Ġspot": 3882,
      "Ġspine": 3883,
      "Ġspect": 3884,
      "ĠHell": 3885,
      "ĠDam": 3886,
      "ĠDep": 3887,
      "ĠDNA": 3888,
      "ĠPe": 3889,
      "Ġsoft": 3890,
      "ĠREA": 3891,
      "Ġwore": 3892,
      "Ġworst": 3893,
      "Ġworks": 3894,
      "aped": 3895,
      "Ġlethal": 3896,
      "ĠFather": 3897,
      "aining": 3898,
      "Ġorph": 3899,
      "elly": 3900,
      "Ġvamp": 3901,
      "que": 3902,
      "quet": 3903,
      "ula": 3904,
      "ĠJe": 3905,
      "ĠLord": 3906,
      "Ġgovern": 3907,
      "iley": 3908,
      "Ġsav": 3909,
      "Ġmoved": 3910,
      "aced": 3911,
      "ĠKILL": 3912,
      "Ġroot": 3913,
      "Ġ24": 3914,
      "Ġcommon": 3915,
      "Ġprov": 3916,
      "Ġscrot": 3917,
      "Ġclown": 3918,
      "Ġaff": 3919,
      "Ġabove": 3920,
      "Ġability": 3921,
      "Ġarts": 3922,
      "Ġlikely": 3923,
      "ornia": 3924,
      "ours": 3925,
      "Ġactual": 3926,
      "Ġlog": 3927,
      "Ġloved": 3928,
      "Ġfired": 3929,
      "Ġtea": 3930,
      "Ġteach": 3931,
      "Ġunicycle": 3932,
      "ĠUP": 3933,
      "Ġweb": 3934,
      "Ġweight": 3935,
      "Ġcovered": 3936,
      "acebook": 3937,
      "rows": 3938,
      "Ġcreating": 3939,
      "ĠVan": 3940,
      "hose": 3941,
      "Ġbeating": 3942,
      "Ġagree": 3943,
      "Ġdrank": 3944,
      "Ġgrass": 3945,
      "gging": 3946,
      "Ġappl": 3947,
      "ĠStates": 3948,
      "ĠStreet": 3949,
      "Ġbread": 3950,
      "Ġquit": 3951,
      "Ġbelong": 3952,
      "Ġbrought": 3953,
      "ogn": 3954,
      "Ġtrack": 3955,
      "Ġtrailer": 3956,
      "Ġcompleted": 3957,
      "Ġsexual": 3958,
      "ints": 3959,
      "inton": 3960,
      "Ġboat": 3961,
      "Ġsteal": 3962,
      "Ġphot": 3963,
      "Ġshows": 3964,
      "Ġshowed": 3965,
      "Ġothers": 3966,
      "Ġbrother": 3967,
      "Ġ72": 3968,
      "Ġreading": 3969,
      "Ġstared": 3970,
      "Ġmugger": 3971,
      "Ġdriver": 3972,
      "Ġpoor": 3973,
      "Ġremove": 3974,
      "Ġdrove": 3975,
      "Ġdrops": 3976,
      "Ġearthqu": 3977,
      "Ġstruck": 3978,
      "Ġ197": 3979,
      "ricane": 3980,
      "Ġcuts": 3981,
      "Ġ60": 3982,
      "ĠWhich": 3983,
      "Ġfinish": 3984,
      "Ġpulling": 3985,
      "ĠAlien": 3986,
      "ĠAlbert": 3987,
      "ocol": 3988,
      "Ġdefin": 3989,
      "ĠStephen": 3990,
      "Ġcounted": 3991,
      "Ġworking": 3992,
      "Ġtouches": 3993,
      "Ġvisit": 3994,
      "Ġfeels": 3995,
      "Ġreflection": 3996,
      "ramble": 3997,
      "Ġemail": 3998,
      "Ġsolve": 3999,
      "Ġpictures": 4000,
      "Ġceiling": 4001,
      "EST": 4002,
      "Ġthunder": 4003,
      "Ġpieces": 4004,
      "ĠJohnny": 4005,
      "Ġthrown": 4006,
      "Ġskulls": 4007,
      "ounced": 4008,
      "Ġincre": 4009,
      "Ġcollect": 4010,
      "Ġcollege": 4011,
      "Ġlargest": 4012,
      "ĠPlay": 4013,
      "aptor": 4014,
      "Ġnearest": 4015,
      "Ġsales": 4016,
      "Ġcrotch": 4017,
      "ĠMonopoly": 4018,
      "Ġtattooed": 4019,
      "Ġviolent": 4020,
      "Ġviolence": 4021,
      "Ġscreaming": 4022,
      "Ġsatis": 4023,
      "ĠIslands": 4024,
      "Ġsneeze": 4025,
      "Ġsneezed": 4026,
      "Ġoppos": 4027,
      "Ġdosn": 4028,
      "Ġanimal": 4029,
      "Ġexperien": 4030,
      "Ġproperty": 4031,
      "Ġsupposed": 4032,
      "Ġslowly": 4033,
      "Ġsubmar": 4034,
      "hhhhhhhh": 4035,
      "XXXX": 4036,
      "Ġfrequ": 4037,
      "Ġmagn": 4038,
      "vision": 4039,
      "Ġengine": 4040,
      "Ġchopst": 4041,
      "Ġunderstand": 4042,
      "ĠMcDonald": 4043,
      "ĠMcDonalds": 4044,
      "yrus": 4045,
      "Ġhonor": 4046,
      "Ġbrutally": 4047,
      "Ġaudience": 4048,
      "Ġdegree": 4049,
      "Ġvictims": 4050,
      "Ġjudge": 4051,
      "ĠEverest": 4052,
      "Ġdeveloped": 4053,
      "Ġsurrendered": 4054,
      "Ġinspired": 4055,
      "Ġevolution": 4056,
      "Ġunderwear": 4057,
      "warzene": 4058,
      "Ġtiny": 4059,
      "Ġposition": 4060,
      "ĠEnglish": 4061,
      "Ġingred": 4062,
      "Ġtaxes": 4063,
      "Ġmercy": 4064,
      "ĠAmazon": 4065,
      "incidence": 4066,
      "Ġbench": 4067,
      "ĠBBQ": 4068,
      "ryptonite": 4069,
      "ĠVegas": 4070,
      "ĠCalifornia": 4071,
      "warzenegger": 4072,
      "!\".": 4073,
      ".'": 4074,
      "73": 4075,
      "Ar": 4076,
      "ACK": 4077,
      "Americ": 4078,
      "Cl": 4079,
      "During": 4080,
      "ID": 4081,
      "IM": 4082,
      "Let": 4083,
      "Life": 4084,
      "Un": 4085,
      "bell": 4086,
      "cus": 4087,
      "die": 4088,
      "ders": 4089,
      "eet": 4090,
      "eks": 4091,
      "eah": 4092,
      "fish": 4093,
      "gly": 4094,
      "hone": 4095,
      "iers": 4096,
      "ials": 4097,
      "job": 4098,
      "ka": 4099,
      "lt": 4100,
      "lin": 4101,
      "lond": 4102,
      "nis": 4103,
      "oom": 4104,
      "pace": 4105,
      "pable": 4106,
      "ray": 4107,
      "swer": 4108,
      "vie": 4109,
      "viet": 4110,
      "view": 4111,
      "yman": 4112,
      "Ġ?": 4113,
      "Ġerr": 4114,
      "Ġtor": 4115,
      "Ġtick": 4116,
      "Ġtired": 4117,
      "Ġtaken": 4118,
      "orry": 4119,
      "Ġax": 4120,
      "ĠNinj": 4121,
      "ĠNavy": 4122,
      "ĠNagasaki": 4123,
      "inch": 4124,
      "Ġways": 4125,
      "Ġwip": 4126,
      "Ġwild": 4127,
      "Ġwipe": 4128,
      "Ġwishes": 4129,
      "Ġsau": 4130,
      "Ġsides": 4131,
      "Ġoven": 4132,
      "Ġobs": 4133,
      "Ġthese": 4134,
      "ery": 4135,
      "Ġbice": 4136,
      "Ġbars": 4137,
      "Ġbacon": 4138,
      "Ġbasket": 4139,
      "oust": 4140,
      "Ġcart": 4141,
      "Ġcere": 4142,
      "Ġholes": 4143,
      "Ġhides": 4144,
      "ancy": 4145,
      "anium": 4146,
      "Ġfle": 4147,
      "Ġfears": 4148,
      "Ġfries": 4149,
      "Ġfighter": 4150,
      "ital": 4151,
      "Ġdiving": 4152,
      "Ġdumb": 4153,
      "oned": 4154,
      "Ġpan": 4155,
      "Ġpath": 4156,
      "Ġpump": 4157,
      "Ġpract": 4158,
      "ashed": 4159,
      "Ġtoes": 4160,
      "arter": 4161,
      "aries": 4162,
      "Ġmartial": 4163,
      "Ġinj": 4164,
      "Ġgum": 4165,
      "Ġnone": 4166,
      "Ġnail": 4167,
      "Ġnature": 4168,
      "cend": 4169,
      "cell": 4170,
      "Ġlunch": 4171,
      "Ġloose": 4172,
      "Ġthier": 4173,
      "ader": 4174,
      "utiful": 4175,
      "Ġrum": 4176,
      "Ġrice": 4177,
      "Ġrab": 4178,
      "Ġrings": 4179,
      "Ġrammed": 4180,
      "stit": 4181,
      "sters": 4182,
      "stone": 4183,
      "idge": 4184,
      "omer": 4185,
      "ombs": 4186,
      "ety": 4187,
      "ĠTX": 4188,
      "ĠThu": 4189,
      "ĠTur": 4190,
      "ĠTour": 4191,
      "amer": 4192,
      "ented": 4193,
      "ico": 4194,
      "ican": 4195,
      "icated": 4196,
      "ickey": 4197,
      "allone": 4198,
      "Ġstre": 4199,
      "Ġstation": 4200,
      "Ġdozen": 4201,
      "Ġformed": 4202,
      "Ġreaper": 4203,
      "ooses": 4204,
      "ĠSm": 4205,
      "ĠSam": 4206,
      "ĠSky": 4207,
      "Ġancient": 4208,
      "ĠBoy": 4209,
      "ĠBurger": 4210,
      "urs": 4211,
      "ĠCr": 4212,
      "ĠCar": 4213,
      "ĠCol": 4214,
      "ĠCount": 4215,
      "uns": 4216,
      "Ġjo": 4217,
      "raq": 4218,
      "rage": 4219,
      "ĠMo": 4220,
      "iled": 4221,
      "iliz": 4222,
      "Ġsemi": 4223,
      "Ġshaves": 4224,
      "Ġshopping": 4225,
      "ĠWell": 4226,
      "Ġdev": 4227,
      "odies": 4228,
      "ppers": 4229,
      "Ġchip": 4230,
      "Ġchocol": 4231,
      "Ġspoon": 4232,
      "ĠDies": 4233,
      "ĠPop": 4234,
      "ĠPokemon": 4235,
      "Ġ1000": 4236,
      "anted": 4237,
      "antly": 4238,
      "ĠGl": 4239,
      "ĠGeorge": 4240,
      "Ġsole": 4241,
      "ĠRay": 4242,
      "Ġworsh": 4243,
      "Ġleap": 4244,
      "Ġleaves": 4245,
      "Ġlegend": 4246,
      "ĠFeb": 4247,
      "Ġaren": 4248,
      "umm": 4249,
      "ument": 4250,
      "Ġmanly": 4251,
      "Ġalmost": 4252,
      "Ġorang": 4253,
      "elled": 4254,
      "Ġvan": 4255,
      "oody": 4256,
      "osc": 4257,
      "ĠOcean": 4258,
      "outhern": 4259,
      "ulf": 4260,
      "ĠEl": 4261,
      "Ġpean": 4262,
      "Ġexists": 4263,
      "Ġsaved": 4264,
      "Ġblank": 4265,
      "ivity": 4266,
      "ĠKe": 4267,
      "Ġconce": 4268,
      "Ġcommer": 4269,
      "Ġscrat": 4270,
      "Ġclock": 4271,
      "assed": 4272,
      "asses": 4273,
      "Ġoffered": 4274,
      "Ġarri": 4275,
      "Ġanyway": 4276,
      "Ġanywhere": 4277,
      "Ġmeal": 4278,
      "Ġcalling": 4279,
      "Ġworlds": 4280,
      "Ġtwin": 4281,
      "Ġtwenty": 4282,
      "venth": 4283,
      "Ġteen": 4284,
      "Ġunstop": 4285,
      "Ġeaten": 4286,
      "Ġslice": 4287,
      "Ġfeather": 4288,
      "Ġflash": 4289,
      "play": 4290,
      "ploy": 4291,
      "Ġrecogn": 4292,
      "ĠChina": 4293,
      "ffic": 4294,
      "ĠYO": 4295,
      "Ġhandic": 4296,
      "Ġaccid": 4297,
      "ISTER": 4298,
      "Ġcars": 4299,
      "Ġcontain": 4300,
      "Ġcontains": 4301,
      "ĠStallone": 4302,
      "action": 4303,
      "Ġspecies": 4304,
      "Ġskyd": 4305,
      "Ġpret": 4306,
      "Ġprefer": 4307,
      "Ġbricks": 4308,
      "ogs": 4309,
      "Ġimag": 4310,
      "Ġdisc": 4311,
      "Ġdisease": 4312,
      "ermuda": 4313,
      "Ġstepped": 4314,
      "Ġpercent": 4315,
      "Ġshower": 4316,
      "Ġpissing": 4317,
      "Ġbrown": 4318,
      "Ġbiggest": 4319,
      "Ġwoods": 4320,
      "Ġwooden": 4321,
      "Ġwarming": 4322,
      "Ġimpl": 4323,
      "ĠDead": 4324,
      "Ġmilitary": 4325,
      "Ġpoison": 4326,
      "Ġopin": 4327,
      "Ġbloody": 4328,
      "ombat": 4329,
      "Ġsurvival": 4330,
      "Ġairpl": 4331,
      "Ġpulls": 4332,
      "Ġbeds": 4333,
      "ibly": 4334,
      "Ġdefeat": 4335,
      "Ġcountries": 4336,
      "Ġgoddamn": 4337,
      "Ġfuneral": 4338,
      "duct": 4339,
      "Ġblows": 4340,
      "Ġserved": 4341,
      "ĠArmy": 4342,
      "ĠUniverse": 4343,
      "ĠUnfortunately": 4344,
      "ression": 4345,
      "ĠSponge": 4346,
      "Ġfollows": 4347,
      "Ġiceberg": 4348,
      "Ġmuscles": 4349,
      "Ġlistens": 4350,
      "Ġ2010": 4351,
      "Ġrelated": 4352,
      "ĠDoes": 4353,
      "Ġwaiting": 4354,
      "Ġempty": 4355,
      "Ġconsider": 4356,
      "Ġwhether": 4357,
      "Ġcrosses": 4358,
      "Ġcauses": 4359,
      "ĠBeat": 4360,
      "Ġsoup": 4361,
      "Ġcement": 4362,
      "Ġelbow": 4363,
      "Ġextra": 4364,
      "Ġcommit": 4365,
      "Ġdinner": 4366,
      "idden": 4367,
      "Ġweeks": 4368,
      "Ġautograph": 4369,
      "ĠChristopher": 4370,
      "Ġincredible": 4371,
      "Ġexpect": 4372,
      "Ġawesomen": 4373,
      "ĠBrit": 4374,
      "ĠPlan": 4375,
      "aptain": 4376,
      "Ġspeaks": 4377,
      "Ġbites": 4378,
      "Ġrainbow": 4379,
      "Ġfailed": 4380,
      "Ġshortly": 4381,
      "Ġlanguages": 4382,
      "ĠONE": 4383,
      "ĠONLY": 4384,
      "Ġbusiness": 4385,
      "Ġearly": 4386,
      "Ġturkey": 4387,
      "Ġdreams": 4388,
      "Ġvolcan": 4389,
      "Ġdosent": 4390,
      "ĠBarack": 4391,
      "Ġmeaning": 4392,
      "Ġforgot": 4393,
      "ault": 4394,
      "ĠRussian": 4395,
      "ĠJapanese": 4396,
      "Ġcelebrate": 4397,
      "Ġcondoms": 4398,
      "Steven": 4399,
      "Ġcircum": 4400,
      "Ġpounds": 4401,
      "Ġkept": 4402,
      "ĠSheen": 4403,
      "ĠMario": 4404,
      "Ġsharks": 4405,
      "Ġhungry": 4406,
      "Ġclimb": 4407,
      "Ġbrutal": 4408,
      "Ġreturned": 4409,
      "ĠPrize": 4410,
      "Ġzombie": 4411,
      "Ġzombies": 4412,
      "Ġtoenails": 4413,
      "Ġstomach": 4414,
      "ĠSeries": 4415,
      "Ġscientific": 4416,
      "Ġcrowd": 4417,
      "ĠRichard": 4418,
      "Ġbeautiful": 4419,
      "ĠSchwarzenegger": 4420,
      "Ġclosest": 4421,
      "Death": 4422,
      "Ġalligator": 4423,
      "Ġconnect": 4424,
      "Ġgarden": 4425,
      "Ġladies": 4426,
      "Ġvampire": 4427,
      "Ġscrotum": 4428,
      "Ġsubmarine": 4429,
      "Ġingredient": 4430,
      "londike": 4431,
      "ĠDiesel": 4432,
      "Ġunstoppable": 4433,
      "Ġawesomeness": 4434,
      ",,": 4435,
      "10": 4436,
      "100": 4437,
      "28": 4438,
      "83": 4439,
      "94": 4440,
      "?\".": 4441,
      "BA": 4442,
      "By": 4443,
      "Bill": 4444,
      "CT": 4445,
      "Can": 4446,
      "ET": 4447,
      "Even": 4448,
      "FK": 4449,
      "Hitler": 4450,
      "IE": 4451,
      "Iron": 4452,
      "Jack": 4453,
      "Mr": 4454,
      "Of": 4455,
      "PR": 4456,
      "RK": 4457,
      "REA": 4458,
      "Santa": 4459,
      "VD": 4460,
      "VE": 4461,
      "Women": 4462,
      "bar": 4463,
      "cil": 4464,
      "cers": 4465,
      "come": 4466,
      "eer": 4467,
      "fg": 4468,
      "fs": 4469,
      "fu": 4470,
      "full": 4471,
      "father": 4472,
      "form": 4473,
      "gl": 4474,
      "how": 4475,
      "iation": 4476,
      "jo": 4477,
      "long": 4478,
      "made": 4479,
      "mine": 4480,
      "minton": 4481,
      "named": 4482,
      "oft": 4483,
      "pers": 4484,
      "phere": 4485,
      "sl": 4486,
      "sm": 4487,
      "tr": 4488,
      "ted": 4489,
      "uit": 4490,
      "uation": 4491,
      "walker": 4492,
      "yver": 4493,
      "yric": 4494,
      "ygen": 4495,
      "Ġ!": 4496,
      "Ġvers": 4497,
      "Ġtar": 4498,
      "Ġtail": 4499,
      "Ġtapped": 4500,
      "Ġain": 4501,
      "ĠNine": 4502,
      "ĠNASA": 4503,
      "Ġwen": 4504,
      "Ġwake": 4505,
      "Ġwings": 4506,
      "Ġske": 4507,
      "Ġsack": 4508,
      "Ġsite": 4509,
      "Ġsym": 4510,
      "Ġow": 4511,
      "Ġbust": 4512,
      "Ġbruce": 4513,
      "Ġbombs": 4514,
      "ouch": 4515,
      "Ġcash": 4516,
      "Ġhide": 4517,
      "Ġhock": 4518,
      "Ġfill": 4519,
      "Ġfur": 4520,
      "Ġfru": 4521,
      "ndar": 4522,
      "Ġdiet": 4523,
      "Ġpal": 4524,
      "Ġpushes": 4525,
      "asing": 4526,
      "asure": 4527,
      "Ġtown": 4528,
      "arly": 4529,
      "Ġmow": 4530,
      "Ġmine": 4531,
      "Ġmelt": 4532,
      "Ġinten": 4533,
      "Ġinject": 4534,
      "Ġgone": 4535,
      "Ġgrizzly": 4536,
      "Ġnut": 4537,
      "Ġnational": 4538,
      "Ġlicks": 4539,
      "Ġlyric": 4540,
      "Ġbend": 4541,
      "Ġbeach": 4542,
      "roph": 4543,
      "Ġears": 4544,
      "immy": 4545,
      "alax": 4546,
      "ada": 4547,
      "Ġrack": 4548,
      "Ġrip": 4549,
      "Ġrape": 4550,
      "Ġcandy": 4551,
      "stand": 4552,
      "ida": 4553,
      "ĠTre": 4554,
      "ĠToo": 4555,
      "Ġugly": 4556,
      "icy": 4557,
      "iche": 4558,
      "Ġstuck": 4559,
      "Ġstars": 4560,
      "Ġstair": 4561,
      "Ġstands": 4562,
      "irst": 4563,
      "iraptor": 4564,
      "ĠHann": 4565,
      "ĠHitler": 4566,
      "ĠHappy": 4567,
      "ĠHammer": 4568,
      "ĠSound": 4569,
      "ĠSur": 4570,
      "ĠSund": 4571,
      "Ġwhales": 4572,
      "ĠBad": 4573,
      "ĠBolt": 4574,
      "ĠBermuda": 4575,
      "ĠAb": 4576,
      "ĠAre": 4577,
      "ĠAust": 4578,
      "ĠCub": 4579,
      "ĠCyrus": 4580,
      "ungle": 4581,
      "Ġjail": 4582,
      "ifle": 4583,
      "ĠMe": 4584,
      "ĠMad": 4585,
      "ĠMov": 4586,
      "ĠMountain": 4587,
      "ila": 4588,
      "Ġatom": 4589,
      "Ġatomic": 4590,
      "Ġseason": 4591,
      "Ġshat": 4592,
      "Ġshout": 4593,
      "ieved": 4594,
      "Ġneg": 4595,
      "ĠWay": 4596,
      "ĠWest": 4597,
      "ĠWho": 4598,
      "Ġoutside": 4599,
      "usa": 4600,
      "ightly": 4601,
      "odes": 4602,
      "pper": 4603,
      "pping": 4604,
      "Ġchamp": 4605,
      "Ġchooses": 4606,
      "Ġspank": 4607,
      "Ġlibr": 4608,
      "ĠTheir": 4609,
      "ĠDVD": 4610,
      "ĠPen": 4611,
      "ĠPark": 4612,
      "gee": 4613,
      "ĠGame": 4614,
      "rible": 4615,
      "Ġsoc": 4616,
      "Ġplate": 4617,
      "ĠRick": 4618,
      "ĠRight": 4619,
      "ĠRush": 4620,
      "Ġlee": 4621,
      "Ġleaving": 4622,
      "arts": 4623,
      "artment": 4624,
      "ĠFUCK": 4625,
      "Ġmanhood": 4626,
      "Ġalph": 4627,
      "orean": 4628,
      "eller": 4629,
      "Ġvir": 4630,
      "astic": 4631,
      "oses": 4632,
      "ĠOsama": 4633,
      "ĠEven": 4634,
      "ĠLI": 4635,
      "ĠLaw": 4636,
      "ĠLittle": 4637,
      "ĠLiber": 4638,
      "Ġexc": 4639,
      "Ġexam": 4640,
      "Ġmoving": 4641,
      "ĠKat": 4642,
      "ĠKong": 4643,
      "ĠKlondike": 4644,
      "Ġconcer": 4645,
      "Ġconcre": 4646,
      "indy": 4647,
      "Ġroof": 4648,
      "Ġ23": 4649,
      "Ġ28": 4650,
      "Ġcompl": 4651,
      "Ġcomment": 4652,
      "Ġscissors": 4653,
      "eech": 4654,
      "Ġsuit": 4655,
      "atholic": 4656,
      "Ġclosed": 4657,
      "Ġarmy": 4658,
      "atedly": 4659,
      "ipated": 4660,
      "Ġactor": 4661,
      "Ġlock": 4662,
      "Ġloaded": 4663,
      "ption": 4664,
      "ruary": 4665,
      "Ġ32": 4666,
      "Ġ37": 4667,
      "izes": 4668,
      "izing": 4669,
      "Ġslaughter": 4670,
      "Ġslightly": 4671,
      "Ġweather": 4672,
      "Ġflag": 4673,
      "Ġdonate": 4674,
      "ĠChris": 4675,
      "ĠChampionship": 4676,
      "Ġswing": 4677,
      "Ġswitch": 4678,
      "ĠVirgin": 4679,
      "ĠVader": 4680,
      "udd": 4681,
      "Ġwomb": 4682,
      "Ġcarpet": 4683,
      "Ġdress": 4684,
      "Ġdrunk": 4685,
      "yson": 4686,
      "order": 4687,
      "Ġcontract": 4688,
      "ĠStone": 4689,
      "Ġbreast": 4690,
      "aws": 4691,
      "ension": 4692,
      "Ġsky": 4693,
      "Ġbrief": 4694,
      "Ġwriting": 4695,
      "Ġputting": 4696,
      "Ġballoon": 4697,
      "ivers": 4698,
      "Ġevening": 4699,
      "cious": 4700,
      "ighters": 4701,
      "Ġsteps": 4702,
      "ultaneously": 4703,
      "Ġpisses": 4704,
      "Ġfights": 4705,
      "Ġcraw": 4706,
      "Ġnews": 4707,
      "Ġbarrel": 4708,
      "Ġstarred": 4709,
      "Ġinfl": 4710,
      "Ġmyster": 4711,
      "alendar": 4712,
      "ĠDevil": 4713,
      "Ġpole": 4714,
      "Ġsigned": 4715,
      "Ġzoo": 4716,
      "ĠWhy": 4717,
      "Ġfinal": 4718,
      "Ġdestroys": 4719,
      "ociraptor": 4720,
      "Ġbedroom": 4721,
      "Ġopening": 4722,
      "ĠSeg": 4723,
      "eroid": 4724,
      "eroids": 4725,
      "Ġblowjob": 4726,
      "ĠUnless": 4727,
      "chucks": 4728,
      "Ġrefers": 4729,
      "Ġcourt": 4730,
      "Ġwaiter": 4731,
      "Ġsolo": 4732,
      "Ġsolved": 4733,
      "Ġsmells": 4734,
      "Ġsuperman": 4735,
      "Ġresults": 4736,
      "Ġaccom": 4737,
      "Ġaccur": 4738,
      "Ġterrified": 4739,
      "uffet": 4740,
      "Ġbooks": 4741,
      "Ġreplace": 4742,
      "Ġfingern": 4743,
      "Ġdragon": 4744,
      "Ġtesticle": 4745,
      "Ġparac": 4746,
      "OOOO": 4747,
      "why": 4748,
      "ĠWithout": 4749,
      "Ġrolled": 4750,
      "ugh": 4751,
      "Ġnearly": 4752,
      "Ġglasses": 4753,
      "Ġexplodes": 4754,
      "Ġminds": 4755,
      "Ġlaws": 4756,
      "Ġreceive": 4757,
      "Ġwhisper": 4758,
      "alloween": 4759,
      "Ġeasy": 4760,
      "ĠMonster": 4761,
      "Ġproducers": 4762,
      "Ġrespect": 4763,
      "Ġpriv": 4764,
      "Ġanimals": 4765,
      "Ġcontinent": 4766,
      "Ġintrodu": 4767,
      "ĠQue": 4768,
      "Ġdeterm": 4769,
      "Ġninja": 4770,
      "Ġlaughs": 4771,
      "Ġpressure": 4772,
      "Ġ1980": 4773,
      "Ġ:),": 4774,
      "ĠPhil": 4775,
      "ĠLuc": 4776,
      "Ġbanana": 4777,
      "Ġmotor": 4778,
      "Ġgrocer": 4779,
      "ĠWillis": 4780,
      "Ġprepare": 4781,
      "Ġcompetition": 4782,
      "9999999999999999999999999999999999999999999999999999999999999999": 4783,
      "Ġfifty": 4784,
      "Ġraped": 4785,
      "Ġdegrees": 4786,
      "Aliens": 4787,
      "addam": 4788,
      "ĠComm": 4789,
      "ĠRobin": 4790,
      "Ġlemonade": 4791,
      "Ġbeginning": 4792,
      "Ġmarket": 4793,
      "Ġcarrying": 4794,
      "ĠAtlantic": 4795,
      "iagra": 4796,
      "Ġilleg": 4797,
      "Ġwidely": 4798,
      "Ġcredit": 4799,
      "Ġtotally": 4800,
      "ĠALISTER": 4801,
      "ĠCNRK": 4802,
      "Ġdeclined": 4803,
      "Ġflavor": 4804,
      "ĠInstead": 4805,
      "Ġimpregnate": 4806,
      "Ġcharacter": 4807,
      "Ġnatural": 4808,
      "ĠNEVER": 4809,
      "Ġmillions": 4810,
      "Ġarrested": 4811,
      "Ġrepeatedly": 4812,
      "Ġreligion": 4813,
      "Ġtruly": 4814,
      "Ġbeside": 4815,
      "Ġpocket": 4816,
      "Ġreleased": 4817,
      "ĠKICKS": 4818,
      "Ġglobal": 4819,
      "Ġhouses": 4820,
      "Ġmethod": 4821,
      "Ġupperc": 4822,
      "ĠSquare": 4823,
      "ĠBowl": 4824,
      "Ġjerky": 4825,
      "ĠDamme": 4826,
      "Ġorphan": 4827,
      "Ġopposite": 4828,
      "Ġobser": 4829,
      "ĠFebruary": 4830,
      "Ġpretty": 4831,
      "Ġopinion": 4832,
      "Ġvolcano": 4833,
      "Ġintense": 4834,
      "Ġconcrete": 4835,
      "\"!": 4836,
      "13": 4837,
      "35": 4838,
      "47": 4839,
      ";&#": 4840,
      "App": 4841,
      "Bruce": 4842,
      "Google": 4843,
      "Gyver": 4844,
      "HT": 4845,
      "IR": 4846,
      "IDS": 4847,
      "Like": 4848,
      "My": 4849,
      "Norris": 4850,
      "Not": 4851,
      "Never": 4852,
      "Osama": 4853,
      "Pro": 4854,
      "Rem": 4855,
      "Rec": 4856,
      "Time": 4857,
      "With": 4858,
      "ao": 4859,
      "bol": 4860,
      "bble": 4861,
      "born": 4862,
      "caine": 4863,
      "dri": 4864,
      "ees": 4865,
      "fe": 4866,
      "fl": 4867,
      "fight": 4868,
      "fire": 4869,
      "fact": 4870,
      "gf": 4871,
      "gj": 4872,
      "gree": 4873,
      "gles": 4874,
      "gue": 4875,
      "just": 4876,
      "ked": 4877,
      "light": 4878,
      "liness": 4879,
      "mos": 4880,
      "mail": 4881,
      "nk": 4882,
      "pri": 4883,
      "possible": 4884,
      "tra": 4885,
      "ties": 4886,
      "tail": 4887,
      "uly": 4888,
      "uel": 4889,
      "ugs": 4890,
      "vy": 4891,
      "whe": 4892,
      "win": 4893,
      "who": 4894,
      "word": 4895,
      "yl": 4896,
      "yn": 4897,
      "zy": 4898,
      "zes": 4899,
      "zilla": 4900,
      "Ġ/": 4901,
      "Ġ=": 4902,
      "Ġ[": 4903,
      "Ġris": 4904,
      "iser": 4905,
      "isher": 4906,
      "Ġtight": 4907,
      "Ġtap": 4908,
      "Ġtips": 4909,
      "Ġahead": 4910,
      "hute": 4911,
      "ĠNational": 4912,
      "inity": 4913,
      "Ġwound": 4914,
      "Ġwrist": 4915,
      "Ġwives": 4916,
      "Ġweston": 4917,
      "Ġsam": 4918,
      "Ġsch": 4919,
      "Ġsus": 4920,
      "Ġsang": 4921,
      "Ġsits": 4922,
      "Ġsummer": 4923,
      "Ġsister": 4924,
      "Ġod": 4925,
      "Ġbent": 4926,
      "Ġbitten": 4927,
      "Ġcris": 4928,
      "Ġcust": 4929,
      "Ġcine": 4930,
      "Ġcult": 4931,
      "Ġhy": 4932,
      "Ġhack": 4933,
      "Ġhipp": 4934,
      "Ġhitting": 4935,
      "anc": 4936,
      "anie": 4937,
      "Ġfo": 4938,
      "Ġfed": 4939,
      "Ġfal": 4940,
      "Ġfet": 4941,
      "Ġfra": 4942,
      "Ġfence": 4943,
      "atling": 4944,
      "itis": 4945,
      "read": 4946,
      "Ġded": 4947,
      "Ġdim": 4948,
      "Ġduct": 4949,
      "Ġpi": 4950,
      "Ġpir": 4951,
      "Ġperm": 4952,
      "Ġpills": 4953,
      "Ġpoker": 4954,
      "ingle": 4955,
      "Ġtoy": 4956,
      "arian": 4957,
      "ena": 4958,
      "Ġmos": 4959,
      "Ġmaj": 4960,
      "Ġmortal": 4961,
      "Ġmental": 4962,
      "Ġinse": 4963,
      "Ġinch": 4964,
      "Ġinches": 4965,
      "lender": 4966,
      "leep": 4967,
      "Ġner": 4968,
      "Ġnet": 4969,
      "Ġnur": 4970,
      "Ġnipp": 4971,
      "Ġlays": 4972,
      "Ġlord": 4973,
      "Ġlady": 4974,
      "Ġyo": 4975,
      "Ġthru": 4976,
      "Ġthrees": 4977,
      "Ġkiss": 4978,
      "Ġev": 4979,
      "imal": 4980,
      "alm": 4981,
      "alth": 4982,
      "alous": 4983,
      "Ġrust": 4984,
      "Ġraw": 4985,
      "Ġrather": 4986,
      "Ġrule": 4987,
      "Ġripping": 4988,
      "vert": 4989,
      "style": 4990,
      "iday": 4991,
      "oma": 4992,
      "ĠTig": 4993,
      "ĠTyson": 4994,
      "amber": 4995,
      "Ġumb": 4996,
      "entist": 4997,
      "icate": 4998,
      "icag": 4999,
      "Ġstays": 5000,
      "Ġstood": 5001,
      "Ġstock": 5002,
      "Ġstub": 5003,
      "Ġstole": 5004,
      "Ġdoors": 5005,
      "irit": 5006,
      "irth": 5007,
      "Ġrend": 5008,
      "Ġreve": 5009,
      "ĠHall": 5010,
      "ĠHoff": 5011,
      "oos": 5012,
      "ĠSol": 5013,
      "Ġwhil": 5014,
      "kend": 5015,
      "aude": 5016,
      "ĠBL": 5017,
      "ĠBor": 5018,
      "tery": 5019,
      "ĠALL": 5020,
      "ĠCor": 5021,
      "ĠCong": 5022,
      "ĠCany": 5023,
      "unte": 5024,
      "Ġjar": 5025,
      "Ġjesus": 5026,
      "raged": 5027,
      "ĠMA": 5028,
      "ĠMor": 5029,
      "ĠMin": 5030,
      "ĠMed": 5031,
      "ĠMat": 5032,
      "ĠMen": 5033,
      "ĠMet": 5034,
      "ĠMach": 5035,
      "ĠMount": 5036,
      "ĠMike": 5037,
      "ĠMarch": 5038,
      "ĠII": 5039,
      "ĠId": 5040,
      "ĠIce": 5041,
      "ĠIraq": 5042,
      "estions": 5043,
      "iless": 5044,
      "Ġshame": 5045,
      "Ġshave": 5046,
      "Ġshirt": 5047,
      "iego": 5048,
      "ĠWee": 5049,
      "ĠWait": 5050,
      "Ġfaces": 5051,
      "arded": 5052,
      "usse": 5053,
      "usion": 5054,
      "oday": 5055,
      "Ġyours": 5056,
      "oline": 5057,
      "Ġchoke": 5058,
      "Ġspont": 5059,
      "Ġspeech": 5060,
      "ĠDis": 5061,
      "ĠDad": 5062,
      "ĠDark": 5063,
      "ĠPL": 5064,
      "ĠPat": 5065,
      "ĠPar": 5066,
      "ĠPot": 5067,
      "ĠPal": 5068,
      "ĠPunch": 5069,
      "ĠPole": 5070,
      "gel": 5071,
      "geance": 5072,
      "geyman": 5073,
      "ĠGree": 5074,
      "ĠGoogle": 5075,
      "ĠGorilla": 5076,
      "ĠGPS": 5077,
      "rior": 5078,
      "rier": 5079,
      "Ġsock": 5080,
      "ĠRome": 5081,
      "Ġworry": 5082,
      "apes": 5083,
      "arten": 5084,
      "ĠFat": 5085,
      "ĠFuck": 5086,
      "ĠFoot": 5087,
      "ĠFOR": 5088,
      "umin": 5089,
      "uman": 5090,
      "Ġmans": 5091,
      "Ġwhenever": 5092,
      "ello": 5093,
      "Ġvill": 5094,
      "ucker": 5095,
      "ĠJames": 5096,
      "ĠLo": 5097,
      "ĠLou": 5098,
      "ĠLong": 5099,
      "ĠLater": 5100,
      "Ġpeed": 5101,
      "Ġexec": 5102,
      "isted": 5103,
      "isting": 5104,
      "Ġblast": 5105,
      ".........": 5106,
      "ĠKen": 5107,
      "ĠKent": 5108,
      "Ġconcept": 5109,
      "Ġbackyard": 5110,
      "Ġ22": 5111,
      "agn": 5112,
      "Ġprot": 5113,
      "Ġproved": 5114,
      "Ġproced": 5115,
      "Ġproof": 5116,
      "eep": 5117,
      "Ġsuc": 5118,
      "Ġsubs": 5119,
      "angle": 5120,
      "Ġclone": 5121,
      "Ġclip": 5122,
      "Ġclipp": 5123,
      "Ġabduct": 5124,
      "Ġoffice": 5125,
      "Ġarrow": 5126,
      "Ġmex": 5127,
      "Ġacting": 5128,
      "Ġlob": 5129,
      "Ġgotten": 5130,
      "Ġfires": 5131,
      "Ġtechn": 5132,
      "perate": 5133,
      "perature": 5134,
      "itely": 5135,
      "ruct": 5136,
      "Ġunsc": 5137,
      "Ġunfortun": 5138,
      "Ġunlock": 5139,
      "berty": 5140,
      "Ġsmiles": 5141,
      "Ġslapping": 5142,
      "Ġfeat": 5143,
      "ĠUs": 5144,
      "ĠUnder": 5145,
      "Ġcoal": 5146,
      "Ġcoast": 5147,
      "Ġcoincidence": 5148,
      "Ġcocaine": 5149,
      "Ġflush": 5150,
      "Ġflames": 5151,
      "orts": 5152,
      "itty": 5153,
      "ĠChicken": 5154,
      "ĠChicag": 5155,
      "Ġinvention": 5156,
      "Ġswift": 5157,
      "Ġcreatures": 5158,
      "Ġsurround": 5159,
      "hog": 5160,
      "Ġ51": 5161,
      "Ġnowhere": 5162,
      "Ġdrill": 5163,
      "Ġgrou": 5164,
      "Ġgrad": 5165,
      "ggy": 5166,
      "ishment": 5167,
      "Ġhost": 5168,
      "Ġcontained": 5169,
      "Ġcontroll": 5170,
      "Ġapply": 5171,
      "ictor": 5172,
      "awk": 5173,
      "Ġquestions": 5174,
      "Ġsne": 5175,
      "ensive": 5176,
      "Ġbrings": 5177,
      "Ġprays": 5178,
      "ogan": 5179,
      "Ġtractor": 5180,
      "Ġtraffic": 5181,
      "Ġdisapp": 5182,
      "Ġdisplay": 5183,
      "inted": 5184,
      "Ġboys": 5185,
      "upiter": 5186,
      "Ġreality": 5187,
      "boys": 5188,
      "Ġenters": 5189,
      "Ġshowers": 5190,
      "Ġglare": 5191,
      "Ġslept": 5192,
      "Ġtries": 5193,
      "Ġfootage": 5194,
      "Ġhappy": 5195,
      "ERE": 5196,
      "Ġkidne": 5197,
      "Ġkidding": 5198,
      "avid": 5199,
      "Ġimpact": 5200,
      "ĠDecember": 5201,
      "Ġcrush": 5202,
      "Ġcrushed": 5203,
      "Ġparties": 5204,
      "Ġpoet": 5205,
      "ception": 5206,
      "anny": 5207,
      "anner": 5208,
      "Ġattacks": 5209,
      "Ġchildhood": 5210,
      "Ġrocks": 5211,
      "azing": 5212,
      "Ġaircraft": 5213,
      "ristmas": 5214,
      "ĠAlask": 5215,
      "ocaly": 5216,
      "Ġeyeballs": 5217,
      "Ġwalls": 5218,
      "Ġworked": 5219,
      "Ġ9000": 5220,
      "Ġfully": 5221,
      "Ġgiraff": 5222,
      "Ġcannon": 5223,
      "Ġcannibal": 5224,
      "Ġfavour": 5225,
      "Ġranch": 5226,
      "Ġwaits": 5227,
      "Ġpresents": 5228,
      "Ġsolar": 5229,
      "Ġsongs": 5230,
      "Ġbottles": 5231,
      "Ġcrossed": 5232,
      "Ġmission": 5233,
      "Ġcharge": 5234,
      "Ġdescri": 5235,
      "Ġthumb": 5236,
      "Ġfastest": 5237,
      "Ġdirector": 5238,
      "Ġaccount": 5239,
      "ovable": 5240,
      "Ġgrowing": 5241,
      "Ġsounds": 5242,
      "idding": 5243,
      "Ġterminator": 5244,
      "Ġweekend": 5245,
      "Ġfarm": 5246,
      "Ġshooting": 5247,
      "Ġallows": 5248,
      "Ġleading": 5249,
      "Ġhurricane": 5250,
      "ĠAss": 5251,
      "Ġplanets": 5252,
      "ĠZe": 5253,
      "Ġpicking": 5254,
      "ĠAnswer": 5255,
      "Ġcloset": 5256,
      "Ġblindness": 5257,
      "Ġhunts": 5258,
      "ĠYOUR": 5259,
      "Ġsentence": 5260,
      "Ġburns": 5261,
      "Ġyelling": 5262,
      "Ġbusy": 5263,
      "Ġmurdered": 5264,
      "Ġoccasion": 5265,
      "Ġlocation": 5266,
      "chet": 5267,
      "Ġparking": 5268,
      "Ġrespons": 5269,
      "Ġtigers": 5270,
      "Ġstayed": 5271,
      "Ġvolunte": 5272,
      "Ġapolog": 5273,
      "Ġprize": 5274,
      "Ġmodel": 5275,
      "Ġproperties": 5276,
      "Ġchews": 5277,
      "Ġirony": 5278,
      "Ġrequires": 5279,
      "Ġtelephone": 5280,
      "Ġtelevision": 5281,
      "7777": 5282,
      "coming": 5283,
      "Ġdiamond": 5284,
      "Ġmasterb": 5285,
      "ĠLuke": 5286,
      "Ġofficial": 5287,
      "Ġrhy": 5288,
      "Ġrhino": 5289,
      "Ġsports": 5290,
      "Ġwrestle": 5291,
      "Ġwrestling": 5292,
      "Ġattended": 5293,
      "Ġasteroid": 5294,
      "Ġgrown": 5295,
      "Ġsevere": 5296,
      "Ġcapital": 5297,
      "Ġfifth": 5298,
      "Ġjealous": 5299,
      "Ġblocks": 5300,
      "ĠiPad": 5301,
      "ĠiPhone": 5302,
      "ĠAfrican": 5303,
      "Ġbreathe": 5304,
      "Ġperforming": 5305,
      "Ġsqueeze": 5306,
      "ĠAtlantis": 5307,
      "Ġwedding": 5308,
      "Ġcertain": 5309,
      "Ġfigure": 5310,
      "Ġrules": 5311,
      "ĠDragon": 5312,
      "attlesn": 5313,
      "Ġcruc": 5314,
      "tended": 5315,
      "Ġtemperature": 5316,
      "Ġcorrectly": 5317,
      "ergarten": 5318,
      "Ġmerciless": 5319,
      "ĠSimmons": 5320,
      "ophobia": 5321,
      "Ġmemory": 5322,
      "Ġpermanent": 5323,
      "Ġregularly": 5324,
      "Ġtornado": 5325,
      "Ġlicense": 5326,
      "ĠNeedless": 5327,
      "sunami": 5328,
      "Ġnormal": 5329,
      "Ġlesbian": 5330,
      "Ġdocument": 5331,
      "Ġgovernment": 5332,
      "Ġapplied": 5333,
      "Ġbelongs": 5334,
      "Ġearthquake": 5335,
      "Ġdefinition": 5336,
      "Ġincreased": 5337,
      "Ġfrequently": 5338,
      "Ġwipes": 5339,
      "Ġcereal": 5340,
      "Ġpractice": 5341,
      "Ġrabbit": 5342,
      "Ġsolely": 5343,
      "Ġoranges": 5344,
      "Ġpeanut": 5345,
      "Ġhandicapped": 5346,
      "ĠSpongeBob": 5347,
      "minem": 5348,
      "Ġversion": 5349,
      "Ġhockey": 5350,
      "alaxy": 5351,
      "ĠSurv": 5352,
      "ĠSunday": 5353,
      "ĠMovie": 5354,
      "Ġsoccer": 5355,
      "Ġfingernails": 5356,
      "Ġparachute": 5357,
      "Remember": 5358,
      "Ġmajor": 5359,
      "Ġwhilst": 5360,
      "ĠCanyon": 5361,
      "Ġunfortunate": 5362,
      "ĠChicago": 5363,
      "Ġkidneys": 5364,
      "ocalypse": 5365,
      ".)": 5366,
      ".,": 5367,
      "12": 5368,
      "18": 5369,
      "69": 5370,
      "87": 5371,
      "95": 5372,
      "Ad": 5373,
      "And": 5374,
      "ALL": 5375,
      "Ever": 5376,
      "ELL": 5377,
      "Fear": 5378,
      "Freddy": 5379,
      "Ghost": 5380,
      "Kn": 5381,
      "LD": 5382,
      "Nob": 5383,
      "Oh": 5384,
      "Pol": 5385,
      "Pants": 5386,
      "Rock": 5387,
      "SON": 5388,
      "Te": 5389,
      "Those": 5390,
      "US": 5391,
      "Walker": 5392,
      "__": 5393,
      "aa": 5394,
      "aved": 5395,
      "bre": 5396,
      "bur": 5397,
      "bag": 5398,
      "bage": 5399,
      "bric": 5400,
      "chu": 5401,
      "ek": 5402,
      "gh": 5403,
      "gar": 5404,
      "gra": 5405,
      "ha": 5406,
      "his": 5407,
      "hib": 5408,
      "hma": 5409,
      "ibs": 5410,
      "jk": 5411,
      "jesus": 5412,
      "kind": 5413,
      "lers": 5414,
      "look": 5415,
      "line": 5416,
      "mod": 5417,
      "mble": 5418,
      "mates": 5419,
      "mother": 5420,
      "not": 5421,
      "noon": 5422,
      "national": 5423,
      "oid": 5424,
      "phe": 5425,
      "paper": 5426,
      "press": 5427,
      "pected": 5428,
      "run": 5429,
      "rate": 5430,
      "rated": 5431,
      "tes": 5432,
      "tles": 5433,
      "tators": 5434,
      "ux": 5435,
      "uary": 5436,
      "val": 5437,
      "wb": 5438,
      "wr": 5439,
      "wor": 5440,
      "wide": 5441,
      "zi": 5442,
      "zil": 5443,
      "Ġid": 5444,
      "Ġess": 5445,
      "Ġ99": 5446,
      "ision": 5447,
      "Ġtoug": 5448,
      "Ġtee": 5449,
      "Ġtire": 5450,
      "orc": 5451,
      "Ġameric": 5452,
      "ĠNever": 5453,
      "ĠNature": 5454,
      "ĠNothing": 5455,
      "inter": 5456,
      "inate": 5457,
      "inals": 5458,
      "Ġwool": 5459,
      "Ġwise": 5460,
      "Ġwax": 5461,
      "Ġsen": 5462,
      "Ġsod": 5463,
      "Ġsink": 5464,
      "Ġshed": 5465,
      "Ġsets": 5466,
      "Ġsings": 5467,
      "Ġsorry": 5468,
      "Ġov": 5469,
      "Ġoz": 5470,
      "erby": 5471,
      "Ġbing": 5472,
      "Ġbas": 5473,
      "Ġbound": 5474,
      "Ġbait": 5475,
      "Ġbunch": 5476,
      "Ġbolt": 5477,
      "Ġbodies": 5478,
      "Ġcy": 5479,
      "Ġcous": 5480,
      "Ġcub": 5481,
      "Ġcue": 5482,
      "Ġcodes": 5483,
      "Ġcalendar": 5484,
      "Ġhar": 5485,
      "Ġhom": 5486,
      "Ġhop": 5487,
      "Ġhol": 5488,
      "Ġhorn": 5489,
      "Ġhired": 5490,
      "Ġharm": 5491,
      "anite": 5492,
      "ancing": 5493,
      "anha": 5494,
      "Ġfry": 5495,
      "Ġfans": 5496,
      "Ġflex": 5497,
      "Ġfighters": 5498,
      "ativity": 5499,
      "itic": 5500,
      "itation": 5501,
      "reed": 5502,
      "rele": 5503,
      "Ġdam": 5504,
      "Ġdive": 5505,
      "Ġdru": 5506,
      "Ġdash": 5507,
      "lls": 5508,
      "oner": 5509,
      "once": 5510,
      "Ġpad": 5511,
      "Ġpus": 5512,
      "Ġpaid": 5513,
      "ases": 5514,
      "Ġtow": 5515,
      "Ġtoast": 5516,
      "Ġtower": 5517,
      "Ġtowards": 5518,
      "armed": 5519,
      "Ġmas": 5520,
      "Ġmouse": 5521,
      "Ġmel": 5522,
      "Ġmac": 5523,
      "Ġmars": 5524,
      "Ġmix": 5525,
      "Ġincident": 5526,
      "leen": 5527,
      "Ġonions": 5528,
      "Ġgig": 5529,
      "Ġgain": 5530,
      "Ġheck": 5531,
      "Ġhears": 5532,
      "Ġnit": 5533,
      "Ġlat": 5534,
      "Ġlaser": 5535,
      "Ġbean": 5536,
      "Ġbeans": 5537,
      "set": 5538,
      "Ġiss": 5539,
      "rop": 5540,
      "Ġemer": 5541,
      "Ġecon": 5542,
      "Ġetern": 5543,
      "Ġeagle": 5544,
      "imb": 5545,
      "ows": 5546,
      "Ġruss": 5547,
      "Ġrifle": 5548,
      "ided": 5549,
      "etchu": 5550,
      "ĠTay": 5551,
      "ĠTri": 5552,
      "ĠTwo": 5553,
      "ĠTaco": 5554,
      "ameth": 5555,
      "Ġwash": 5556,
      "icle": 5557,
      "iches": 5558,
      "icros": 5559,
      "icists": 5560,
      "igger": 5561,
      "alls": 5562,
      "allel": 5563,
      "Ġstat": 5564,
      "Ġsteroids": 5565,
      "iration": 5566,
      "irty": 5567,
      "Ġfort": 5568,
      "Ġreaction": 5569,
      "ĠHan": 5570,
      "ĠHur": 5571,
      "ĠHun": 5572,
      "ĠHold": 5573,
      "ĠHero": 5574,
      "ĠHolly": 5575,
      "ĠHorse": 5576,
      "ĠHIM": 5577,
      "ĠHugh": 5578,
      "ĠHalloween": 5579,
      "ĠSher": 5580,
      "ĠSouth": 5581,
      "ĠSEA": 5582,
      "ĠSatan": 5583,
      "Ġwhist": 5584,
      "Ġwhatever": 5585,
      "Ġanus": 5586,
      "Ġanger": 5587,
      "child": 5588,
      "ĠBro": 5589,
      "ĠBet": 5590,
      "ĠBoo": 5591,
      "ĠBook": 5592,
      "ĠBros": 5593,
      "ĠBilly": 5594,
      "ĠBanner": 5595,
      "urai": 5596,
      "ĠAct": 5597,
      "ĠAIDS": 5598,
      "ĠCra": 5599,
      "ĠCard": 5600,
      "ĠCaptain": 5601,
      "ĠCindy": 5602,
      "ĠCatholic": 5603,
      "unning": 5604,
      "Ġjungle": 5605,
      "rap": 5606,
      "ify": 5607,
      "ĠMack": 5608,
      "ĠMex": 5609,
      "ĠMortal": 5610,
      "ilical": 5611,
      "Ġseventh": 5612,
      "Ġshake": 5613,
      "ĠWater": 5614,
      "ĠWatch": 5615,
      "Ġdeaf": 5616,
      "anding": 5617,
      "Ġfabric": 5618,
      "Ġhaven": 5619,
      "ths": 5620,
      "this": 5621,
      "though": 5622,
      "olute": 5623,
      "Ġchasing": 5624,
      "Ġspill": 5625,
      "Ġspirit": 5626,
      "ĠThese": 5627,
      "ĠDON": 5628,
      "ĠDanie": 5629,
      "ĠPS": 5630,
      "ĠPart": 5631,
      "ĠPain": 5632,
      "ĠPoker": 5633,
      "Ġ10000": 5634,
      "antic": 5635,
      "earing": 5636,
      "ĠGir": 5637,
      "ĠGood": 5638,
      "ĠGary": 5639,
      "ĠGrizzly": 5640,
      "Ġplaces": 5641,
      "Ġplastic": 5642,
      "ĠRing": 5643,
      "ĠRyan": 5644,
      "Ġkiller": 5645,
      "aph": 5646,
      "ĠFa": 5647,
      "ĠFive": 5648,
      "ĠFort": 5649,
      "ĠFacebook": 5650,
      "Ġarea": 5651,
      "Ġmanaged": 5652,
      "Ġmankind": 5653,
      "Ġalb": 5654,
      "Ġalter": 5655,
      "Ġalien": 5656,
      "Ġaltern": 5657,
      "aint": 5658,
      "Ġupside": 5659,
      "elcome": 5660,
      "elociraptor": 5661,
      "Ġvest": 5662,
      "Ġvag": 5663,
      "ĠOs": 5664,
      "ĠOld": 5665,
      "ĠOkl": 5666,
      "ulb": 5667,
      "ules": 5668,
      "ĠEast": 5669,
      "ĠEaster": 5670,
      "ĠEgy": 5671,
      "ĠJer": 5672,
      "ĠJoker": 5673,
      "ĠJoe": 5674,
      "ĠJupiter": 5675,
      "ĠLO": 5676,
      "ĠLost": 5677,
      "ĠLatin": 5678,
      "Ġnostr": 5679,
      "Ġpeas": 5680,
      "Ġpeel": 5681,
      "Ġpeppers": 5682,
      "Ġexerc": 5683,
      "istan": 5684,
      "Ġblades": 5685,
      "Ġmole": 5686,
      "acy": 5687,
      "acond": 5688,
      "ĠKrue": 5689,
      "ĠKarate": 5690,
      "ĠKombat": 5691,
      "ĠKeller": 5692,
      "Ġconvent": 5693,
      "Ġbackground": 5694,
      "inds": 5695,
      "Ġroy": 5696,
      "Ġroast": 5697,
      "Ġrope": 5698,
      "Ġcoma": 5699,
      "agon": 5700,
      "agram": 5701,
      "teen": 5702,
      "eeee": 5703,
      "Ġsuing": 5704,
      "angers": 5705,
      "athon": 5706,
      "Ġassass": 5707,
      "Ġmeets": 5708,
      "Ġmemb": 5709,
      "Ġtwel": 5710,
      "Ġhulk": 5711,
      "obile": 5712,
      "obby": 5713,
      "Ġuns": 5714,
      "Ġunit": 5715,
      "!!!!!!": 5716,
      "abag": 5717,
      "Ġenraged": 5718,
      "Ġsmother": 5719,
      "Ġsmash": 5720,
      "Ġsled": 5721,
      "Ġfever": 5722,
      "Ġafternoon": 5723,
      "Ġflaming": 5724,
      "Ġflameth": 5725,
      "orted": 5726,
      "Ġreco": 5727,
      "ĠChar": 5728,
      "ĠChild": 5729,
      "ĠChili": 5730,
      "rower": 5731,
      "ĠVol": 5732,
      "ĠValent": 5733,
      "ĠVelociraptor": 5734,
      "Ġtricycle": 5735,
      "ĠYes": 5736,
      "Ġseems": 5737,
      "Ġhanded": 5738,
      "Ġbeaten": 5739,
      "Ġcarries": 5740,
      "Ġgrim": 5741,
      "Ġgrill": 5742,
      "Ġcheat": 5743,
      "Ġcheeks": 5744,
      "ordon": 5745,
      "Ġcontrol": 5746,
      "ĠStars": 5747,
      "Ġfright": 5748,
      "Ġspend": 5749,
      "Ġreasons": 5750,
      "Ġquarter": 5751,
      "Ġsniff": 5752,
      "Ġbrand": 5753,
      "Ġbrushes": 5754,
      "Ġbuff": 5755,
      "ogy": 5756,
      "Ġgrew": 5757,
      "Ġtrained": 5758,
      "Ġdisgu": 5759,
      "Ġbulldo": 5760,
      "Ġboils": 5761,
      "oster": 5762,
      "Ġwinter": 5763,
      "eyed": 5764,
      "Ġsteam": 5765,
      "Ġperiod": 5766,
      "they": 5767,
      "Which": 5768,
      "Ġlasted": 5769,
      "Ġbadminton": 5770,
      "Ġ&#": 5771,
      "Ġglac": 5772,
      "people": 5773,
      "Ġcrapped": 5774,
      "Ġ75": 5775,
      "Ġcameo": 5776,
      "Ġbelieved": 5777,
      "ohan": 5778,
      "Ġwarm": 5779,
      "Ġinfront": 5780,
      "Ġchickens": 5781,
      "asters": 5782,
      "Ġletter": 5783,
      "class": 5784,
      "Ġcrim": 5785,
      "Ġcrash": 5786,
      "Ġmini": 5787,
      "Everyone": 5788,
      "Ġmonster": 5789,
      "Ġmonopoly": 5790,
      "Ġ195": 5791,
      "Ġ1945": 5792,
      "Ġ1940": 5793,
      "Ġlitter": 5794,
      "Ġattached": 5795,
      "Ġstops": 5796,
      "Ġsurvives": 5797,
      "azi": 5798,
      "Ġeleven": 5799,
      "Ġlanding": 5800,
      "ĠAlways": 5801,
      "Ġinterview": 5802,
      "Ġdeflect": 5803,
      "ahoma": 5804,
      "Ġgods": 5805,
      "ollowing": 5806,
      "Ġserious": 5807,
      "Ġservice": 5808,
      "resses": 5809,
      "Ġredu": 5810,
      "ĠBlue": 5811,
      "Ġtouched": 5812,
      "Ġrefused": 5813,
      "ĠSoviet": 5814,
      "Ġgirls": 5815,
      "Ġgrab": 5816,
      "Ġlisten": 5817,
      "Ġemb": 5818,
      "Ġjumping": 5819,
      "jected": 5820,
      "Ġsolid": 5821,
      "Ġcausing": 5822,
      "Ġbuildings": 5823,
      "Ġmissed": 5824,
      "ĠBefore": 5825,
      "Ġreply": 5826,
      "Ġreporter": 5827,
      "Ġobl": 5828,
      "Ġbabies": 5829,
      "Ġdesp": 5830,
      "Ġdeser": 5831,
      "ĠJohnson": 5832,
      "Ġcommun": 5833,
      "Ġterrifying": 5834,
      "Ġcolors": 5835,
      "Ġmessages": 5836,
      "Ġequals": 5837,
      "Ġreplaced": 5838,
      "Ġshoots": 5839,
      "ĠFriday": 5840,
      "Ġhearing": 5841,
      "Ġshoved": 5842,
      "ĠTherefore": 5843,
      "ĠNeville": 5844,
      "Ġhurts": 5845,
      "Ġboxing": 5846,
      "Ġcleans": 5847,
      "Ġcopy": 5848,
      "Ġburrit": 5849,
      "Ġpointing": 5850,
      "beat": 5851,
      "ĠZomb": 5852,
      "Ġfathered": 5853,
      "Ġspelling": 5854,
      "Ġclassic": 5855,
      "loaded": 5856,
      "Ġtransform": 5857,
      "Ġburning": 5858,
      "Ġcroc": 5859,
      "Ġpromoted": 5860,
      "ĠDonald": 5861,
      "roundhouse": 5862,
      "Ġwatched": 5863,
      "Ġgasoline": 5864,
      "elta": 5865,
      "Ġsafari": 5866,
      "Ġsafety": 5867,
      "Ġstronger": 5868,
      "Ġtouching": 5869,
      "chest": 5870,
      "Ġerections": 5871,
      "Ġturds": 5872,
      "Ġmedical": 5873,
      "ĠChef": 5874,
      "Ġproduct": 5875,
      "Ġappropri": 5876,
      "Ġrespond": 5877,
      "Ġcorner": 5878,
      "Ġtraining": 5879,
      "Ġadded": 5880,
      "Ġaddress": 5881,
      "Ġcorpse": 5882,
      "Ġprice": 5883,
      "ĠEveryone": 5884,
      "Ġcontinue": 5885,
      "Ġhangs": 5886,
      "Ġforgets": 5887,
      "Ġrequest": 5888,
      "Ġcircle": 5889,
      "Ġdecap": 5890,
      "ology": 5891,
      "ologists": 5892,
      "Ġprotection": 5893,
      "Ġpacked": 5894,
      "Ġkegs": 5895,
      "Ġspray": 5896,
      "Ġofficially": 5897,
      "gency": 5898,
      "ĠRocky": 5899,
      "Ġunderstood": 5900,
      "Ġbleeds": 5901,
      "????": 5902,
      "Ġeru": 5903,
      "Ġmotion": 5904,
      "Ġstudy": 5905,
      "Ġhundreds": 5906,
      "Ġkindergarten": 5907,
      "Ġreferred": 5908,
      "ĠBobby": 5909,
      "Ġjeans": 5910,
      "Ġvictim": 5911,
      "ĠEVERY": 5912,
      "Ġprograms": 5913,
      "Ġphysical": 5914,
      "00000000000000000000000000000000": 5915,
      "AAAAAAAA": 5916,
      "forest": 5917,
      "uesday": 5918,
      "Ġcourage": 5919,
      "Ġhiking": 5920,
      "Ġthankful": 5921,
      "Ġgrenades": 5922,
      "................................": 5923,
      "Ġsandwiches": 5924,
      "print": 5925,
      "Ġavoid": 5926,
      "Ġcalcul": 5927,
      "Ġtoenail": 5928,
      "arrange": 5929,
      "Ġannoy": 5930,
      "Ġspinning": 5931,
      "Ġmeasure": 5932,
      "Ġdenied": 5933,
      "Ġmidnight": 5934,
      "Ġstrangled": 5935,
      "ĠOlympics": 5936,
      "Ġmasturbates": 5937,
      "Ġcareer": 5938,
      "Ġpurch": 5939,
      "Ġshattered": 5940,
      "ĠDOES": 5941,
      "Ġexplosive": 5942,
      "Ġcharacters": 5943,
      "Ġcommandments": 5944,
      "!!!!!!!!!!!!!!!!!!!!!!!!!!!!!!!!!!!!!!!!!!!!!!!!!!!!!!!!!!!!!!!!": 5945,
      "Ġneighborhood": 5946,
      "Ġnaturally": 5947,
      "Ġachieve": 5948,
      "Ġlauncher": 5949,
      "Ġanti": 5950,
      "essional": 5951,
      "ĠEnter": 5952,
      "Ġconstant": 5953,
      "Ġclubs": 5954,
      "Ġdrowned": 5955,
      "Ġclaimed": 5956,
      "hetic": 5957,
      "Ġsimultaneously": 5958,
      "Ġoxygen": 5959,
      "Ġnickname": 5960,
      "Ġstabbed": 5961,
      "ĠBrazil": 5962,
      "Ġsuggested": 5963,
      "Ġanswers": 5964,
      "Ġanswered": 5965,
      "Ġpredicted": 5966,
      "Ġtournam": 5967,
      "Ġpiercing": 5968,
      "Ġstores": 5969,
      "ĠWWII": 5970,
      "ĠWoods": 5971,
      "ĠGolden": 5972,
      "Ġflosses": 5973,
      "Ġinsulted": 5974,
      "Ġmotherfucker": 5975,
      "Ġobviously": 5976,
      "Ġextremely": 5977,
      "Ġcigarette": 5978,
      "Ġopponents": 5979,
      "Ġmicrowave": 5980,
      "Ġsuccessful": 5981,
      "ralia": 5982,
      "Ġbubbles": 5983,
      "Ġpossibly": 5984,
      "Ġlava": 5985,
      "Ġdebate": 5986,
      "Ġsatisfy": 5987,
      "Ġchopsticks": 5988,
      "Unlike": 5989,
      "ĠNinja": 5990,
      "Ġsauce": 5991,
      "Ġbasketball": 5992,
      "celled": 5993,
      "Ġrumored": 5994,
      "Ġstreets": 5995,
      "Ġaccidently": 5996,
      "Ġskydiving": 5997,
      "Ġairplane": 5998,
      "ĠBeatles": 5999,
      "ĠBritish": 6000,
      "fully": 6001,
      "trl": 6002,
      "Ġtarget": 6003,
      "Ġlyrics": 6004,
      "ĠTrek": 6005,
      "ĠAustralia": 6006,
      "Ġnegative": 6007,
      "Ġalphab": 6008,
      "ĠLIKE": 6009,
      "Ġconcert": 6010,
      "ĠSegal": 6011,
      "Ġintroduced": 6012,
      "ĠQueen": 6013,
      "Ġgrocery": 6014,
      "Ġdedicated": 6015,
      "Ġdimension": 6016,
      "ĠTiger": 6017,
      "ĠHoffa": 6018,
      "ĠMatrix": 6019,
      "Ġunscramble": 6020,
      "Ġfavourite": 6021,
      "Ġdescribe": 6022,
      "tatorship": 6023,
      "icrosoft": 6024,
      "ĠHollywood": 6025,
      "ĠOklahoma": 6026,
      "ĠEgypt": 6027,
      "ĠKrueger": 6028,
      "Ġmembers": 6029,
      "Ġflamethrower": 6030,
      "\"...": 6031,
      "21": 6032,
      "24": 6033,
      "90": 6034,
      "97": 6035,
      "AU": 6036,
      "BC": 6037,
      "Bad": 6038,
      "Because": 6039,
      "CN": 6040,
      "CU": 6041,
      "Con": 6042,
      "Da": 6043,
      "DEA": 6044,
      "Desp": 6045,
      "FL": 6046,
      "FO": 6047,
      "Go": 6048,
      "Get": 6049,
      "Good": 6050,
      "HE": 6051,
      "Home": 6052,
      "HER": 6053,
      "IL": 6054,
      "ION": 6055,
      "Je": 6056,
      "John": 6057,
      "King": 6058,
      "Kill": 6059,
      "Light": 6060,
      "Mc": 6061,
      "Men": 6062,
      "Mac": 6063,
      "NT": 6064,
      "OW": 6065,
      "OX": 6066,
      "Or": 6067,
      "Pac": 6068,
      "Qu": 6069,
      "Rob": 6070,
      "So": 6071,
      "Sw": 6072,
      "Say": 6073,
      "Tw": 6074,
      "Will": 6075,
      "Where": 6076,
      "aris": 6077,
      "bl": 6078,
      "bon": 6079,
      "band": 6080,
      "bour": 6081,
      "bird": 6082,
      "ca": 6083,
      "cest": 6084,
      "cause": 6085,
      "col": 6086,
      "cons": 6087,
      "cont": 6088,
      "cream": 6089,
      "cope": 6090,
      "did": 6091,
      "days": 6092,
      "fly": 6093,
      "face": 6094,
      "ford": 6095,
      "god": 6096,
      "hinct": 6097,
      "ias": 6098,
      "iest": 6099,
      "ios": 6100,
      "ja": 6101,
      "jf": 6102,
      "jh": 6103,
      "ji": 6104,
      "jr": 6105,
      "kh": 6106,
      "kill": 6107,
      "lain": 6108,
      "life": 6109,
      "mo": 6110,
      "mes": 6111,
      "mel": 6112,
      "mile": 6113,
      "mond": 6114,
      "mitted": 6115,
      "norris": 6116,
      "nce": 6117,
      "now": 6118,
      "nut": 6119,
      "nger": 6120,
      "oad": 6121,
      "oint": 6122,
      "pa": 6123,
      "pow": 6124,
      "pell": 6125,
      "pong": 6126,
      "parate": 6127,
      "rm": 6128,
      "right": 6129,
      "rum": 6130,
      "rina": 6131,
      "ss": 6132,
      "school": 6133,
      "sized": 6134,
      "tw": 6135,
      "uh": 6136,
      "uro": 6137,
      "uated": 6138,
      "wise": 6139,
      "xas": 6140,
      "ya": 6141,
      "your": 6142,
      "Ġion": 6143,
      "Ġrom": 6144,
      "Ġ....": 6145,
      "Ġvel": 6146,
      "Ġident": 6147,
      "Ġtack": 6148,
      "Ġtie": 6149,
      "Ġtak": 6150,
      "Ġtide": 6151,
      "Ġtort": 6152,
      "Ġtons": 6153,
      "Ġtunn": 6154,
      "ories": 6155,
      "cking": 6156,
      "hel": 6157,
      "hero": 6158,
      "hest": 6159,
      "heus": 6160,
      "Ġace": 6161,
      "ĠNazi": 6162,
      "Chucky": 6163,
      "Ġwer": 6164,
      "Ġwakes": 6165,
      "Ġwitch": 6166,
      "Ġwaves": 6167,
      "Ġwolverine": 6168,
      "Ġwanna": 6169,
      "Ġsan": 6170,
      "Ġsad": 6171,
      "Ġsore": 6172,
      "Ġsized": 6173,
      "Ġoct": 6174,
      "Ġtheres": 6175,
      "errible": 6176,
      "Ġbay": 6177,
      "Ġbass": 6178,
      "Ġbills": 6179,
      "Ġbunk": 6180,
      "ouble": 6181,
      "Ġcough": 6182,
      "Ġcable": 6183,
      "Ġcents": 6184,
      "Ġcapt": 6185,
      "Ġhid": 6186,
      "Ġhoney": 6187,
      "Ġhills": 6188,
      "Ġhomes": 6189,
      "anes": 6190,
      "aning": 6191,
      "anas": 6192,
      "anch": 6193,
      "ĠChucky": 6194,
      "Ġfris": 6195,
      "Ġfles": 6196,
      "Ġfert": 6197,
      "Ġfrench": 6198,
      "Ġfiction": 6199,
      "ati": 6200,
      "atar": 6201,
      "atly": 6202,
      "aties": 6203,
      "atron": 6204,
      "atically": 6205,
      "iti": 6206,
      "ito": 6207,
      "itated": 6208,
      "itzer": 6209,
      "nds": 6210,
      "ndy": 6211,
      "reci": 6212,
      "rels": 6213,
      "Ġder": 6214,
      "Ġdip": 6215,
      "Ġdiss": 6216,
      "Ġdances": 6217,
      "Ġduty": 6218,
      "Ġdingle": 6219,
      "lling": 6220,
      "ona": 6221,
      "ono": 6222,
      "only": 6223,
      "Ġphen": 6224,
      "Ġpra": 6225,
      "Ġpil": 6226,
      "Ġpity": 6227,
      "Ġpins": 6228,
      "Ġpages": 6229,
      "Ġpony": 6230,
      "Ġpokemon": 6231,
      "asy": 6232,
      "arct": 6233,
      "arning": 6234,
      "ario": 6235,
      "enn": 6236,
      "enced": 6237,
      "Ġmut": 6238,
      "Ġmood": 6239,
      "Ġmath": 6240,
      "Ġmale": 6241,
      "Ġmamm": 6242,
      "lement": 6243,
      "lease": 6244,
      "Ġonion": 6245,
      "Ġgang": 6246,
      "Ġgather": 6247,
      "Ġgym": 6248,
      "Ġguts": 6249,
      "Ġgatling": 6250,
      "Ġgalaxy": 6251,
      "Ġheat": 6252,
      "Ġhero": 6253,
      "Ġhealth": 6254,
      "Ġnast": 6255,
      "Ġlun": 6256,
      "Ġluck": 6257,
      "Ġlab": 6258,
      "Ġlower": 6259,
      "Ġlaughter": 6260,
      "Ġloud": 6261,
      "Ġleng": 6262,
      "Ġya": 6263,
      "Ġyes": 6264,
      "Ġbears": 6265,
      "Ġbeverage": 6266,
      "sex": 6267,
      "Ġketchu": 6268,
      "rogen": 6269,
      "Ġet": 6270,
      "imi": 6271,
      "oting": 6272,
      "owing": 6273,
      "alty": 6274,
      "adium": 6275,
      "adox": 6276,
      "utes": 6277,
      "utch": 6278,
      "Ġram": 6279,
      "Ġrough": 6280,
      "Ġrated": 6281,
      "Ġrash": 6282,
      "Ġrips": 6283,
      "Ġrug": 6284,
      "Ġcancelled": 6285,
      "stream": 6286,
      "storm": 6287,
      "idence": 6288,
      "omme": 6289,
      "etime": 6290,
      "etah": 6291,
      "ĠToot": 6292,
      "ĠTurn": 6293,
      "ĠTuesday": 6294,
      "illo": 6295,
      "vey": 6296,
      "Ġwaste": 6297,
      "Ġwashes": 6298,
      "lder": 6299,
      "iced": 6300,
      "icop": 6301,
      "igr": 6302,
      "iring": 6303,
      "Ġforced": 6304,
      "Ġforget": 6305,
      "Ġreb": 6306,
      "Ġrear": 6307,
      "Ġrearrange": 6308,
      "ĠHen": 6309,
      "ĠHill": 6310,
      "ĠHol": 6311,
      "ĠHome": 6312,
      "ĠHigh": 6313,
      "ĠHarry": 6314,
      "ĠSex": 6315,
      "ĠSaw": 6316,
      "ĠSouthern": 6317,
      "ĠSaddam": 6318,
      "Ġangel": 6319,
      "Ġancest": 6320,
      "char": 6321,
      "ĠBY": 6322,
      "ĠBen": 6323,
      "ĠBall": 6324,
      "ĠBun": 6325,
      "ĠBest": 6326,
      "ĠBud": 6327,
      "ĠBarn": 6328,
      "urr": 6329,
      "uries": 6330,
      "urance": 6331,
      "ĠAT": 6332,
      "ĠAg": 6333,
      "ĠChu": 6334,
      "ĠCity": 6335,
      "ĠCont": 6336,
      "ĠCann": 6337,
      "ĠCode": 6338,
      "ĠCena": 6339,
      "una": 6340,
      "unes": 6341,
      "Ġjam": 6342,
      "Ġjapan": 6343,
      "Ġjury": 6344,
      "Ġjelly": 6345,
      "rah": 6346,
      "ifty": 6347,
      "ĠME": 6348,
      "ĠMoh": 6349,
      "ĠMiley": 6350,
      "ĠIll": 6351,
      "Ġatmos": 6352,
      "Ġsewer": 6353,
      "Ġsemen": 6354,
      "Ġselect": 6355,
      "Ġseparate": 6356,
      "Ġshall": 6357,
      "Ġshine": 6358,
      "Ġship": 6359,
      "Ġshalt": 6360,
      "Ġsharp": 6361,
      "acked": 6362,
      "ĠWon": 6363,
      "ĠWould": 6364,
      "ĠWond": 6365,
      "ĠWild": 6366,
      "ĠWaco": 6367,
      "ĠWolverine": 6368,
      "ĠWashing": 6369,
      "Ġdevice": 6370,
      "andora": 6371,
      "Ġoutrun": 6372,
      "odile": 6373,
      "Ġchose": 6374,
      "Ġchips": 6375,
      "Ġchoked": 6376,
      "Ġspare": 6377,
      "Ġspark": 6378,
      "Ġspilled": 6379,
      "Ġspaces": 6380,
      "Ġspices": 6381,
      "Ġspleen": 6382,
      "Ġsphinct": 6383,
      "Ġliz": 6384,
      "ĠHeaven": 6385,
      "ĠDet": 6386,
      "ĠDarth": 6387,
      "ĠDance": 6388,
      "ĠDog": 6389,
      "ĠPer": 6390,
      "ĠPol": 6391,
      "ĠPeople": 6392,
      "ĠPerry": 6393,
      "Ġ150": 6394,
      "ĠGe": 6395,
      "ĠGot": 6396,
      "ĠGet": 6397,
      "aks": 6398,
      "...\"": 6399,
      "rip": 6400,
      "Ġsoap": 6401,
      "Ġplant": 6402,
      "Ġplanned": 6403,
      "ĠRa": 6404,
      "ĠRep": 6405,
      "ĠRiver": 6406,
      "ĠRoll": 6407,
      "ĠRec": 6408,
      "aple": 6409,
      "ĠFore": 6410,
      "ĠFour": 6411,
      "ĠFord": 6412,
      "ĠFAT": 6413,
      "ĠFinger": 6414,
      "umber": 6415,
      "Ġupcoming": 6416,
      "Ġorders": 6417,
      "toise": 6418,
      "tocks": 6419,
      "Ġval": 6420,
      "Ġvom": 6421,
      "Ġvia": 6422,
      "Ġvoted": 6423,
      "quila": 6424,
      "aste": 6425,
      "astard": 6426,
      "Ġallerg": 6427,
      "ĠOp": 6428,
      "ĠOx": 6429,
      "ĠOver": 6430,
      "ĠOff": 6431,
      "ĠOsc": 6432,
      "outs": 6433,
      "ulp": 6434,
      "ĠJo": 6435,
      "ĠJr": 6436,
      "ĠJFK": 6437,
      "ĠJaws": 6438,
      "ĠJuly": 6439,
      "Ġbuttocks": 6440,
      "ĠLas": 6441,
      "ĠLand": 6442,
      "ĠLance": 6443,
      "ĠLove": 6444,
      "Ġnovel": 6445,
      "Ġexamp": 6446,
      "ntil": 6447,
      "istance": 6448,
      "acing": 6449,
      "acus": 6450,
      "acular": 6451,
      "ivor": 6452,
      "iven": 6453,
      "ivid": 6454,
      "ivion": 6455,
      "ĠKim": 6456,
      "ĠKNO": 6457,
      "ĠKorean": 6458,
      "Ġconqu": 6459,
      "ively": 6460,
      "Ġbackward": 6461,
      "Ġrot": 6462,
      "Ġ''": 6463,
      "ookie": 6464,
      "ademy": 6465,
      "aging": 6466,
      "Ġprostate": 6467,
      "Ġscary": 6468,
      "Ġscale": 6469,
      "Ġscience": 6470,
      "Ġeverywhere": 6471,
      "Ġclin": 6472,
      "Ġclou": 6473,
      "Ġclips": 6474,
      "Ġargue": 6475,
      "iper": 6476,
      "iped": 6477,
      "Ġanymore": 6478,
      "ourney": 6479,
      "Ġmeant": 6480,
      "Ġmeme": 6481,
      "Ġactive": 6482,
      "Ġactors": 6483,
      "Ġlover": 6484,
      "Ġloving": 6485,
      "mance": 6486,
      "Ġplayers": 6487,
      "Ġtwer": 6488,
      "Ġtender": 6489,
      "Ġteabag": 6490,
      "Ġtexas": 6491,
      "issy": 6492,
      "urely": 6493,
      "imple": 6494,
      "Ġtherefore": 6495,
      "Ġunex": 6496,
      "ability": 6497,
      "Ġ360": 6498,
      "Ġthanks": 6499,
      "ockets": 6500,
      "berry": 6501,
      "berries": 6502,
      "Ġsmashed": 6503,
      "Ġslide": 6504,
      "Ġslogan": 6505,
      "ĠUpon": 6506,
      "Ġweigh": 6507,
      "Ġcoined": 6508,
      "Ġflame": 6509,
      "Ġflip": 6510,
      "Ġrecomme": 6511,
      "ĠChap": 6512,
      "Ġsweet": 6513,
      "Ġcrew": 6514,
      "Ġneedle": 6515,
      "Ġsurge": 6516,
      "ĠVall": 6517,
      "ĠViet": 6518,
      "ĠVictor": 6519,
      "Ġowner": 6520,
      "ubb": 6521,
      "ublic": 6522,
      "Ġtrim": 6523,
      "Ġtrade": 6524,
      "Ġtrigger": 6525,
      "ĠYour": 6526,
      "Ġaware": 6527,
      "Ġseek": 6528,
      "Ġhandful": 6529,
      "Ġfactory": 6530,
      "arks": 6531,
      "Ġcarried": 6532,
      "Ġgranite": 6533,
      "yspace": 6534,
      "Ġherbs": 6535,
      "Ġguest": 6536,
      "Ġguard": 6537,
      "ords": 6538,
      "Ġdeaths": 6539,
      "Ġappears": 6540,
      "Ġappreci": 6541,
      "icts": 6542,
      "ictly": 6543,
      "Ġpencil": 6544,
      "Ġfuckin": 6545,
      "Ġspeaking": 6546,
      "Ġquite": 6547,
      "Ġsnot": 6548,
      "Ġsnap": 6549,
      "enses": 6550,
      "epend": 6551,
      "Ġskills": 6552,
      "Ġbrush": 6553,
      "Ġwrath": 6554,
      "Ġwrites": 6555,
      "Ġbug": 6556,
      "Ġprime": 6557,
      "emen": 6558,
      "Ġcompared": 6559,
      "Ġinstall": 6560,
      "Ġinstalled": 6561,
      "cially": 6562,
      "cials": 6563,
      "eye": 6564,
      "igned": 6565,
      "ignore": 6566,
      "Ġ45": 6567,
      "upation": 6568,
      "Ġresear": 6569,
      "Ġenter": 6570,
      "ashion": 6571,
      "Ġnights": 6572,
      "Ġbroad": 6573,
      "Ġtriangle": 6574,
      "Ġcrab": 6575,
      "Ġhairs": 6576,
      "Ġbarb": 6577,
      "Ġbarbed": 6578,
      "Ġsinger": 6579,
      "ERS": 6580,
      "Ġinform": 6581,
      "Ġinfected": 6582,
      "Ġmyth": 6583,
      "Ġbreaking": 6584,
      "ĠDef": 6585,
      "clip": 6586,
      "Ġcrater": 6587,
      "Ġchucks": 6588,
      "Ġparts": 6589,
      "Ġinsurance": 6590,
      "Ġopens": 6591,
      "Ġremain": 6592,
      "Ġremote": 6593,
      "iends": 6594,
      "ushroom": 6595,
      "airway": 6596,
      "ussion": 6597,
      "Ġstring": 6598,
      "Ġstrictly": 6599,
      "Ġmonkey": 6600,
      "Ġattract": 6601,
      "aughters": 6602,
      "..........": 6603,
      "otted": 6604,
      "Ġsurviving": 6605,
      "azor": 6606,
      "Ġelev": 6607,
      "Ġelement": 6608,
      "Ġelements": 6609,
      "AND": 6610,
      "Ġadv": 6611,
      "Ġadvice": 6612,
      "ĠStevie": 6613,
      "OULD": 6614,
      "Ġcounting": 6615,
      "Ġpaying": 6616,
      "Ġhomework": 6617,
      "Ġblowing": 6618,
      "Ġwallet": 6619,
      "Ġpops": 6620,
      "Ġ97": 6621,
      "Ġ911": 6622,
      "Ġhorr": 6623,
      "Ġhelicop": 6624,
      "ĠSpain": 6625,
      "ipper": 6626,
      "Ġpainful": 6627,
      "Ġsquir": 6628,
      "Ġmenu": 6629,
      "Ġvisiting": 6630,
      "ĠExpl": 6631,
      "shot": 6632,
      "Ġcatches": 6633,
      "Ġ2011": 6634,
      "Ġ2014": 6635,
      "ymes": 6636,
      "Ġrelation": 6637,
      "Ġrelax": 6638,
      "Ġrelativity": 6639,
      "degree": 6640,
      "Ġpresence": 6641,
      "Ġconsiders": 6642,
      "Ġcows": 6643,
      "Ġmissing": 6644,
      "Ġmissiles": 6645,
      "ĠBeach": 6646,
      "ĠClause": 6647,
      "Ġrepres": 6648,
      "Ġcharged": 6649,
      "Ġcheckmate": 6650,
      "Ġbrace": 6651,
      "Ġbrave": 6652,
      "Ġfourth": 6653,
      "Ġdesk": 6654,
      "Ġdirection": 6655,
      "ĠTHAT": 6656,
      "Ġequipped": 6657,
      "Ġgolden": 6658,
      "Ġmoonwalk": 6659,
      "Ġterms": 6660,
      "Ġdiff": 6661,
      "ĠFrank": 6662,
      "ĠFriends": 6663,
      "Ġauto": 6664,
      "Ġdrag": 6665,
      "lette": 6666,
      "ĠShit": 6667,
      "Ġcops": 6668,
      "Ġcopyr": 6669,
      "Ġparallel": 6670,
      "Ġparadox": 6671,
      "ĠAsian": 6672,
      "Ġcollaps": 6673,
      "ATE": 6674,
      "ĠPluto": 6675,
      "Ġrolls": 6676,
      "Ġpoints": 6677,
      "Ġpointed": 6678,
      "Ġsucks": 6679,
      "Ġbags": 6680,
      "Ġpubes": 6681,
      "Ġmovement": 6682,
      "Ġclosely": 6683,
      "Ġstrike": 6684,
      "Ġregister": 6685,
      "Ġtravels": 6686,
      "Ġtraveled": 6687,
      "Ġpromised": 6688,
      "ĠONCE": 6689,
      "Ġdirections": 6690,
      "Ġtasted": 6691,
      "Ġchallenge": 6692,
      "Ġpiggy": 6693,
      "ĠScorp": 6694,
      "ĠSnort": 6695,
      "Ġproduce": 6696,
      "Being": 6697,
      "Ġbaths": 6698,
      "Ġcorners": 6699,
      "Ġincludes": 6700,
      "Ġsteaks": 6701,
      "Ġapart": 6702,
      "Ġcooking": 6703,
      "Ġcookies": 6704,
      "Ġgallons": 6705,
      "Ġanimatron": 6706,
      "Ġsoldiers": 6707,
      "ĠLeft": 6708,
      "Ġchewing": 6709,
      "Ġrestaurants": 6710,
      "Ġsubmit": 6711,
      "Christ": 6712,
      "Ġtennis": 6713,
      "ĠNorr": 6714,
      "Ġhanging": 6715,
      "Ġmarried": 6716,
      "Ġconfir": 6717,
      "Ġcelebrated": 6718,
      "Stephen": 6719,
      "ĠQu": 6720,
      "Ġfoolish": 6721,
      "Ġmagic": 6722,
      "ĠFlor": 6723,
      "ĠFlash": 6724,
      "Ġsnowman": 6725,
      "Ġpressing": 6726,
      "Ġattempted": 6727,
      "Ġ:)": 6728,
      "Ġbasement": 6729,
      "Ġpackage": 6730,
      "Ġkeys": 6731,
      "ĠFacts": 6732,
      "Ġenglish": 6733,
      "Ġrhymes": 6734,
      "Ġchopped": 6735,
      "Ġhumming": 6736,
      "Ġastron": 6737,
      "Ġbanjo": 6738,
      "Ġcupboard": 6739,
      "Ġstudents": 6740,
      "ĠHawai": 6741,
      "ĠWilliam": 6742,
      "Ġcapable": 6743,
      "ammad": 6744,
      "Ġreferring": 6745,
      "Ġfeeds": 6746,
      "Ġphysics": 6747,
      "Ġsituation": 6748,
      "Ġcouch": 6749,
      "Ġcouple": 6750,
      "ĠMissing": 6751,
      "Ġselling": 6752,
      "ĠRobert": 6753,
      "handed": 6754,
      "handedly": 6755,
      "Ġavail": 6756,
      "Ġwitnessed": 6757,
      "Ġboogers": 6758,
      "Ġcalm": 6759,
      "Ġpupp": 6760,
      "Ġpuberty": 6761,
      "arrassed": 6762,
      "Ġlaying": 6763,
      "Ġstomped": 6764,
      "ĠMayan": 6765,
      "Ġscientists": 6766,
      "Ġartist": 6767,
      "Ġimmovable": 6768,
      "Ġdenim": 6769,
      "ĠTwitter": 6770,
      "ĠCoast": 6771,
      "Ġdemands": 6772,
      "Ġcombust": 6773,
      "Ġcombined": 6774,
      "Ġabsolute": 6775,
      "Ġbreathes": 6776,
      "IGHT": 6777,
      "iagara": 6778,
      "Ġwedgie": 6779,
      "Ġcertific": 6780,
      "Ġfrost": 6781,
      "Ġdigit": 6782,
      "Ġtotal": 6783,
      "Ġruler": 6784,
      "Ġjacket": 6785,
      "Ġrobber": 6786,
      "Ġmeeting": 6787,
      "Ġaccepted": 6788,
      "Ġimpregnated": 6789,
      "Ġparticipated": 6790,
      "Ġexplosion": 6791,
      "Sharks": 6792,
      "Ġveget": 6793,
      "Ġsilver": 6794,
      "Ġlimbs": 6795,
      "Ġlaunch": 6796,
      "Ġvenom": 6797,
      "Ġvengeance": 6798,
      "Ġsuffer": 6799,
      "Ġslamming": 6800,
      "Ġperformed": 6801,
      "Ġnunchucks": 6802,
      "ĠWHEN": 6803,
      "Ġweakness": 6804,
      "Ġautomatic": 6805,
      "Ġtranslated": 6806,
      "Ġoccurred": 6807,
      "Ġtoothpick": 6808,
      "HHHH": 6809,
      "IFE": 6810,
      "piece": 6811,
      "Ġbungee": 6812,
      "Ġpowers": 6813,
      "Ġnapalm": 6814,
      "Ġlosing": 6815,
      "ĠHarley": 6816,
      "Ġobvious": 6817,
      "Ġinvolving": 6818,
      "Ġcigarettes": 6819,
      "skim": 6820,
      "Ġbiography": 6821,
      "Ġbattery": 6822,
      "Ġcabin": 6823,
      "Ġdangerous": 6824,
      "Ġmountains": 6825,
      "Ġlifetime": 6826,
      "Ġstuffed": 6827,
      "ĠSecret": 6828,
      "ĠImpossible": 6829,
      "Ġdemonstr": 6830,
      "Ġsoftware": 6831,
      "ĠJean": 6832,
      "Ġsavage": 6833,
      "Ġaffect": 6834,
      "Ġphoto": 6835,
      "Ġ1972": 6836,
      "Ġsalesman": 6837,
      "Ġexperienced": 6838,
      "Ġmagnific": 6839,
      "Arnold": 6840,
      "American": 6841,
      "Claude": 6842,
      "Ġerror": 6843,
      "Ġtortoise": 6844,
      "Ġaxe": 6845,
      "Ġbiceps": 6846,
      "Ġpumpkin": 6847,
      "Ġinjuries": 6848,
      "cendants": 6849,
      "Ġloosely": 6850,
      "ĠThunder": 6851,
      "ĠCarmen": 6852,
      "ĠMoore": 6853,
      "ĠRaymond": 6854,
      "ĠKev": 6855,
      "Ġcommercial": 6856,
      "Ġarrived": 6857,
      "Ġteenager": 6858,
      "Ġimagin": 6859,
      "ĠPlanck": 6860,
      "Ġstairs": 6861,
      "ĠHannibal": 6862,
      "ĠCubs": 6863,
      "Ġchampion": 6864,
      "ĠPenis": 6865,
      "ĠLiberty": 6866,
      "ciousness": 6867,
      "Ġaccompl": 6868,
      "Ġprivate": 6869,
      "ĠLucas": 6870,
      "Ġillegal": 6871,
      "ĠCNRKs": 6872,
      "Ġuppercut": 6873,
      "Ġsamurai": 6874,
      "Ġcustom": 6875,
      "Ġcinema": 6876,
      "Ġpiranha": 6877,
      "Ġrusty": 6878,
      "Ġumbilical": 6879,
      "Ġrendition": 6880,
      "Ġmansion": 6881,
      "Ġexecution": 6882,
      "Ġprocedure": 6883,
      "Ġsucceed": 6884,
      "Ġsubscri": 6885,
      "Ġcontroller": 6886,
      "ĠAlaska": 6887,
      "Ġgiraffes": 6888,
      "ĠZeus": 6889,
      "Ġoccasionally": 6890,
      "Ġresponsible": 6891,
      "Ġrhyme": 6892,
      "Ġcapitalize": 6893,
      "Ġmercilessly": 6894,
      "Ġdocumentary": 6895,
      "ALLY": 6896,
      "Nobody": 6897,
      "Ġtougher": 6898,
      "Ġhomo": 6899,
      "Ġheckler": 6900,
      "ĠSEAL": 6901,
      "Ġwhistle": 6902,
      "Ġexercises": 6903,
      "aconda": 6904,
      "Ġbulldozer": 6905,
      "Ġgrabbed": 6906,
      "Ġembarrassed": 6907,
      "Ġcrocodile": 6908,
      "Ġalphabet": 6909,
      "Despite": 6910,
      "MacGyver": 6911,
      "Ġtorture": 6912,
      "Ġtunnel": 6913,
      "Ġflesh": 6914,
      "Ġlungs": 6915,
      "Ġketchup": 6916,
      "ĠHolmes": 6917,
      "ĠWashington": 6918,
      "Ġsphincter": 6919,
      "ĠOscar": 6920,
      "ĠKNOW": 6921,
      "ĠVictoria": 6922,
      "!?": 6923,
      ".(": 6924,
      "14": 6925,
      "1000": 6926,
      "25": 6927,
      "200": 6928,
      "36": 6929,
      "37": 6930,
      "85": 6931,
      "93": 6932,
      "900": 6933,
      "?'": 6934,
      "?\",": 6935,
      "AD": 6936,
      "Aid": 6937,
      "AIN": 6938,
      "ACT": 6939,
      "Che": 6940,
      "Chu": 6941,
      "Cle": 6942,
      "Cal": 6943,
      "Cra": 6944,
      "Col": 6945,
      "CND": 6946,
      "Darth": 6947,
      "Dancing": 6948,
      "EG": 6949,
      "EL": 6950,
      "Each": 6951,
      "Einstein": 6952,
      "Fun": 6953,
      "Fool": 6954,
      "Following": 6955,
      "Great": 6956,
      "George": 6957,
      "Hur": 6958,
      "Hel": 6959,
      "IA": 6960,
      "IVE": 6961,
      "James": 6962,
      "Jimmy": 6963,
      "KS": 6964,
      "KES": 6965,
      "Le": 6966,
      "Mother": 6967,
      "NY": 6968,
      "Ne": 6969,
      "Nuck": 6970,
      "Nothing": 6971,
      "NASA": 6972,
      "Ph": 6973,
      "Pres": 6974,
      "Paul": 6975,
      "RS": 6976,
      "RY": 6977,
      "Re": 6978,
      "Since": 6979,
      "Satan": 6980,
      "Space": 6981,
      "Slender": 6982,
      "TS": 6983,
      "Tr": 6984,
      "Tom": 6985,
      "Today": 6986,
      "UI": 6987,
      "Upon": 6988,
      "Way": 6989,
      "Want": 6990,
      "Your": 6991,
      "ZZ": 6992,
      "after": 6993,
      "auts": 6994,
      "ban": 6995,
      "bes": 6996,
      "bat": 6997,
      "bust": 6998,
      "bone": 6999,
      "bear": 7000,
      "bel": 7001,
      "bob": 7002,
      "bomb": 7003,
      "because": 7004,
      "block": 7005,
      "cr": 7006,
      "cs": 7007,
      "cal": 7008,
      "chen": 7009,
      "core": 7010,
      "cond": 7011,
      "corn": 7012,
      "cour": 7013,
      "cular": 7014,
      "cific": 7015,
      "called": 7016,
      "cussion": 7017,
      "ded": 7018,
      "ender": 7019,
      "fun": 7020,
      "fil": 7021,
      "from": 7022,
      "fare": 7023,
      "fold": 7024,
      "gic": 7025,
      "ght": 7026,
      "hot": 7027,
      "horn": 7028,
      "hour": 7029,
      "hale": 7030,
      "hyd": 7031,
      "iu": 7032,
      "iqu": 7033,
      "iking": 7034,
      "kd": 7035,
      "lob": 7036,
      "lings": 7037,
      "lash": 7038,
      "lov": 7039,
      "mill": 7040,
      "mun": 7041,
      "nes": 7042,
      "nel": 7043,
      "nell": 7044,
      "naked": 7045,
      "oves": 7046,
      "pre": 7047,
      "put": 7048,
      "pack": 7049,
      "pus": 7050,
      "page": 7051,
      "power": 7052,
      "prote": 7053,
      "punch": 7054,
      "rim": 7055,
      "rill": 7056,
      "rus": 7057,
      "rong": 7058,
      "rates": 7059,
      "rified": 7060,
      "sen": 7061,
      "sur": 7062,
      "top": 7063,
      "two": 7064,
      "uals": 7065,
      "ufact": 7066,
      "vi": 7067,
      "vas": 7068,
      "vant": 7069,
      "vation": 7070,
      "vah": 7071,
      "west": 7072,
      "well": 7073,
      "watch": 7074,
      "wash": 7075,
      "wald": 7076,
      "ye": 7077,
      "yo": 7078,
      "yy": 7079,
      "zing": 7080,
      "Ġ<": 7081,
      "Ġ@": 7082,
      "Ġ..": 7083,
      "Ġut": 7084,
      "Ġig": 7085,
      "Ġignore": 7086,
      "Ġtim": 7087,
      "Ġtent": 7088,
      "Ġtuck": 7089,
      "Ġtag": 7090,
      "Ġtreat": 7091,
      "Ġtaps": 7092,
      "Ġtuffet": 7093,
      "Ġterrible": 7094,
      "orb": 7095,
      "ores": 7096,
      "oring": 7097,
      "orill": 7098,
      "hey": 7099,
      "heal": 7100,
      "Ġau": 7101,
      "hua": 7102,
      "ĠNin": 7103,
      "ĠNone": 7104,
      "ĠNancy": 7105,
      "ĠNFL": 7106,
      "rish": 7107,
      "iner": 7108,
      "invent": 7109,
      "inning": 7110,
      "inction": 7111,
      "Ġwa": 7112,
      "Ġwolf": 7113,
      "Ġsher": 7114,
      "Ġsap": 7115,
      "Ġsank": 7116,
      "Ġsouth": 7117,
      "Ġsilly": 7118,
      "Ġsouthern": 7119,
      "Ġsissy": 7120,
      "Ġsimple": 7121,
      "Ġok": 7122,
      "Ġopt": 7123,
      "Ġoper": 7124,
      "Ġowe": 7125,
      "Ġtherm": 7126,
      "erad": 7127,
      "erant": 7128,
      "erness": 7129,
      "erries": 7130,
      "Ġbou": 7131,
      "Ġbal": 7132,
      "Ġbould": 7133,
      "Ġbake": 7134,
      "Ġbout": 7135,
      "Ġbud": 7136,
      "Ġbother": 7137,
      "Ġboss": 7138,
      "Ġbible": 7139,
      "Ġbump": 7140,
      "Ġbene": 7141,
      "Ġbats": 7142,
      "Ġbattles": 7143,
      "Ġborder": 7144,
      "Ġbidding": 7145,
      "oul": 7146,
      "Ġcum": 7147,
      "Ġcave": 7148,
      "Ġcott": 7149,
      "Ġcape": 7150,
      "Ġcube": 7151,
      "Ġcups": 7152,
      "Ġhig": 7153,
      "Ġhall": 7154,
      "Ġhood": 7155,
      "Ġhyd": 7156,
      "Ġhidden": 7157,
      "anish": 7158,
      "anose": 7159,
      "anced": 7160,
      "ĠChucktatorship": 7161,
      "edge": 7162,
      "eddy": 7163,
      "esse": 7164,
      "esame": 7165,
      "esome": 7166,
      "esters": 7167,
      "Ġfame": 7168,
      "Ġfate": 7169,
      "Ġfile": 7170,
      "Ġfallen": 7171,
      "Ġfried": 7172,
      "Ġfishes": 7173,
      "Ġfuel": 7174,
      "Ġfashion": 7175,
      "Ġfoul": 7176,
      "aters": 7177,
      "itate": 7178,
      "itiz": 7179,
      "itars": 7180,
      "itions": 7181,
      "itals": 7182,
      "itude": 7183,
      "ndrix": 7184,
      "rea": 7185,
      "Ġdi": 7186,
      "Ġdat": 7187,
      "Ġdum": 7188,
      "Ġdime": 7189,
      "Ġdough": 7190,
      "Ġdish": 7191,
      "Ġdrew": 7192,
      "Ġdared": 7193,
      "Ġdug": 7194,
      "Ġdental": 7195,
      "Ġdentist": 7196,
      "onse": 7197,
      "onym": 7198,
      "Ġps": 7199,
      "Ġping": 7200,
      "Ġpic": 7201,
      "Ġpets": 7202,
      "Ġpipe": 7203,
      "Ġpours": 7204,
      "Ġpumm": 7205,
      "ingly": 7206,
      "asal": 7207,
      "asect": 7208,
      "aspar": 7209,
      "Ġtopped": 7210,
      "Ġtomor": 7211,
      "Ġtomb": 7212,
      "Ġtodd": 7213,
      "Ġtoots": 7214,
      "arin": 7215,
      "arily": 7216,
      "arious": 7217,
      "arah": 7218,
      "eno": 7219,
      "ener": 7220,
      "enger": 7221,
      "enny": 7222,
      "Ġma": 7223,
      "Ġmr": 7224,
      "Ġment": 7225,
      "Ġmime": 7226,
      "Ġmout": 7227,
      "Ġmice": 7228,
      "Ġmud": 7229,
      "Ġmph": 7230,
      "Ġmask": 7231,
      "Ġmushroom": 7232,
      "Ġink": 7233,
      "Ġinmates": 7234,
      "leans": 7235,
      "leton": 7236,
      "Ġgree": 7237,
      "Ġgene": 7238,
      "Ġhence": 7239,
      "Ġnude": 7240,
      "Ġnanose": 7241,
      "Ġlb": 7242,
      "Ġlu": 7243,
      "Ġlust": 7244,
      "Ġlap": 7245,
      "Ġlink": 7246,
      "Ġlint": 7247,
      "Ġlaz": 7248,
      "Ġlines": 7249,
      "Ġlamb": 7250,
      "Ġloos": 7251,
      "Ġyawn": 7252,
      "Ġyeah": 7253,
      "Ġbeg": 7254,
      "Ġbeings": 7255,
      "sey": 7256,
      "sequ": 7257,
      "semble": 7258,
      "Ġko": 7259,
      "roit": 7260,
      "Ġeast": 7261,
      "Ġearn": 7262,
      "imon": 7263,
      "imately": 7264,
      "ota": 7265,
      "otion": 7266,
      "owed": 7267,
      "ality": 7268,
      "alian": 7269,
      "aying": 7270,
      "adi": 7271,
      "ado": 7272,
      "Ġrat": 7273,
      "Ġrick": 7274,
      "Ġrig": 7275,
      "Ġrang": 7276,
      "Ġrich": 7277,
      "Ġrides": 7278,
      "Ġrattlesn": 7279,
      "Ġribs": 7280,
      "Ġrazor": 7281,
      "Ġcans": 7282,
      "station": 7283,
      "ompe": 7284,
      "eted": 7285,
      "ette": 7286,
      "ĠTar": 7287,
      "ĠTank": 7288,
      "ĠThur": 7289,
      "ĠTarant": 7290,
      "amps": 7291,
      "ambo": 7292,
      "ambers": 7293,
      "ichu": 7294,
      "icles": 7295,
      "icult": 7296,
      "icating": 7297,
      "igi": 7298,
      "Ġstren": 7299,
      "Ġdoggy": 7300,
      "irds": 7301,
      "irby": 7302,
      "Ġfork": 7303,
      "Ġforty": 7304,
      "Ġforms": 7305,
      "Ġrev": 7306,
      "Ġreent": 7307,
      "Ġreind": 7308,
      "Ġreven": 7309,
      "Ġrevers": 7310,
      "Ġrenamed": 7311,
      "ĠHA": 7312,
      "ĠHer": 7313,
      "ĠHam": 7314,
      "ĠHop": 7315,
      "ĠHand": 7316,
      "ĠHind": 7317,
      "ĠHave": 7318,
      "ĠHoly": 7319,
      "ĠHalo": 7320,
      "ĠHusse": 7321,
      "ĠHubb": 7322,
      "ĠSM": 7323,
      "ĠSS": 7324,
      "ĠSU": 7325,
      "ĠSet": 7326,
      "ĠSir": 7327,
      "ĠSum": 7328,
      "ĠSide": 7329,
      "ĠSoc": 7330,
      "ĠSah": 7331,
      "ĠScientists": 7332,
      "ĠSEE": 7333,
      "Ġwhom": 7334,
      "Ġanagram": 7335,
      "Ġasleep": 7336,
      "aud": 7337,
      "auer": 7338,
      "aunt": 7339,
      "chaun": 7340,
      "chae": 7341,
      "ĠBas": 7342,
      "ĠBand": 7343,
      "ĠBone": 7344,
      "ĠBel": 7345,
      "ĠBuck": 7346,
      "ĠBab": 7347,
      "ĠBoth": 7348,
      "ĠBattle": 7349,
      "ĠBox": 7350,
      "ĠBIG": 7351,
      "ĠBirth": 7352,
      "ĠBauer": 7353,
      "ural": 7354,
      "ĠAC": 7355,
      "ĠAd": 7356,
      "ĠAra": 7357,
      "ĠApp": 7358,
      "ĠAny": 7359,
      "ĠApr": 7360,
      "ĠCA": 7361,
      "ĠCa": 7362,
      "ĠCat": 7363,
      "ĠCall": 7364,
      "ĠCos": 7365,
      "ĠCOD": 7366,
      "ĠChurch": 7367,
      "ĠCPR": 7368,
      "Ġjets": 7369,
      "Ġjackson": 7370,
      "Ġjammed": 7371,
      "racle": 7372,
      "racy": 7373,
      "ĠMt": 7374,
      "ĠMer": 7375,
      "ĠMur": 7376,
      "ĠMil": 7377,
      "ĠMore": 7378,
      "ĠMalk": 7379,
      "ĠMans": 7380,
      "ĠMud": 7381,
      "ĠMAN": 7382,
      "ĠMeg": 7383,
      "ĠMaid": 7384,
      "ĠMerry": 7385,
      "ĠMorp": 7386,
      "ĠMagn": 7387,
      "ĠMicrosoft": 7388,
      "ĠIM": 7389,
      "ĠInt": 7390,
      "ĠIII": 7391,
      "ĠIRS": 7392,
      "estig": 7393,
      "ilogy": 7394,
      "Ġseed": 7395,
      "Ġsequ": 7396,
      "opus": 7397,
      "Ġshare": 7398,
      "Ġshape": 7399,
      "Ġshades": 7400,
      "Ġshaving": 7401,
      "Ġshapes": 7402,
      "ĠWal": 7403,
      "ĠWolf": 7404,
      "ĠWAS": 7405,
      "Ġdee": 7406,
      "Ġdeer": 7407,
      "Ġdeleted": 7408,
      "anda": 7409,
      "ander": 7410,
      "Ġfagg": 7411,
      "Ġfacial": 7412,
      "thra": 7413,
      "Ġnote": 7414,
      "Ġnotice": 7415,
      "oda": 7416,
      "romos": 7417,
      "!!!\"": 7418,
      "olve": 7419,
      "oland": 7420,
      "olol": 7421,
      "olph": 7422,
      "Ġchann": 7423,
      "Ġchoose": 7424,
      "Ġchina": 7425,
      "Ġchamber": 7426,
      "Ġchristmas": 7427,
      "Ġchromos": 7428,
      "Ġspawn": 7429,
      "Ġspread": 7430,
      "Ġspotted": 7431,
      "Ġlip": 7432,
      "Ġlies": 7433,
      "Ġlips": 7434,
      "Ġliked": 7435,
      "ĠHel": 7436,
      "ĠHead": 7437,
      "ĠHendrix": 7438,
      "ĠDem": 7439,
      "ĠDec": 7440,
      "ĠDise": 7441,
      "ĠDerby": 7442,
      "ĠDelta": 7443,
      "ĠPE": 7444,
      "ĠPre": 7445,
      "ĠPower": 7446,
      "ĠPai": 7447,
      "ĠPaul": 7448,
      "ĠParis": 7449,
      "ĠPandora": 7450,
      "ĠPompe": 7451,
      "ĠGM": 7452,
      "ĠGang": 7453,
      "ĠGates": 7454,
      "ĠGov": 7455,
      "ĠGiant": 7456,
      "ĠGAY": 7457,
      "ĠGOD": 7458,
      "ĠGET": 7459,
      "ĠGordon": 7460,
      "aker": 7461,
      "heres": 7462,
      "rian": 7463,
      "Ġplu": 7464,
      "Ġpluck": 7465,
      "Ġplans": 7466,
      "ĠRon": 7467,
      "ĠRos": 7468,
      "ĠRee": 7469,
      "ĠRoose": 7470,
      "ĠRams": 7471,
      "ĠRangers": 7472,
      "ĠRoland": 7473,
      "ateg": 7474,
      "apon": 7475,
      "Ġleis": 7476,
      "Ġleather": 7477,
      "artin": 7478,
      "ĠFR": 7479,
      "ĠFed": 7480,
      "ĠFro": 7481,
      "ĠFrom": 7482,
      "ĠFame": 7483,
      "ĠFred": 7484,
      "ĠFighter": 7485,
      "ĠFirst": 7486,
      "ĠFalls": 7487,
      "umble": 7488,
      "Ġmanager": 7489,
      "Ġmanufact": 7490,
      "ainment": 7491,
      "Ġore": 7492,
      "Ġorbit": 7493,
      "eler": 7494,
      "Ġjustin": 7495,
      "Ġjustice": 7496,
      "Ġvote": 7497,
      "Ġvasect": 7498,
      "quito": 7499,
      "oodle": 7500,
      "osen": 7501,
      "ĠOk": 7502,
      "ĠOut": 7503,
      "ĠOther": 7504,
      "ĠOracle": 7505,
      "outube": 7506,
      "ulate": 7507,
      "ĠEV": 7508,
      "ĠEm": 7509,
      "ĠEv": 7510,
      "ĠEgg": 7511,
      "ĠElect": 7512,
      "ĠEsp": 7513,
      "ĠEagle": 7514,
      "ĠEminem": 7515,
      "ĠEuro": 7516,
      "ĠEskim": 7517,
      "ĠJoke": 7518,
      "ĠJune": 7519,
      "ĠJimmy": 7520,
      "ĠLight": 7521,
      "ĠLone": 7522,
      "ĠLink": 7523,
      "ĠLife": 7524,
      "ĠLike": 7525,
      "ĠLucky": 7526,
      "ĠLimb": 7527,
      "Ġnoise": 7528,
      "Ġpees": 7529,
      "Ġexcl": 7530,
      "Ġextended": 7531,
      "Ġexhib": 7532,
      "istol": 7533,
      "acre": 7534,
      "acause": 7535,
      "iva": 7536,
      "ival": 7537,
      "ivet": 7538,
      "iviliz": 7539,
      "ĠKay": 7540,
      "ĠKid": 7541,
      "ĠKra": 7542,
      "ĠKool": 7543,
      "ĠKicks": 7544,
      "ĠKryptonite": 7545,
      "ĠKaspar": 7546,
      "Ġcong": 7547,
      "Ġconv": 7548,
      "Ġroles": 7549,
      "Ġcomed": 7550,
      "agers": 7551,
      "Ġproven": 7552,
      "Ġproving": 7553,
      "Ġproject": 7554,
      "Ġscar": 7555,
      "Ġscra": 7556,
      "Ġscored": 7557,
      "Ġscaring": 7558,
      "rylls": 7559,
      "Ġsue": 7560,
      "inkle": 7561,
      "inkley": 7562,
      "Ġclo": 7563,
      "Ġcliff": 7564,
      "Ġclapping": 7565,
      "assic": 7566,
      "Ġoffend": 7567,
      "Ġarse": 7568,
      "ipal": 7569,
      "Ġanytime": 7570,
      "venant": 7571,
      "Ġload": 7572,
      "Ġloaf": 7573,
      "Ġworldwide": 7574,
      "Ġtwat": 7575,
      "Ġtend": 7576,
      "ooth": 7577,
      "Ġhumor": 7578,
      "ruff": 7579,
      "obe": 7580,
      "Ġthereby": 7581,
      "reepers": 7582,
      "Ġunl": 7583,
      "Ġunited": 7584,
      "!!!!!!!": 7585,
      "abeth": 7586,
      "abolic": 7587,
      "ĠThor": 7588,
      "ĠThree": 7589,
      "ĠThank": 7590,
      "Ġenvy": 7591,
      "izabeth": 7592,
      "Ġsmiling": 7593,
      "Ġsmoking": 7594,
      "Ġslave": 7595,
      "Ġslower": 7596,
      "Ġslaughters": 7597,
      "ĠUFC": 7598,
      "ĠUFO": 7599,
      "ĠUntil": 7600,
      "Ġflies": 7601,
      "ortly": 7602,
      "Ġdonated": 7603,
      "Ġrecon": 7604,
      "Ġrecycle": 7605,
      "Ġrecipe": 7606,
      "ansas": 7607,
      "oken": 7608,
      "ĠChorris": 7609,
      "ĠChallen": 7610,
      "Ġswe": 7611,
      "Ġcreature": 7612,
      "Ġsurvey": 7613,
      "ĠVal": 7614,
      "ĠVatic": 7615,
      "ĠViagra": 7616,
      "Ġtran": 7617,
      "Ġtrilogy": 7618,
      "ĠYear": 7619,
      "Ġawake": 7620,
      "hovah": 7621,
      "udes": 7622,
      "udge": 7623,
      "Ġ55": 7624,
      "Ġagents": 7625,
      "Ġdrum": 7626,
      "Ġdrums": 7627,
      "Ġchem": 7628,
      "Ġcheer": 7629,
      "except": 7630,
      "Ġapples": 7631,
      "Ġappend": 7632,
      "Ġeyel": 7633,
      "ĠStud": 7634,
      "ĠStones": 7635,
      "ĠStyle": 7636,
      "acts": 7637,
      "Ġpenny": 7638,
      "Ġrunner": 7639,
      "Ġquad": 7640,
      "Ġquart": 7641,
      "ensity": 7642,
      "Ġskid": 7643,
      "Ġskate": 7644,
      "Ġskipped": 7645,
      "Ġprec": 7646,
      "Ġprem": 7647,
      "Ġprey": 7648,
      "Ġpunishment": 7649,
      "Ġbelts": 7650,
      "Ġpron": 7651,
      "Ġtrail": 7652,
      "Ġdisp": 7653,
      "Ġdisin": 7654,
      "Ġdisag": 7655,
      "Ġcompare": 7656,
      "Ġlighting": 7657,
      "Ġuseless": 7658,
      "Ġwinner": 7659,
      "Ġinstinct": 7660,
      "igns": 7661,
      "Ġsteaming": 7662,
      "velt": 7663,
      "upac": 7664,
      "Ġrealize": 7665,
      "Whatever": 7666,
      "Ġentert": 7667,
      "Ġbadger": 7668,
      "Ġglitch": 7669,
      "Ġgloves": 7670,
      "pecially": 7671,
      "Ġslee": 7672,
      "iginal": 7673,
      "Ġtriple": 7674,
      "Ġcrazy": 7675,
      "osses": 7676,
      "Ġhappiness": 7677,
      "Ġwherever": 7678,
      "Ġstarter": 7679,
      "Ġmug": 7680,
      "Ġmule": 7681,
      "Ġshots": 7682,
      "Ġimperson": 7683,
      "Ġimpression": 7684,
      "Ġolder": 7685,
      "weiser": 7686,
      "Ġdrivers": 7687,
      "Ġcrou": 7688,
      "Ġchuckle": 7689,
      "aneous": 7690,
      "Ġmilks": 7691,
      "Ġsignature": 7692,
      "Ġremaining": 7693,
      "Ġdropping": 7694,
      "Ġmonit": 7695,
      "rica": 7696,
      "Ġmeter": 7697,
      "Ġcutting": 7698,
      "Ġsurvivor": 7699,
      "azook": 7700,
      "Ġairport": 7701,
      "Ġfinishes": 7702,
      "aused": 7703,
      "ocal": 7704,
      "ocracy": 7705,
      "Ġamong": 7706,
      "Ġamount": 7707,
      "Ġamaze": 7708,
      "Ġamazing": 7709,
      "Ġinternational": 7710,
      "Ġrestroom": 7711,
      "ibals": 7712,
      "Ġbooth": 7713,
      "Ġopened": 7714,
      "OUT": 7715,
      "OUND": 7716,
      "ĠSeal": 7717,
      "Ġhomemade": 7718,
      "Ġentirely": 7719,
      "Ġdestroying": 7720,
      "cycle": 7721,
      "Ġswims": 7722,
      "Ġtalks": 7723,
      "Ġserv": 7724,
      "Ġserves": 7725,
      "Ġseriously": 7726,
      "Ġpopcorn": 7727,
      "ĠArk": 7728,
      "oyal": 7729,
      "Ġhelps": 7730,
      "ĠSpice": 7731,
      "ĠSpring": 7732,
      "Ġknocking": 7733,
      "Donnell": 7734,
      "Ġretal": 7735,
      "Ġretarded": 7736,
      "ĠBlood": 7737,
      "IND": 7738,
      "uality": 7739,
      "Ġsquad": 7740,
      "Ġhighly": 7741,
      "Ġmayo": 7742,
      "Ġreflex": 7743,
      "Ġrefuses": 7744,
      "Ġrefusing": 7745,
      "ĠSoze": 7746,
      "Think": 7747,
      "shit": 7748,
      "ship": 7749,
      "Ġmuscle": 7750,
      "Ġgrave": 7751,
      "Ġgravit": 7752,
      "Ġlistened": 7753,
      "000000000000": 7754,
      "Ġsetting": 7755,
      "death": 7756,
      "Ġwaitress": 7757,
      "Ġemploy": 7758,
      "Ġwheels": 7759,
      "Ġmomma": 7760,
      "Ġsubstit": 7761,
      "Ġcowbell": 7762,
      "Ġcowboys": 7763,
      "Ġmisses": 7764,
      "Ġmissile": 7765,
      "ĠClues": 7766,
      "Ġreprodu": 7767,
      "Ġsuperhero": 7768,
      "Ġdesign": 7769,
      "Ġdesert": 7770,
      "Ġinvited": 7771,
      "Ġextract": 7772,
      "ĠTHAN": 7773,
      "Ġaccent": 7774,
      "brush": 7775,
      "ovies": 7776,
      "Ġbangs": 7777,
      "Ġbanged": 7778,
      "Ġgrows": 7779,
      "ITY": 7780,
      "ĠBiggie": 7781,
      "Ġtermin": 7782,
      "Ġdarkness": 7783,
      "Ġpolit": 7784,
      "Ġpolitely": 7785,
      "Ġcondition": 7786,
      "Ġconduct": 7787,
      "ĠShades": 7788,
      "ĠJustice": 7789,
      "ĠNeo": 7790,
      "ĠNeil": 7791,
      "Ġlesson": 7792,
      "heads": 7793,
      "Ġclever": 7794,
      "ĠAfterwards": 7795,
      "Ġorgan": 7796,
      "Ġorgies": 7797,
      "ĠOrder": 7798,
      "Ġexpelled": 7799,
      "Ġexpanding": 7800,
      "OOM": 7801,
      "Ġburger": 7802,
      "Ġfilms": 7803,
      "Ġlarger": 7804,
      "ĠBrinkley": 7805,
      "Ġroller": 7806,
      "ONG": 7807,
      "Ġsucked": 7808,
      "Ġhamburger": 7809,
      "Ġpickle": 7810,
      "Ġpassed": 7811,
      "Ġgrounds": 7812,
      "Ġsalmon": 7813,
      "Ġsaliva": 7814,
      "ercules": 7815,
      "Ġroads": 7816,
      "Ġexploding": 7817,
      "ringe": 7818,
      "Ġlegally": 7819,
      "Ġstatement": 7820,
      "Ġreceives": 7821,
      "cluding": 7822,
      "lvester": 7823,
      "Ġpussies": 7824,
      "Ġrecords": 7825,
      "Ġrecorded": 7826,
      "Ġperfectly": 7827,
      "Ġhospitalized": 7828,
      "ĠXbox": 7829,
      "Ġtastes": 7830,
      "Ġoccupation": 7831,
      "Ġbarely": 7832,
      "Ġfreezer": 7833,
      "Ġtattoos": 7834,
      "ENCE": 7835,
      "Sticks": 7836,
      "butt": 7837,
      "Ġturtle": 7838,
      "Ġpigs": 7839,
      "Ġparks": 7840,
      "Ġmedal": 7841,
      "Ġmedia": 7842,
      "Ġmedium": 7843,
      "ĠSnake": 7844,
      "ĠSnook": 7845,
      "Ġsplash": 7846,
      "Ġproduction": 7847,
      "Ġapprox": 7848,
      "Ġapproach": 7849,
      "Ġapproached": 7850,
      "Ġresponse": 7851,
      "Ġwheelie": 7852,
      "Ġincluded": 7853,
      "ĠIsland": 7854,
      "Ġvolume": 7855,
      "Ġsneezes": 7856,
      "Ġadding": 7857,
      "Ġwonders": 7858,
      "Ġwondered": 7859,
      "Ġwondering": 7860,
      "Ġcooked": 7861,
      "Ġpleasure": 7862,
      "Ġmodest": 7863,
      "Ġmodels": 7864,
      "Ġmodern": 7865,
      "Ġnuke": 7866,
      "Ġdosen": 7867,
      "ilingus": 7868,
      "Ġchanges": 7869,
      "Ġlevels": 7870,
      "Ġlearns": 7871,
      "ĠEverything": 7872,
      "ĠJackman": 7873,
      "Ġsupply": 7874,
      "Ġsupport": 7875,
      "Ġcontinued": 7876,
      "Ġskinned": 7877,
      "Ġsubmitted": 7878,
      "ARE": 7879,
      "Whoever": 7880,
      "housed": 7881,
      "Ġdoubles": 7882,
      "Ġdaddy": 7883,
      "Ġtoothbrush": 7884,
      "Ġrubber": 7885,
      "Ġrubbing": 7886,
      "ĠAmish": 7887,
      "Ġconfront": 7888,
      "Ġfreight": 7889,
      "Ġmainly": 7890,
      "Ġdecide": 7891,
      "ĠProf": 7892,
      "Ġfemin": 7893,
      "Ġnightmare": 7894,
      "Ġ1983": 7895,
      "fucker": 7896,
      "Ġmicheal": 7897,
      "Ġsprays": 7898,
      "Ġofficer": 7899,
      "Ġelephants": 7900,
      "Ġterrorist": 7901,
      "Ġterrorists": 7902,
      "prise": 7903,
      "Ġcardboard": 7904,
      "Ġpatient": 7905,
      "Ġpathetic": 7906,
      "Ġindig": 7907,
      "Ġindivid": 7908,
      "Ġlots": 7909,
      "Ġlottery": 7910,
      "Ġbells": 7911,
      "Ġbelly": 7912,
      "Ġwrestled": 7913,
      "Ġattending": 7914,
      "Ġbleeding": 7915,
      "Ġgeneral": 7916,
      "Ġgenerate": 7917,
      "Ġgenerous": 7918,
      "nedy": 7919,
      "Ġposted": 7920,
      "Ġposters": 7921,
      "ĠTrans": 7922,
      "ĠTrump": 7923,
      "ĠTruth": 7924,
      "ĠGuess": 7925,
      "Ġprobability": 7926,
      "Ġcompletely": 7927,
      "Ġshuttle": 7928,
      "Ġbilli": 7929,
      "Ġbillions": 7930,
      "Ġdepict": 7931,
      "Ġdeputy": 7932,
      "Ġfatality": 7933,
      "affle": 7934,
      "spot": 7935,
      "Ġdistance": 7936,
      "Ġjudges": 7937,
      "Ġsells": 7938,
      "Ġclaims": 7939,
      "Ġgrandfather": 7940,
      "Ġurinates": 7941,
      "Ġurinating": 7942,
      "Ġvacationing": 7943,
      "prints": 7944,
      "Ġpinky": 7945,
      "Ġlayer": 7946,
      "Ġbegins": 7947,
      "ĠTebow": 7948,
      "ĠTequila": 7949,
      "ĠBearing": 7950,
      "Ġdevelop": 7951,
      "Ġspinach": 7952,
      "Ġmeasured": 7953,
      "Ġswallowed": 7954,
      "Ġimmigr": 7955,
      "Ġbankrupt": 7956,
      "Ġthreatened": 7957,
      "ĠConan": 7958,
      "Ġdemocracy": 7959,
      "Ġblinking": 7960,
      "Ġbreathing": 7961,
      "Ġunderwater": 7962,
      "Ġfreshly": 7963,
      "Ġmasturbating": 7964,
      "***": 7965,
      "OME": 7966,
      "Ġcordless": 7967,
      "Ġfrog": 7968,
      "Ġpositive": 7969,
      "Ġejaculation": 7970,
      "ĠBEC": 7971,
      "ĠKnox": 7972,
      "Ġflavored": 7973,
      "THER": 7974,
      "Ġachieved": 7975,
      "Ġchunk": 7976,
      "Ġgargles": 7977,
      "Ġgarbage": 7978,
      "Ġlimit": 7979,
      "Ġsuffering": 7980,
      "Ġperformance": 7981,
      "Ġedit": 7982,
      "Ġsensitive": 7983,
      "Ġporno": 7984,
      "unnilingus": 7985,
      "ĠInde": 7986,
      "ĠIndian": 7987,
      "Ġshrink": 7988,
      "Ġshrimp": 7989,
      "Ġ1999": 7990,
      "ĠEdward": 7991,
      "Ġprofessional": 7992,
      "Ġsuggest": 7993,
      "Ġmemes": 7994,
      "rupted": 7995,
      "Ġsurfing": 7996,
      "Ġsurface": 7997,
      "Ġsurprise": 7998,
      "Ġsurprised": 7999,
      "Ġawarded": 8000,
      "Ġpermanently": 8001,
      "Ġautomatically": 8002,
      "Ġtoothpaste": 8003,
      "Ġrandomly": 8004,
      "Ġtornados": 8005,
      "Ġfolded": 8006,
      "rokeback": 8007,
      "Ġcandles": 8008,
      "Ġrevolve": 8009,
      "oooooooo": 8010,
      "ĠSandiego": 8011,
      "ĠWWCND": 8012,
      "ĠGermany": 8013,
      "Ġmotherfucking": 8014,
      "Ġopponent": 8015,
      "Ġencountered": 8016,
      "Black": 8017,
      "Bloody": 8018,
      "everyone": 8019,
      "Ġborrow": 8020,
      "Ġcases": 8021,
      "Ġnorth": 8022,
      "Ġraised": 8023,
      "Ġreaching": 8024,
      "ĠSHIT": 8025,
      "ĠSTILL": 8026,
      "ĠSylvester": 8027,
      "ĠSeconds": 8028,
      "ĠBuild": 8029,
      "ĠApocalypse": 8030,
      "Ġshocked": 8031,
      "Ġfairy": 8032,
      "Ġspectrum": 8033,
      "Ġspectacular": 8034,
      "ĠDepot": 8035,
      "ĠPeace": 8036,
      "ĠREAL": 8037,
      "Ġprovide": 8038,
      "Ġcollection": 8039,
      "ĠPlayboy": 8040,
      "Ġsatisf": 8041,
      "hhhhhhhhhhhhhhhh": 8042,
      "XXXXXXXX": 8043,
      "Ġchopstick": 8044,
      "America": 8045,
      "ltimate": 8046,
      "Ġticket": 8047,
      "Ġwilderness": 8048,
      "Ġbicep": 8049,
      "Ġflew": 8050,
      "ĠSmith": 8051,
      "ĠSkywalker": 8052,
      "Ġchocolate": 8053,
      "Ġchocolates": 8054,
      "Ġworship": 8055,
      "Ġworships": 8056,
      "Ġlegendary": 8057,
      "Ġcommercials": 8058,
      "Ġscratches": 8059,
      "Ġrecognized": 8060,
      "Ġpreferred": 8061,
      "Ġimplode": 8062,
      "ĠPlanet": 8063,
      "Ġskeleton": 8064,
      "Ġsymbol": 8065,
      "Ġowes": 8066,
      "Ġbusted": 8067,
      "ĠMei": 8068,
      "Ġshouted": 8069,
      "Ġlibraries": 8070,
      "ĠKatie": 8071,
      "Ġcomplain": 8072,
      "Ġcommented": 8073,
      "Ġbriefly": 8074,
      "Ġaccurate": 8075,
      "Ġdetermined": 8076,
      "ĠSquarePants": 8077,
      "Ġorphanages": 8078,
      "Apple": 8079,
      "Ġodds": 8080,
      "Ġfalse": 8081,
      "Ġfrag": 8082,
      "Ġpermission": 8083,
      "Ġmosquito": 8084,
      "Ġinsemin": 8085,
      "Ġnetwork": 8086,
      "Ġnurses": 8087,
      "Ġnipples": 8088,
      "Ġthreesome": 8089,
      "Ġevidence": 8090,
      "ĠSolo": 8091,
      "ĠBorg": 8092,
      "ĠMedusa": 8093,
      "Ġspontaneously": 8094,
      "ĠPotter": 8095,
      "ĠGreek": 8096,
      "uminati": 8097,
      "Ġvillage": 8098,
      "ĠKennedy": 8099,
      "ĠKentucky": 8100,
      "Ġlobster": 8101,
      "Ġsurrounded": 8102,
      "Ġgroup": 8103,
      "Ġgraduated": 8104,
      "Ġsneak": 8105,
      "Ġdisappear": 8106,
      "Ġpoetry": 8107,
      "Ġcannonball": 8108,
      "Ġapologize": 8109,
      "Ġcertainly": 8110,
      "Ġcrucified": 8111,
      "ĠSurvivor": 8112,
      "Ghosts": 8113,
      "Knock": 8114,
      "Police": 8115,
      "Team": 8116,
      "ghan": 8117,
      "works": 8118,
      "Ġozone": 8119,
      "Ġcousin": 8120,
      "Ġcubes": 8121,
      "Ġhopes": 8122,
      "Ġdrugs": 8123,
      "Ġpushu": 8124,
      "Ġemergency": 8125,
      "Ġeconomy": 8126,
      "Ġeternal": 8127,
      "Ġrussia": 8128,
      "ĠTaylor": 8129,
      "ĠSherman": 8130,
      "ĠBoogeyman": 8131,
      "ĠMexican": 8132,
      "ĠWatchmen": 8133,
      "ĠDaniels": 8134,
      "ĠFaith": 8135,
      "Ġalternate": 8136,
      "Ġvagina": 8137,
      "Ġconvention": 8138,
      "Ġtwelve": 8139,
      "Ġrecovery": 8140,
      "Ġdisguise": 8141,
      "osterone": 8142,
      "Ġglacier": 8143,
      "Ġcriminals": 8144,
      "Ġminiature": 8145,
      "Ġoblivion": 8146,
      "Ġdespite": 8147,
      "Ġdeserve": 8148,
      "Ġburrito": 8149,
      "chestra": 8150,
      "Ġappropriate": 8151,
      "Ġeruption": 8152,
      "Ġpurchased": 8153,
      "ĠEnterprise": 8154,
      "ĠBrazilian": 8155,
      "Ġtournament": 8156,
      "Lightning": 8157,
      "twice": 8158,
      "uhammad": 8159,
      "Ġtonsils": 8160,
      "Ġfictional": 8161,
      "Ġphenomen": 8162,
      "arctica": 8163,
      "Ġgathered": 8164,
      "Ġetc": 8165,
      "ĠBunny": 8166,
      "ĠBudweiser": 8167,
      "ĠMohammed": 8168,
      "ĠIlluminati": 8169,
      "Ġatmosphere": 8170,
      "Ġsharpen": 8171,
      "ĠWonder": 8172,
      "Ġlizard": 8173,
      "ĠDetroit": 8174,
      "ĠRaichu": 8175,
      "ĠRepublic": 8176,
      "ĠForever": 8177,
      "Ġallergic": 8178,
      "ĠOprah": 8179,
      "Ġexample": 8180,
      "Ġclouds": 8181,
      "Ġunexpected": 8182,
      "Ġweighs": 8183,
      "ĠChaplin": 8184,
      "ĠValley": 8185,
      "Ġtrademark": 8186,
      "Ġinformation": 8187,
      "clipse": 8188,
      "Ġrelationship": 8189,
      "Ġrepresent": 8190,
      "Ġdifficult": 8191,
      "Ġcopyright": 8192,
      "Ġanimatronics": 8193,
      "ĠFlorida": 8194,
      "Ġastronauts": 8195,
      "ĠHawaii": 8196,
      "ĠWilliams": 8197,
      "Ġabsolutely": 8198,
      "Ġcertificate": 8199,
      "Ġimaginary": 8200,
      "ĠSEALs": 8201,
      "President": 8202,
      "orillas": 8203,
      "Ġsheriff": 8204,
      "Ġbouquet": 8205,
      "Ġboulder": 8206,
      "Ġcotton": 8207,
      "Ġtomorrow": 8208,
      "Ġmouthed": 8209,
      "Ġreindeer": 8210,
      "Ġrevenge": 8211,
      "ĠHussein": 8212,
      "ĠHubbard": 8213,
      "ĠSahara": 8214,
      "chaeologists": 8215,
      "ĠBirthday": 8216,
      "ĠApril": 8217,
      "ĠMalkov": 8218,
      "ĠMorpheus": 8219,
      "ĠDisease": 8220,
      "ĠPompeii": 8221,
      "ĠRosie": 8222,
      "ĠRoosevelt": 8223,
      "ĠRamsay": 8224,
      "Ġvasectomy": 8225,
      "ĠElectric": 8226,
      "ĠEspurr": 8227,
      "ĠLimbaugh": 8228,
      "ivilization": 8229,
      "ĠKasparov": 8230,
      "ĠVatican": 8231,
      "Ġentertainment": 8232,
      "Ġamazement": 8233,
      "$$": 8234,
      "''.": 8235,
      "//": 8236,
      "06": 8237,
      "15": 8238,
      "43": 8239,
      "44": 8240,
      "46": 8241,
      "70": 8242,
      "75": 8243,
      "800": 8244,
      "98": 8245,
      "://": 8246,
      "?',": 8247,
      "AW": 8248,
      "Ant": 8249,
      "BB": 8250,
      "But": 8251,
      "Back": 8252,
      "Bang": 8253,
      "Bew": 8254,
      "BOD": 8255,
      "Brokeback": 8256,
      "CO": 8257,
      "Cr": 8258,
      "Car": 8259,
      "Cart": 8260,
      "Cong": 8261,
      "CID": 8262,
      "DC": 8263,
      "DE": 8264,
      "Dis": 8265,
      "Dra": 8266,
      "Due": 8267,
      "Depend": 8268,
      "El": 8269,
      "Ex": 8270,
      "Eminem": 8271,
      "Fact": 8272,
      "Facebook": 8273,
      "Fifty": 8274,
      "GG": 8275,
      "GH": 8276,
      "Gu": 8277,
      "Gir": 8278,
      "Gang": 8279,
      "Gadd": 8280,
      "Guns": 8281,
      "HA": 8282,
      "Hi": 8283,
      "Hell": 8284,
      "Here": 8285,
      "Hey": 8286,
      "Horses": 8287,
      "Happy": 8288,
      "Human": 8289,
      "IC": 8290,
      "Is": 8291,
      "Ice": 8292,
      "JFK": 8293,
      "KO": 8294,
      "Kick": 8295,
      "Kryptonite": 8296,
      "LF": 8297,
      "LP": 8298,
      "Lou": 8299,
      "Last": 8300,
      "List": 8301,
      "Lance": 8302,
      "Linds": 8303,
      "ME": 8304,
      "MV": 8305,
      "Mike": 8306,
      "Muff": 8307,
      "Miley": 8308,
      "Mickey": 8309,
      "Miche": 8310,
      "New": 8311,
      "OH": 8312,
      "OS": 8313,
      "OIN": 8314,
      "Pe": 8315,
      "Par": 8316,
      "Pop": 8317,
      "Peter": 8318,
      "Please": 8319,
      "Ray": 8320,
      "Rick": 8321,
      "Round": 8322,
      "Rome": 8323,
      "Rep": 8324,
      "RES": 8325,
      "SA": 8326,
      "She": 8327,
      "Som": 8328,
      "Sch": 8329,
      "Simply": 8330,
      "Sasquatch": 8331,
      "Spon": 8332,
      "Saddam": 8333,
      "TT": 8334,
      "Tim": 8335,
      "Tex": 8336,
      "Us": 8337,
      "Under": 8338,
      "UALLY": 8339,
      "Vida": 8340,
      "WA": 8341,
      "WN": 8342,
      "War": 8343,
      "World": 8344,
      "WAY": 8345,
      "Willy": 8346,
      "Wanna": 8347,
      "Welcome": 8348,
      "Yes": 8349,
      "arison": 8350,
      "ba": 8351,
      "bt": 8352,
      "bull": 8353,
      "bath": 8354,
      "bia": 8355,
      "bled": 8356,
      "bbing": 8357,
      "break": 8358,
      "birth": 8359,
      "bulb": 8360,
      "cd": 8361,
      "car": 8362,
      "cot": 8363,
      "cie": 8364,
      "cub": 8365,
      "cuts": 8366,
      "cised": 8367,
      "canic": 8368,
      "df": 8369,
      "den": 8370,
      "dom": 8371,
      "dogs": 8372,
      "eers": 8373,
      "equ": 8374,
      "even": 8375,
      "fed": 8376,
      "fes": 8377,
      "fall": 8378,
      "fist": 8379,
      "five": 8380,
      "fect": 8381,
      "field": 8382,
      "friend": 8383,
      "ga": 8384,
      "gm": 8385,
      "gas": 8386,
      "gir": 8387,
      "gth": 8388,
      "hg": 8389,
      "hi": 8390,
      "hm": 8391,
      "hw": 8392,
      "hit": 8393,
      "has": 8394,
      "hill": 8395,
      "ham": 8396,
      "hake": 8397,
      "hab": 8398,
      "hatt": 8399,
      "hips": 8400,
      "ih": 8401,
      "iors": 8402,
      "ikes": 8403,
      "ique": 8404,
      "jam": 8405,
      "joke": 8406,
      "ku": 8407,
      "kers": 8408,
      "kip": 8409,
      "kins": 8410,
      "lb": 8411,
      "last": 8412,
      "lord": 8413,
      "lav": 8414,
      "mbs": 8415,
      "mission": 8416,
      "mobile": 8417,
      "na": 8418,
      "nu": 8419,
      "nie": 8420,
      "ners": 8421,
      "oor": 8422,
      "oons": 8423,
      "oci": 8424,
      "oads": 8425,
      "oices": 8426,
      "pm": 8427,
      "por": 8428,
      "pin": 8429,
      "pat": 8430,
      "pid": 8431,
      "pop": 8432,
      "pain": 8433,
      "pies": 8434,
      "pull": 8435,
      "pass": 8436,
      "pect": 8437,
      "park": 8438,
      "pose": 8439,
      "passed": 8440,
      "piration": 8441,
      "pockets": 8442,
      "rs": 8443,
      "rris": 8444,
      "rad": 8445,
      "rough": 8446,
      "roud": 8447,
      "rieve": 8448,
      "sie": 8449,
      "shed": 8450,
      "size": 8451,
      "skin": 8452,
      "said": 8453,
      "tp": 8454,
      "tain": 8455,
      "thed": 8456,
      "tons": 8457,
      "tanium": 8458,
      "uk": 8459,
      "uum": 8460,
      "uence": 8461,
      "ucc": 8462,
      "vl": 8463,
      "vir": 8464,
      "vest": 8465,
      "vard": 8466,
      "vious": 8467,
      "viously": 8468,
      "vatar": 8469,
      "wa": 8470,
      "ww": 8471,
      "will": 8472,
      "wart": 8473,
      "wich": 8474,
      "wage": 8475,
      "wait": 8476,
      "wolf": 8477,
      "wrest": 8478,
      "wearing": 8479,
      "yer": 8480,
      "yes": 8481,
      "yond": 8482,
      "ysters": 8483,
      "zens": 8484,
      "Ġ)": 8485,
      "Ġes": 8486,
      "Ġ!!": 8487,
      "Ġ!!!!!!!!": 8488,
      "Ġ.....": 8489,
      "ising": 8490,
      "isen": 8491,
      "isible": 8492,
      "Ġtro": 8493,
      "Ġtus": 8494,
      "Ġtore": 8495,
      "Ġtang": 8496,
      "Ġtip": 8497,
      "Ġtiss": 8498,
      "Ġtails": 8499,
      "Ġtanks": 8500,
      "Ġtroll": 8501,
      "Ġtalent": 8502,
      "Ġtarant": 8503,
      "Ġtsun": 8504,
      "Ġtsunami": 8505,
      "Ġtuna": 8506,
      "orke": 8507,
      "oration": 8508,
      "ormed": 8509,
      "orious": 8510,
      "hell": 8511,
      "heard": 8512,
      "herom": 8513,
      "heart": 8514,
      "heaties": 8515,
      "Ġara": 8516,
      "Ġaqu": 8517,
      "Ġape": 8518,
      "Ġaids": 8519,
      "ĠNet": 8520,
      "ĠNight": 8521,
      "ĠNess": 8522,
      "ĠNative": 8523,
      "ĠNights": 8524,
      "ĠNuke": 8525,
      "ĠNBA": 8526,
      "ĠNBC": 8527,
      "ĠNiagara": 8528,
      "ĠNorrised": 8529,
      "inally": 8530,
      "inos": 8531,
      "inness": 8532,
      "inux": 8533,
      "including": 8534,
      "Ġwre": 8535,
      "Ġwing": 8536,
      "Ġwow": 8537,
      "Ġwal": 8538,
      "Ġwid": 8539,
      "Ġwra": 8540,
      "Ġwil": 8541,
      "Ġwang": 8542,
      "Ġwaking": 8543,
      "Ġwrench": 8544,
      "Ġwaldo": 8545,
      "Ġwaffle": 8546,
      "Ġsig": 8547,
      "Ġsust": 8548,
      "Ġsush": 8549,
      "Ġsamp": 8550,
      "Ġsins": 8551,
      "Ġsacks": 8552,
      "Ġsaun": 8553,
      "Ġsadly": 8554,
      "Ġsumm": 8555,
      "Ġoat": 8556,
      "Ġosc": 8557,
      "Ġoption": 8558,
      "Ġtheor": 8559,
      "Ġtheater": 8560,
      "erb": 8561,
      "erv": 8562,
      "erris": 8563,
      "erals": 8564,
      "Ġbart": 8565,
      "Ġbail": 8566,
      "Ġbands": 8567,
      "Ġbiol": 8568,
      "Ġboun": 8569,
      "Ġbapt": 8570,
      "Ġbanks": 8571,
      "Ġbicycle": 8572,
      "Ġbounced": 8573,
      "Ġbulb": 8574,
      "Ġbastard": 8575,
      "Ġberries": 8576,
      "Ġbazook": 8577,
      "Ġcone": 8578,
      "Ġcher": 8579,
      "Ġcri": 8580,
      "Ġcact": 8581,
      "Ġcalf": 8582,
      "Ġcycle": 8583,
      "Ġcounter": 8584,
      "Ġcyan": 8585,
      "Ġcamer": 8586,
      "Ġctrl": 8587,
      "Ġcateg": 8588,
      "Ġcivilization": 8589,
      "Ġhal": 8590,
      "Ġhip": 8591,
      "Ġhire": 8592,
      "Ġhors": 8593,
      "Ġhalo": 8594,
      "Ġhickey": 8595,
      "Ġhaunt": 8596,
      "anorm": 8597,
      "animal": 8598,
      "anberries": 8599,
      "ĠChuckmas": 8600,
      "edi": 8601,
      "eskin": 8602,
      "Ġft": 8603,
      "Ġfu": 8604,
      "Ġfol": 8605,
      "Ġfurn": 8606,
      "Ġfountain": 8607,
      "aty": 8608,
      "atoo": 8609,
      "atus": 8610,
      "atric": 8611,
      "itimate": 8612,
      "itials": 8613,
      "ituation": 8614,
      "itchen": 8615,
      "reg": 8616,
      "rey": 8617,
      "rell": 8618,
      "reads": 8619,
      "Ġdand": 8620,
      "Ġdust": 8621,
      "Ġdice": 8622,
      "Ġdub": 8623,
      "Ġdys": 8624,
      "Ġdating": 8625,
      "Ġdial": 8626,
      "Ġdunk": 8627,
      "Ġdirt": 8628,
      "Ġdarts": 8629,
      "lle": 8630,
      "oni": 8631,
      "onet": 8632,
      "onio": 8633,
      "onads": 8634,
      "onosc": 8635,
      "Ġpor": 8636,
      "Ġpoo": 8637,
      "Ġpers": 8638,
      "Ġpond": 8639,
      "Ġpint": 8640,
      "Ġpale": 8641,
      "Ġpitch": 8642,
      "Ġpacks": 8643,
      "Ġpaul": 8644,
      "Ġpredator": 8645,
      "Ġpoop": 8646,
      "Ġpanda": 8647,
      "Ġpistol": 8648,
      "Ġpaused": 8649,
      "Ġpherom": 8650,
      "asp": 8651,
      "asman": 8652,
      "asco": 8653,
      "asitic": 8654,
      "Ġtob": 8655,
      "Ġtoys": 8656,
      "Ġtoss": 8657,
      "arc": 8658,
      "arms": 8659,
      "enas": 8660,
      "enos": 8661,
      "engers": 8662,
      "enbur": 8663,
      "Ġmc": 8664,
      "Ġmal": 8665,
      "Ġmol": 8666,
      "Ġmort": 8667,
      "Ġmint": 8668,
      "Ġmike": 8669,
      "Ġmama": 8670,
      "Ġmunch": 8671,
      "Ġinh": 8672,
      "Ġinde": 8673,
      "Ġinitials": 8674,
      "lets": 8675,
      "Ġonline": 8676,
      "Ġge": 8677,
      "Ġgent": 8678,
      "Ġgif": 8679,
      "Ġgest": 8680,
      "Ġgol": 8681,
      "Ġgate": 8682,
      "Ġgoug": 8683,
      "Ġgru": 8684,
      "Ġgoose": 8685,
      "Ġgained": 8686,
      "Ġghet": 8687,
      "Ġgulf": 8688,
      "Ġgrip": 8689,
      "Ġgonads": 8690,
      "Ġheel": 8691,
      "Ġheav": 8692,
      "Ġnoo": 8693,
      "Ġnest": 8694,
      "Ġnation": 8695,
      "Ġnav": 8696,
      "Ġnative": 8697,
      "Ġnasal": 8698,
      "Ġlack": 8699,
      "Ġlake": 8700,
      "Ġlite": 8701,
      "Ġlimp": 8702,
      "Ġlapped": 8703,
      "Ġlying": 8704,
      "Ġlaid": 8705,
      "Ġloop": 8706,
      "Ġlighter": 8707,
      "Ġlumber": 8708,
      "Ġlenses": 8709,
      "Ġyog": 8710,
      "Ġbees": 8711,
      "Ġbeam": 8712,
      "Ġbeak": 8713,
      "Ġbeast": 8714,
      "Ġbeater": 8715,
      "Ġbeyond": 8716,
      "see": 8717,
      "selling": 8718,
      "Ġisnt": 8719,
      "Ġislands": 8720,
      "Ġthin": 8721,
      "Ġthri": 8722,
      "Ġthirty": 8723,
      "Ġkat": 8724,
      "Ġkil": 8725,
      "Ġkitt": 8726,
      "Ġkung": 8727,
      "Ġkryptonite": 8728,
      "rod": 8729,
      "rog": 8730,
      "roh": 8731,
      "rown": 8732,
      "roding": 8733,
      "roaches": 8734,
      "Ġender": 8735,
      "Ġeaster": 8736,
      "Ġevis": 8737,
      "Ġelder": 8738,
      "Ġeclipse": 8739,
      "Ġyounger": 8740,
      "imer": 8741,
      "imid": 8742,
      "imil": 8743,
      "otive": 8744,
      "owers": 8745,
      "alan": 8746,
      "always": 8747,
      "albo": 8748,
      "alcon": 8749,
      "ayed": 8750,
      "adise": 8751,
      "adition": 8752,
      "uted": 8753,
      "utra": 8754,
      "utus": 8755,
      "uther": 8756,
      "utions": 8757,
      "Ġrout": 8758,
      "Ġrank": 8759,
      "Ġriver": 8760,
      "Ġrapp": 8761,
      "Ġrattle": 8762,
      "Ġridden": 8763,
      "Ġrivet": 8764,
      "verment": 8765,
      "star": 8766,
      "stal": 8767,
      "stars": 8768,
      "step": 8769,
      "stance": 8770,
      "stances": 8771,
      "stroph": 8772,
      "idal": 8773,
      "idays": 8774,
      "iderman": 8775,
      "oman": 8776,
      "etch": 8777,
      "etary": 8778,
      "ĠTA": 8779,
      "ĠTW": 8780,
      "ĠTra": 8781,
      "ĠTest": 8782,
      "ĠTop": 8783,
      "ĠTrue": 8784,
      "ĠTEA": 8785,
      "ĠTalent": 8786,
      "ĠTsunami": 8787,
      "ĠTELL": 8788,
      "ĠTasman": 8789,
      "illes": 8790,
      "amo": 8791,
      "amma": 8792,
      "Ġitem": 8793,
      "entures": 8794,
      "entially": 8795,
      "entials": 8796,
      "icar": 8797,
      "icap": 8798,
      "icist": 8799,
      "icine": 8800,
      "icious": 8801,
      "icense": 8802,
      "icipal": 8803,
      "icked": 8804,
      "iggy": 8805,
      "allica": 8806,
      "henge": 8807,
      "Ġsting": 8808,
      "Ġstack": 8809,
      "Ġstalk": 8810,
      "Ġstee": 8811,
      "Ġstated": 8812,
      "Ġsticks": 8813,
      "Ġstret": 8814,
      "Ġstaple": 8815,
      "Ġdozens": 8816,
      "irao": 8817,
      "Ġforeskin": 8818,
      "Ġreaches": 8819,
      "Ġrejected": 8820,
      "Ġrehab": 8821,
      "ctum": 8822,
      "ĠHad": 8823,
      "ĠHard": 8824,
      "ĠHum": 8825,
      "ĠHood": 8826,
      "ĠHere": 8827,
      "ĠHorn": 8828,
      "ĠHence": 8829,
      "ĠHates": 8830,
      "ĠHalf": 8831,
      "ĠHOU": 8832,
      "ĠHospital": 8833,
      "ĠHai": 8834,
      "ĠHours": 8835,
      "ĠHedge": 8836,
      "oops": 8837,
      "ĠSC": 8838,
      "ĠSE": 8839,
      "ĠSQ": 8840,
      "ĠSk": 8841,
      "ĠSu": 8842,
      "ĠSou": 8843,
      "ĠSat": 8844,
      "ĠSter": 8845,
      "ĠSab": 8846,
      "ĠSimply": 8847,
      "ĠSpe": 8848,
      "ĠSchool": 8849,
      "ĠScra": 8850,
      "ĠSadly": 8851,
      "ĠSleep": 8852,
      "ĠSesame": 8853,
      "ĠSarah": 8854,
      "ĠSOME": 8855,
      "ĠSituation": 8856,
      "ĠSutra": 8857,
      "Ġthats": 8858,
      "Ġwhore": 8859,
      "kee": 8860,
      "keys": 8861,
      "keep": 8862,
      "Ġanaconda": 8863,
      "auds": 8864,
      "ching": 8865,
      "chair": 8866,
      "change": 8867,
      "ĠBA": 8868,
      "ĠBer": 8869,
      "ĠBay": 8870,
      "ĠBack": 8871,
      "ĠBond": 8872,
      "ĠBears": 8873,
      "ĠBost": 8874,
      "ĠBey": 8875,
      "ĠBever": 8876,
      "ĠBoss": 8877,
      "ĠBEA": 8878,
      "ĠBillion": 8879,
      "ĠBIT": 8880,
      "ĠBuff": 8881,
      "ĠBoe": 8882,
      "ĠBerry": 8883,
      "ĠBAM": 8884,
      "ĠBreak": 8885,
      "ĠBACK": 8886,
      "ĠBoom": 8887,
      "ĠBOX": 8888,
      "ĠBono": 8889,
      "ĠBirds": 8890,
      "ĠBalbo": 8891,
      "uric": 8892,
      "urity": 8893,
      "urassic": 8894,
      "terly": 8895,
      "ĠAge": 8896,
      "ĠAng": 8897,
      "ĠAmy": 8898,
      "ĠAward": 8899,
      "ĠAuto": 8900,
      "ĠANY": 8901,
      "ĠCD": 8902,
      "ĠCris": 8903,
      "ĠCro": 8904,
      "ĠCap": 8905,
      "ĠCater": 8906,
      "ĠCost": 8907,
      "ĠColl": 8908,
      "ĠConn": 8909,
      "ĠCarr": 8910,
      "ĠCobra": 8911,
      "ĠCOM": 8912,
      "ĠCOP": 8913,
      "ĠCamer": 8914,
      "ĠCtrl": 8915,
      "ĠCOULD": 8916,
      "unity": 8917,
      "unks": 8918,
      "unts": 8919,
      "Ġjr": 8920,
      "Ġjac": 8921,
      "Ġjew": 8922,
      "Ġjug": 8923,
      "Ġjoust": 8924,
      "Ġjeep": 8925,
      "Ġjourney": 8926,
      "rac": 8927,
      "ifies": 8928,
      "ifix": 8929,
      "ĠMP": 8930,
      "ĠMY": 8931,
      "ĠMi": 8932,
      "ĠMorris": 8933,
      "ĠMom": 8934,
      "ĠMouse": 8935,
      "ĠMess": 8936,
      "ĠMark": 8937,
      "ĠMachine": 8938,
      "ĠMAY": 8939,
      "ĠMOT": 8940,
      "ĠMMA": 8941,
      "ĠMiche": 8942,
      "ĠMoses": 8943,
      "ĠMuffet": 8944,
      "ĠMyspace": 8945,
      "ĠID": 8946,
      "ĠIE": 8947,
      "ĠIP": 8948,
      "ĠIND": 8949,
      "ĠIrish": 8950,
      "estyle": 8951,
      "ilight": 8952,
      "ilia": 8953,
      "Ġatoms": 8954,
      "Ġsection": 8955,
      "Ġsevered": 8956,
      "Ġsegf": 8957,
      "Ġseperate": 8958,
      "Ġsewage": 8959,
      "opard": 8960,
      "opper": 8961,
      "Ġshaved": 8962,
      "iev": 8963,
      "ieving": 8964,
      "ieght": 8965,
      "Ġneut": 8966,
      "Ġnephe": 8967,
      "Ġroundhose": 8968,
      "ĠWis": 8969,
      "ĠWow": 8970,
      "ĠWind": 8971,
      "ĠWise": 8972,
      "ĠWAN": 8973,
      "ĠWAT": 8974,
      "ĠWOR": 8975,
      "ĠWik": 8976,
      "ĠWeston": 8977,
      "Ġdelete": 8978,
      "Ġdehyd": 8979,
      "anded": 8980,
      "Ġfake": 8981,
      "Ġfainted": 8982,
      "ardo": 8983,
      "ighted": 8984,
      "ighting": 8985,
      "odge": 8986,
      "usted": 8987,
      "ustri": 8988,
      "ppy": 8989,
      "olen": 8990,
      "olves": 8991,
      "olerant": 8992,
      "Ġchi": 8993,
      "Ġchant": 8994,
      "Ġchances": 8995,
      "Ġchinese": 8996,
      "Ġchili": 8997,
      "Ġchampionship": 8998,
      "Ġchipper": 8999,
      "Ġchosen": 9000,
      "Ġspam": 9001,
      "Ġspear": 9002,
      "Ġspice": 9003,
      "Ġspears": 9004,
      "Ġspoke": 9005,
      "Ġspilt": 9006,
      "Ġspring": 9007,
      "Ġsponge": 9008,
      "Ġspicy": 9009,
      "Ġlied": 9010,
      "Ġliver": 9011,
      "ĠHex": 9012,
      "ĠHeart": 9013,
      "ĠDE": 9014,
      "ĠDQ": 9015,
      "ĠDa": 9016,
      "ĠDes": 9017,
      "ĠDid": 9018,
      "ĠDie": 9019,
      "ĠDown": 9020,
      "ĠDave": 9021,
      "ĠDEA": 9022,
      "ĠDuty": 9023,
      "ĠDentist": 9024,
      "ĠDavid": 9025,
      "ĠDolph": 9026,
      "ĠDMV": 9027,
      "ĠPu": 9028,
      "ĠPy": 9029,
      "ĠPit": 9030,
      "ĠPil": 9031,
      "ĠPack": 9032,
      "ĠPie": 9033,
      "ĠProm": 9034,
      "ĠPak": 9035,
      "ĠPel": 9036,
      "ĠPict": 9037,
      "ĠPaper": 9038,
      "ĠProte": 9039,
      "ĠPeb": 9040,
      "ĠPisa": 9041,
      "antity": 9042,
      "ĠGO": 9043,
      "ĠGR": 9044,
      "ĠGun": 9045,
      "ĠGate": 9046,
      "ĠGene": 9047,
      "ĠGlock": 9048,
      "ĠGarry": 9049,
      "ĠGrizz": 9050,
      "ĠGOT": 9051,
      "ĠGrylls": 9052,
      "ĠGrey": 9053,
      "akers": 9054,
      "riot": 9055,
      "river": 9056,
      "riage": 9057,
      "riors": 9058,
      "ribut": 9059,
      "Ġsocial": 9060,
      "Ġsoaked": 9061,
      "Ġsoviet": 9062,
      "Ġplain": 9063,
      "Ġplates": 9064,
      "Ġplatter": 9065,
      "ĠRE": 9066,
      "ĠRO": 9067,
      "ĠRum": 9068,
      "ĠRice": 9069,
      "ĠRage": 9070,
      "ĠRUN": 9071,
      "ĠRunning": 9072,
      "ĠRanch": 9073,
      "ĠRIGHT": 9074,
      "ĠReno": 9075,
      "ĠROUND": 9076,
      "ĠRoyal": 9077,
      "Ġworm": 9078,
      "esses": 9079,
      "essert": 9080,
      "apar": 9081,
      "Ġwilling": 9082,
      "Ġleak": 9083,
      "Ġlending": 9084,
      "Ġlevit": 9085,
      "Ġleaning": 9086,
      "Ġlearning": 9087,
      "Ġlepre": 9088,
      "ĠFle": 9089,
      "ĠFly": 9090,
      "ĠFood": 9091,
      "ĠFist": 9092,
      "ĠFire": 9093,
      "ĠFab": 9094,
      "ĠFace": 9095,
      "ĠFool": 9096,
      "ĠFried": 9097,
      "ĠFox": 9098,
      "ĠFinal": 9099,
      "ĠFalcon": 9100,
      "Ġarent": 9101,
      "Ġmanhole": 9102,
      "Ġalarm": 9103,
      "ainst": 9104,
      "Ġupd": 9105,
      "Ġupset": 9106,
      "Ġoral": 9107,
      "Ġorig": 9108,
      "Ġorgy": 9109,
      "Ġorchestra": 9110,
      "eless": 9111,
      "eline": 9112,
      "elia": 9113,
      "elope": 9114,
      "Ġvap": 9115,
      "Ġvice": 9116,
      "Ġvoll": 9117,
      "Ġvests": 9118,
      "Ġviking": 9119,
      "Ġvarious": 9120,
      "Ġvocal": 9121,
      "quiliz": 9122,
      "asted": 9123,
      "osi": 9124,
      "osphere": 9125,
      "ĠOR": 9126,
      "ĠOre": 9127,
      "ĠOUT": 9128,
      "ulated": 9129,
      "ulpt": 9130,
      "ĠEN": 9131,
      "ĠER": 9132,
      "ĠEnd": 9133,
      "ĠEle": 9134,
      "ĠEmer": 9135,
      "ĠEating": 9136,
      "ĠEvil": 9137,
      "ĠEAT": 9138,
      "ĠEbol": 9139,
      "ĠJon": 9140,
      "ĠJet": 9141,
      "ĠJac": 9142,
      "ĠJong": 9143,
      "ĠJere": 9144,
      "ĠJason": 9145,
      "ĠJose": 9146,
      "ĠJew": 9147,
      "ĠJimi": 9148,
      "ĠJudge": 9149,
      "ĠLes": 9150,
      "ĠLay": 9151,
      "ĠLet": 9152,
      "ĠLent": 9153,
      "ĠLuck": 9154,
      "ĠLook": 9155,
      "ĠLect": 9156,
      "ĠLeth": 9157,
      "ĠLew": 9158,
      "ĠLib": 9159,
      "ĠLady": 9160,
      "ĠLOO": 9161,
      "ĠLOL": 9162,
      "ĠLisa": 9163,
      "ĠLohan": 9164,
      "ĠLIFE": 9165,
      "Ġpepper": 9166,
      "Ġexit": 9167,
      "Ġsaving": 9168,
      "istur": 9169,
      "Ġblame": 9170,
      "Ġmold": 9171,
      "Ġmoons": 9172,
      "acle": 9173,
      "acation": 9174,
      "acca": 9175,
      "ĠKard": 9176,
      "ĠKore": 9177,
      "ĠKama": 9178,
      "ĠKirby": 9179,
      "ĠKansas": 9180,
      "Ġconvin": 9181,
      "Ġconvert": 9182,
      "Ġconsequ": 9183,
      "Ġhadn": 9184,
      "Ġrose": 9185,
      "Ġ26": 9186,
      "Ġ29": 9187,
      "Ġ2000": 9188,
      "Ġcomfort": 9189,
      "ullen": 9190,
      "agger": 9191,
      "tempt": 9192,
      "tember": 9193,
      "Ġprop": 9194,
      "Ġscope": 9195,
      "Ġscramble": 9196,
      "Ġsculpt": 9197,
      "Ġsued": 9198,
      "Ġwhose": 9199,
      "inky": 9200,
      "inking": 9201,
      "inkles": 9202,
      "anged": 9203,
      "angled": 9204,
      "Ġeverytime": 9205,
      "Ġclap": 9206,
      "Ġclaw": 9207,
      "Ġclaps": 9208,
      "Ġcloned": 9209,
      "Ġclamps": 9210,
      "Ġnevers": 9211,
      "Ġassed": 9212,
      "Ġasses": 9213,
      "Ġassult": 9214,
      "Ġassault": 9215,
      "Ġassoci": 9216,
      "Ġabacus": 9217,
      "Ġoffer": 9218,
      "Ġoffering": 9219,
      "Ġarmed": 9220,
      "Ġarmor": 9221,
      "Ġarchaeologists": 9222,
      "ipt": 9223,
      "iping": 9224,
      "Ġanyways": 9225,
      "orning": 9226,
      "Ġloan": 9227,
      "Ġtwist": 9228,
      "Ġtwins": 9229,
      "Ġtwisting": 9230,
      "Ġtech": 9231,
      "ĠNOBOD": 9232,
      "Ġhug": 9233,
      "perm": 9234,
      "perience": 9235,
      "obi": 9236,
      "Ġoverall": 9237,
      "reeze": 9238,
      "Ġunz": 9239,
      "Ġunbel": 9240,
      "!!!!!": 9241,
      "aber": 9242,
      "ĠThings": 9243,
      "Ġ38": 9244,
      "Ġwhats": 9245,
      "Ġenvel": 9246,
      "Ġenfor": 9247,
      "Ġsmold": 9248,
      "Ġsmug": 9249,
      "Ġsmoked": 9250,
      "Ġsmashes": 9251,
      "Ġsmooth": 9252,
      "Ġslang": 9253,
      "Ġslipped": 9254,
      "Ġslaps": 9255,
      "Ġslaves": 9256,
      "Ġslinky": 9257,
      "Ġdownload": 9258,
      "Ġdownloaded": 9259,
      "Ġfeature": 9260,
      "Ġfeatures": 9261,
      "Ġafterbirth": 9262,
      "ĠUr": 9263,
      "ĠUses": 9264,
      "ĠUNO": 9265,
      "ĠUzi": 9266,
      "Ġcoz": 9267,
      "Ġcoin": 9268,
      "Ġcoke": 9269,
      "Ġcoach": 9270,
      "Ġcoins": 9271,
      "Ġcovers": 9272,
      "Ġwerewolf": 9273,
      "Ġfled": 9274,
      "Ġflood": 9275,
      "Ġflinch": 9276,
      "Ġflicked": 9277,
      "Ġsomewhere": 9278,
      "ĠItaly": 9279,
      "place": 9280,
      "Ġrecieved": 9281,
      "Ġrecieving": 9282,
      "ĠChick": 9283,
      "ĠChip": 9284,
      "ĠChamber": 9285,
      "Ġswear": 9286,
      "Ġswiss": 9287,
      "Ġswoll": 9288,
      "Ġcreates": 9289,
      "Ġwont": 9290,
      "ĠVen": 9291,
      "ĠVold": 9292,
      "ĠVII": 9293,
      "Ġtrust": 9294,
      "Ġtrash": 9295,
      "Ġtricks": 9296,
      "Ġtrims": 9297,
      "Ġtresp": 9298,
      "Ġtrouble": 9299,
      "Ġtradition": 9300,
      "redited": 9301,
      "reddie": 9302,
      "ĠYet": 9303,
      "ĠYeah": 9304,
      "ĠYoutube": 9305,
      "hoe": 9306,
      "hold": 9307,
      "Ġ59": 9308,
      "Ġ565": 9309,
      "Ġturning": 9310,
      "Ġhandedly": 9311,
      "Ġacce": 9312,
      "Ġacademy": 9313,
      "Ġages": 9314,
      "Ġbets": 9315,
      "Ġcarp": 9316,
      "Ġcaring": 9317,
      "Ġcarved": 9318,
      "Ġcarbon": 9319,
      "Ġbeards": 9320,
      "Ġdram": 9321,
      "Ġgram": 9322,
      "Ġgranted": 9323,
      "ggie": 9324,
      "ggers": 9325,
      "Ġchef": 9326,
      "Ġcheek": 9327,
      "ysis": 9328,
      "yser": 9329,
      "ysicists": 9330,
      "exc": 9331,
      "Ġherd": 9332,
      "Ġthrust": 9333,
      "Ġguarant": 9334,
      "Ġguitars": 9335,
      "Ġhose": 9336,
      "Ġholy": 9337,
      "Ġapplic": 9338,
      "Ġapparent": 9339,
      "ĠStadium": 9340,
      "ĠStairway": 9341,
      "Ġthroughout": 9342,
      "Ġfrat": 9343,
      "Ġfrieght": 9344,
      "awan": 9345,
      "awumb": 9346,
      "active": 9347,
      "Ġspecific": 9348,
      "Ġquote": 9349,
      "Ġqueer": 9350,
      "Ġquantity": 9351,
      "Ġsnatch": 9352,
      "Ġsnaps": 9353,
      "Ġsnorts": 9354,
      "Ġsnorke": 9355,
      "eptember": 9356,
      "Ġski": 9357,
      "Ġskips": 9358,
      "Ġskunk": 9359,
      "phor": 9360,
      "phony": 9361,
      "Ġbright": 9362,
      "Ġbridge": 9363,
      "iable": 9364,
      "Ġbuis": 9365,
      "Ġbuzz": 9366,
      "Ġprint": 9367,
      "Ġproud": 9368,
      "Ġprinc": 9369,
      "emin": 9370,
      "emort": 9371,
      "employ": 9372,
      "Ġdisl": 9373,
      "Ġcompris": 9374,
      "Ġcompile": 9375,
      "Ġcomposed": 9376,
      "Ġcomparison": 9377,
      "Ġwatermel": 9378,
      "Ġsexy": 9379,
[...]
