{
  "version": "1.0",
  "truncation": null,
  "padding": null,
  "added_tokens": [
    {
      "id": 0,
      "content": "<|endoftext|>",
      "single_word": false,
      "lstrip": false,
      "rstrip": false,
      "normalized": false,
      "special": true
    }
  ],
  "normalizer": null,
  "pre_tokenizer": {
    "type": "ByteLevel",
    "add_prefix_space": false,
    "trim_offsets": true,
    "use_regex": true
  },
  "post_processor": {
    "type": "ByteLevel",
    "add_prefix_space": true,
    "trim_offsets": false,
    "use_regex": true
  },
  "decoder": {
    "type": "ByteLevel",
    "add_prefix_space": true,
    "trim_offsets": true,
    "use_regex": true
  },
  "model": {
    "type": "BPE",
    "dropout": null,
    "unk_token": null,
    "continuing_subword_prefix": null,
    "end_of_word_suffix": null,
    "fuse_unk": false,
    "byte_fallback": false,
    "vocab": {
      "<|endoftext|>": 0,
      "!": 1,
      "'": 2,
      ",": 3,
      "-": 4,
      ".": 5,
      ":": 6,
      ";": 7,
      "?": 8,
      "A": 9,
      "B": 10,
      "C": 11,
      "D": 12,
      "E": 13,
      "F": 14,
      "G": 15,
      "H": 16,
      "I": 17,
      "J": 18,
      "K": 19,
      "L": 20,
      "M": 21,
      "N": 22,
      "O": 23,
      "P": 24,
      "Q": 25,
      "R": 26,
      "S": 27,
      "T": 28,
      "U": 29,
      "V": 30,
      "W": 31,
      "X": 32,
      "Y": 33,
      "Z": 34,
      "a": 35,
      "b": 36,
      "c": 37,
      "d": 38,
      "e": 39,
      "f": 40,
      "g": 41,
      "h": 42,
      "i": 43,
      "j": 44,
      "k": 45,
      "l": 46,
      "m": 47,
      "n": 48,
      "o": 49,
      "p": 50,
      "q": 51,
      "r": 52,
      "s": 53,
      "t": 54,
      "u": 55,
      "v": 56,
      "w": 57,
      "x": 58,
      "y": 59,
      "z": 60,
      "Ċ": 61,
      "č": 62,
      "Ġ": 63,
      "čĊ": 64,
      "Ġt": 65,
      "he": 66,
      "Ġa": 67,
      "ou": 68,
      "Ġs": 69,
      "Ġm": 70,
      "in": 71,
      "Ġw": 72,
      "re": 73,
      "ha": 74,
      "nd": 75,
      "Ġthe": 76,
      "Ġb": 77,
      "is": 78,
      "or": 79,
      "Ġf": 80,
      "er": 81,
      "ll": 82,
      "it": 83,
      "on": 84,
      "Ġd": 85,
      "Ġc": 86,
      "es": 87,
      "en": 88,
      "Ġn": 89,
      "Ġl": 90,
      "Ġy": 91,
      "Ġth": 92,
      "ar": 93,
      "Ġh": 94,
      "Ġo": 95,
      "Ġto": 96,
      "Ġyou": 97,
      "Ġp": 98,
      "hat": 99,
      "ĠI": 100,
      "Ġhe": 101,
      "ve": 102,
      "ot": 103,
      "st": 104,
      "Ġand": 105,
      "ow": 106,
      "ing": 107,
      "an": 108,
      "Ġof": 109,
      "om": 110,
      "Ġg": 111,
      "at": 112,
      "Ġbe": 113,
      "se": 114,
      "Ġmy": 115,
      "Ġin": 116,
      "ce": 117,
      "Ġha": 118,
      "le": 119,
      "ay": 120,
      "ld": 121,
      "ir": 122,
      "et": 123,
      "ed": 124,
      "ut": 125,
      "Ġme": 126,
      "im": 127,
      "ith": 128,
      "'s": 129,
      "Ġnot": 130,
      "ch": 131,
      "Ġthat": 132,
      "Ġis": 133,
      "gh": 134,
      "And": 135,
      "Ġfor": 136,
      "ke": 137,
      "Ġu": 138,
      "our": 139,
      "Ġwe": 140,
      "oo": 141,
      "ill": 142,
      "Ġe": 143,
      "her": 144,
      "Ġwith": 145,
      "ent": 146,
      "Ġit": 147,
      "Ġyour": 148,
      "ad": 149,
      "ri": 150,
      "Ġthou": 151,
      "Ġst": 152,
      "'d": 153,
      "Ġk": 154,
      "ome": 155,
      "Ġhis": 156,
      "ght": 157,
      "ord": 158,
      "id": 159,
      "The": 160,
      "as": 161,
      "EN": 162,
      "Ġre": 163,
      "Ġhave": 164,
      "ly": 165,
      "ra": 166,
      "Ġli": 167,
      "Ġhim": 168,
      "IN": 169,
      "ur": 170,
      "Ġthis": 171,
      "al": 172,
      "IO": 173,
      "Ġso": 174,
      "Ġas": 175,
      "Ġde": 176,
      "Ġon": 177,
      "ore": 178,
      "ro": 179,
      "AR": 180,
      "hi": 181,
      "ould": 182,
      "ood": 183,
      "ck": 184,
      "ain": 185,
      "ver": 186,
      "est": 187,
      "Ġthy": 188,
      "Ġsha": 189,
      "ess": 190,
      "ea": 191,
      "Ġdo": 192,
      "Ġwill": 193,
      "am": 194,
      "Ġno": 195,
      "Ġbut": 196,
      "us": 197,
      "and": 198,
      "US": 199,
      "if": 200,
      "Ġse": 201,
      "ge": 202,
      "Th": 203,
      "Ġall": 204,
      "ake": 205,
      "Ġsu": 206,
      "To": 207,
      "Ġher": 208,
      "ru": 209,
      "ion": 210,
      "th": 211,
      "Ġan": 212,
      "ter": 213,
      "ard": 214,
      "Ġlo": 215,
      "han": 216,
      "ell": 217,
      "ear": 218,
      "Ġsp": 219,
      "Ġthee": 220,
      "Ġour": 221,
      "Ġshall": 222,
      "Ġfa": 223,
      "Ġby": 224,
      "UC": 225,
      "il": 226,
      "Ġare": 227,
      "ĠC": 228,
      "rom": 229,
      "Ġne": 230,
      "ho": 231,
      "Ġkn": 232,
      "AN": 233,
      "ING": 234,
      "ĠR": 235,
      "That": 236,
      "Ġv": 237,
      "ER": 238,
      "OR": 239,
      "ast": 240,
      "ct": 241,
      "ous": 242,
      "Ġwhat": 243,
      "ight": 244,
      "Ġsh": 245,
      "ul": 246,
      "ET": 247,
      "Ġ'": 248,
      "ant": 249,
      "ES": 250,
      "Ġup": 251,
      "sel": 252,
      "qu": 253,
      "But": 254,
      "art": 255,
      "Ġgood": 256,
      "row": 257,
      "ine": 258,
      "ath": 259,
      "Ġlord": 260,
      "hich": 261,
      "nt": 262,
      "ust": 263,
      "'ll": 264,
      "one": 265,
      "Ġpr": 266,
      "Ġcom": 267,
      "Ġat": 268,
      "Ġman": 269,
      "What": 270,
      "ĠM": 271,
      "Ġwhe": 272,
      "ĠE": 273,
      "Ġam": 274,
      "end": 275,
      "ic": 276,
      "Ġcon": 277,
      "ble": 278,
      "ry": 279,
      "ong": 280,
      "ie": 281,
      "KING": 282,
      "ive": 283,
      "Ġbl": 284,
      "Ġfrom": 285,
      "ven": 286,
      "ĠG": 287,
      "For": 288,
      "Ġshe": 289,
      "em": 290,
      "Ġgo": 291,
      "are": 292,
      "Ġmore": 293,
      "IC": 294,
      "out": 295,
      "Ġthem": 296,
      "au": 297,
      "Ġwas": 298,
      "oth": 299,
      "other": 300,
      "He": 301,
      "Ġsir": 302,
      "ol": 303,
      "Ġnow": 304,
      "ĠL": 305,
      "Ġhat": 306,
      "ost": 307,
      "Ġif": 308,
      "LO": 309,
      "ind": 310,
      "Ġthere": 311,
      "Ġwould": 312,
      "Ġknow": 313,
      "Ġcan": 314,
      "ers": 315,
      "IUS": 316,
      "ep": 317,
      "self": 318,
      "ARD": 319,
      "ather": 320,
      "fe": 321,
      "ond": 322,
      "res": 323,
      "ate": 324,
      "Ġsay": 325,
      "Ġhere": 326,
      "Ġlove": 327,
      "Ġsw": 328,
      "Ġtheir": 329,
      "Ġbr": 330,
      "pp": 331,
      "Ġor": 332,
      "--": 333,
      "all": 334,
      "ĠS": 335,
      "Ġthan": 336,
      "Ġthen": 337,
      "Ġking": 338,
      "Ġus": 339,
      "ĠO": 340,
      "ĠB": 341,
      "Ġthey": 342,
      "Ġar": 343,
      "od": 344,
      "My": 345,
      "Ġlet": 346,
      "Ġun": 347,
      "ig": 348,
      "Ġwor": 349,
      "ure": 350,
      "ink": 351,
      "ort": 352,
      "hy": 353,
      "ame": 354,
      "fore": 355,
      "As": 356,
      "Ġmay": 357,
      "el": 358,
      "Ġqu": 359,
      "Ġcome": 360,
      "ook": 361,
      "Whe": 362,
      "ish": 363,
      "LI": 364,
      "Ġwell": 365,
      "KE": 366,
      "ves": 367,
      "Ġj": 368,
      "Ġone": 369,
      "ĠH": 370,
      "Ġhath": 371,
      "irst": 372,
      "ĠV": 373,
      "You": 374,
      "Ġmake": 375,
      "reat": 376,
      "ak": 377,
      "gain": 378,
      "Ġmust": 379,
      "ound": 380,
      "ng": 381,
      "Ġgra": 382,
      "Ġwere": 383,
      "Ġho": 384,
      "ci": 385,
      "Ġsee": 386,
      "Ġlike": 387,
      "ue": 388,
      "eak": 389,
      "TIO": 390,
      "Ġshould": 391,
      "ity": 392,
      "Ġpro": 393,
      "ĠP": 394,
      "Ġsa": 395,
      "Ġmad": 396,
      "um": 397,
      "Ġpl": 398,
      "Ġfather": 399,
      "RO": 400,
      "AU": 401,
      "Ġhad": 402,
      "Ġdid": 403,
      "pe": 404,
      "ime": 405,
      "Ġupon": 406,
      "ice": 407,
      "ON": 408,
      "Ġtoo": 409,
      "ence": 410,
      "ĠW": 411,
      "ward": 412,
      "ist": 413,
      "Ġdeath": 414,
      "own": 415,
      "man": 416,
      "ose": 417,
      "Ġen": 418,
      "un": 419,
      "IS": 420,
      "ful": 421,
      "nce": 422,
      "Ġr": 423,
      "Ġpo": 424,
      "Ġspeak": 425,
      "de": 426,
      "entle": 427,
      "io": 428,
      "Ġout": 429,
      "pt": 430,
      "Ġwhich": 431,
      "ICH": 432,
      "Ġfri": 433,
      "OL": 434,
      "DU": 435,
      "Ġagain": 436,
      "DUKE": 437,
      "Ġhow": 438,
      "EL": 439,
      "ick": 440,
      "ĠA": 441,
      "Ġtru": 442,
      "Ġheart": 443,
      "Ġyet": 444,
      "Ġhand": 445,
      "CA": 446,
      "Thou": 447,
      "very": 448,
      "ICHARD": 449,
      "ENTIO": 450,
      "With": 451,
      "ign": 452,
      "Ġsome": 453,
      "ance": 454,
      "Ġwho": 455,
      "Which": 456,
      "If": 457,
      "Ġwhen": 458,
      "ies": 459,
      "Ġmar": 460,
      "ire": 461,
      "Ġmine": 462,
      "Ġhon": 463,
      "har": 464,
      "orn": 465,
      "Ġoff": 466,
      "ince": 467,
      "INC": 468,
      "In": 469,
      "ack": 470,
      "ĠY": 471,
      "Ġson": 472,
      "Ġdis": 473,
      "Ġal": 474,
      "'t": 475,
      "We": 476,
      "uch": 477,
      "wn": 478,
      "Ġhea": 479,
      "First": 480,
      "oy": 481,
      "Ġtime": 482,
      "Ġhear": 483,
      "AB": 484,
      "ec": 485,
      "Ġsuch": 486,
      "ness": 487,
      "LA": 488,
      "Ġbrother": 489,
      "Of": 490,
      "Ġblood": 491,
      "ither": 492,
      "Ġab": 493,
      "UE": 494,
      "Why": 495,
      "Ġthese": 496,
      "No": 497,
      "Ġgive": 498,
      "Ġfo": 499,
      "Ġday": 500,
      "ĠII": 501,
      "Ġear": 502,
      "ĠRICHARD": 503,
      "TER": 504,
      "Ġro": 505,
      "ise": 506,
      "Ġex": 507,
      "Ġlife": 508,
      "This": 509,
      "eet": 510,
      "Ġtell": 511,
      "So": 512,
      "Ġlook": 513,
      "Ġthink": 514,
      "UCH": 515,
      "oul": 516,
      "Ġword": 517,
      "Ġey": 518,
      "Ġwhere": 519,
      "ag": 520,
      "age": 521,
      "een": 522,
      "ther": 523,
      "GLO": 524,
      "Ġtake": 525,
      "UCES": 526,
      "Ġfriend": 527,
      "GLOUCES": 528,
      "GLOUCESTER": 529,
      "ef": 530,
      "erv": 531,
      "ady": 532,
      "rown": 533,
      "Ġdes": 534,
      "ings": 535,
      "ave": 536,
      "not": 537,
      "Ġgentle": 538,
      "urse": 539,
      "How": 540,
      "Ġri": 541,
      "ase": 542,
      "QUE": 543,
      "way": 544,
      "INCENTIO": 545,
      "QUEEN": 546,
      "Ġlea": 547,
      "tis": 548,
      "ĠOF": 549,
      "Ġart": 550,
      "Ġmost": 551,
      "Where": 552,
      "Ġhonour": 553,
      "LAN": 554,
      "Ġmuch": 555,
      "Ġsl": 556,
      "Ġwar": 557,
      "Ġfl": 558,
      "urn": 559,
      "Ġmade": 560,
      "ment": 561,
      "Now": 562,
      "Ġhast": 563,
      "Ġtw": 564,
      "Ġfear": 565,
      "ĠT": 566,
      "Ġbet": 567,
      "aught": 568,
      "Is": 569,
      "LE": 570,
      "ber": 571,
      "ff": 572,
      "ĠGod": 573,
      "ough": 574,
      "ved": 575,
      "Ġbre": 576,
      "cc": 577,
      "ower": 578,
      "Ġnever": 579,
      "ĠVINCENTIO": 580,
      "Be": 581,
      "RY": 582,
      "ap": 583,
      "igh": 584,
      "ĠK": 585,
      "Ġgreat": 586,
      "Ġfair": 587,
      "Who": 588,
      "ee": 589,
      "tle": 590,
      "Ġmen": 591,
      "orrow": 592,
      "Ġcou": 593,
      "Ġnew": 594,
      "ĠRome": 595,
      "aster": 596,
      "uke": 597,
      "iz": 598,
      "old": 599,
      "ORK": 600,
      "Ġpart": 601,
      "ation": 602,
      "INIUS": 603,
      "ss": 604,
      "ree": 605,
      "ide": 606,
      "Or": 607,
      "Ġcall": 608,
      "ple": 609,
      "Ġany": 610,
      "Ġheaven": 611,
      "Ġad": 612,
      "Ġcomm": 613,
      "It": 614,
      "Your": 615,
      "Ġstand": 616,
      "Ġcannot": 617,
      "Ġtrue": 618,
      "DW": 619,
      "Ġname": 620,
      "Ġbeen": 621,
      "ears": 622,
      "DWARD": 623,
      "Ġcl": 624,
      "Ġpre": 625,
      "Ġsweet": 626,
      ",--": 627,
      "Ġdoth": 628,
      "Ġpray": 629,
      "hing": 630,
      "PET": 631,
      "UM": 632,
      "ENRY": 633,
      "Ġnoble": 634,
      "LUC": 635,
      "MEN": 636,
      "TH": 637,
      "Ġown": 638,
      "Ġple": 639,
      "ass": 640,
      "ĠD": 641,
      "ouse": 642,
      "Ġper": 643,
      "Ay": 644,
      "Come": 645,
      "ull": 646,
      "There": 647,
      "Ġwr": 648,
      "Ġdone": 649,
      "ife": 650,
      "aw": 651,
      "Ġtr": 652,
      "Ġway": 653,
      "Ġother": 654,
      "Ġhead": 655,
      "Ġmean": 656,
      "li": 657,
      "red": 658,
      "When": 659,
      "dward": 660,
      "Ġnor": 661,
      "EO": 662,
      "MEO": 663,
      "Ġsc": 664,
      "Ġsoul": 665,
      "Ġpres": 666,
      "ROMEO": 667,
      "ace": 668,
      "ving": 669,
      "Ġnight": 670,
      "Ġbear": 671,
      "ENIUS": 672,
      "aint": 673,
      "ĠCl": 674,
      "Ġworld": 675,
      "MENENIUS": 676,
      "ger": 677,
      "Ġbefore": 678,
      "ause": 679,
      "Ġboth": 680,
      "Ġqueen": 681,
      "per": 682,
      "Then": 683,
      "aughter": 684,
      "RUCH": 685,
      "ock": 686,
      "Ġchi": 687,
      "Here": 688,
      "PETRUCH": 689,
      "PETRUCHIO": 690,
      "OM": 691,
      "able": 692,
      "Ġvery": 693,
      "Ġdead": 694,
      "TES": 695,
      "By": 696,
      "Ġra": 697,
      "ite": 698,
      "Than": 699,
      "the": 700,
      "Ġke": 701,
      "ab": 702,
      "les": 703,
      "ĠF": 704,
      "Ġdown": 705,
      "to": 706,
      "Ġapp": 707,
      "Ġmyself": 708,
      "Ġcont": 709,
      "GR": 710,
      "HA": 711,
      "Ġwh": 712,
      "Ġrem": 713,
      "ĠLord": 714,
      "Ġarm": 715,
      "Ġthus": 716,
      "IOLAN": 717,
      "ilt": 718,
      "ORIOLAN": 719,
      "ORIOLANUS": 720,
      "CORIOLANUS": 721,
      "Sec": 722,
      "Ġleave": 723,
      "Second": 724,
      "Ġbeing": 725,
      "ction": 726,
      "ĠEdward": 727,
      "Nor": 728,
      "sw": 729,
      "Ġunt": 730,
      "ress": 731,
      "Ġgrace": 732,
      "less": 733,
      "Ġbeg": 734,
      "Ġeyes": 735,
      "BA": 736,
      "land": 737,
      "Ġmother": 738,
      "ran": 739,
      "Ġma": 740,
      "Ġold": 741,
      "Ġim": 742,
      "INA": 743,
      "ĠEDWARD": 744,
      "itiz": 745,
      "itizen": 746,
      "ps": 747,
      "Ġlong": 748,
      "Ġever": 749,
      "ĠMar": 750,
      "Ġlive": 751,
      "Ġchild": 752,
      "Let": 753,
      "me": 754,
      "Ġwife": 755,
      "She": 756,
      "Ġaway": 757,
      "Ġrep": 758,
      "ĠIII": 759,
      "Ġwom": 760,
      "Ġpoor": 761,
      "Ġfriends": 762,
      "come": 763,
      "for": 764,
      "wick": 765,
      "Ġaf": 766,
      "Ġmight": 767,
      "nder": 768,
      "Ġstay": 769,
      "eace": 770,
      "ks": 771,
      "oud": 772,
      "Ġdie": 773,
      "atch": 774,
      "led": 775,
      "ĠJ": 776,
      "Ġru": 777,
      "arwick": 778,
      "Ġcomes": 779,
      "Ġcons": 780,
      "Ġcrown": 781,
      "ows": 782,
      "Ġmany": 783,
      "Ġpe": 784,
      "Tis": 785,
      "hall": 786,
      "ison": 787,
      "Ġle": 788,
      "ĠYORK": 789,
      "lo": 790,
      "uck": 791,
      "iss": 792,
      "Ġhouse": 793,
      "Ġhar": 794,
      "Ġthought": 795,
      "Ġrest": 796,
      "ISAB": 797,
      "ELLA": 798,
      "ISABELLA": 799,
      "ian": 800,
      "erc": 801,
      "Ġcour": 802,
      "RAN": 803,
      "Ġent": 804,
      "Ġlie": 805,
      "che": 806,
      "Ġset": 807,
      "JU": 808,
      "well": 809,
      "ors": 810,
      "atter": 811,
      "LIET": 812,
      "ONTES": 813,
      "ĠWarwick": 814,
      "LEONTES": 815,
      "JULIET": 816,
      "Nay": 817,
      "int": 818,
      "ittle": 819,
      "Ġdaughter": 820,
      "Ġgone": 821,
      "Ġbetter": 822,
      "MI": 823,
      "rant": 824,
      "ought": 825,
      "Ġprince": 826,
      "DY": 827,
      "His": 828,
      "Ġtong": 829,
      "Ġwit": 830,
      "Ġnothing": 831,
      "CE": 832,
      "VOL": 833,
      "ENCE": 834,
      "LADY": 835,
      "BR": 836,
      "TA": 837,
      "cl": 838,
      "ied": 839,
      "Ġkeep": 840,
      "Go": 841,
      "Well": 842,
      "ces": 843,
      "ious": 844,
      "os": 845,
      "Ġsle": 846,
      "Ġres": 847,
      "hard": 848,
      "Ġnews": 849,
      "SIC": 850,
      "ft": 851,
      "ier": 852,
      "Ġtri": 853,
      "Ġmo": 854,
      "ret": 855,
      "ont": 856,
      "Ġthose": 857,
      "Ġgri": 858,
      "ool": 859,
      "une": 860,
      "SICINIUS": 861,
      "Not": 862,
      "Ġlittle": 863,
      "Ġlords": 864,
      "Ġagainst": 865,
      "ford": 866,
      "Ġbest": 867,
      "Ġhour": 868,
      "Ġhence": 869,
      "ardon": 870,
      "akes": 871,
      "lse": 872,
      "Ġacc": 873,
      "sed": 874,
      "Ġface": 875,
      "ult": 876,
      "Ġfoll": 877,
      "On": 878,
      "ew": 879,
      "ud": 880,
      "ark": 881,
      "Ġyoung": 882,
      "Ġend": 883,
      "ork": 884,
      "Ġthing": 885,
      "Ġstill": 886,
      "Ġkind": 887,
      "ield": 888,
      "ST": 889,
      "Ġpri": 890,
      "Ġpur": 891,
      "alk": 892,
      "Thy": 893,
      "Ġcomp": 894,
      "LUCIO": 895,
      "ale": 896,
      "ins": 897,
      "ert": 898,
      "Ġput": 899,
      "Ġpower": 900,
      "ĠIV": 901,
      "ichard": 902,
      "Ġtwo": 903,
      "Ġcha": 904,
      "Ġhimself": 905,
      "Pro": 906,
      "iness": 907,
      "Ġfirst": 908,
      "Ġpeace": 909,
      "Ġgu": 910,
      "Ġelse": 911,
      "ried": 912,
      "Ġdear": 913,
      "cious": 914,
      "Sir": 915,
      "ail": 916,
      "ty": 917,
      "ason": 918,
      "hile": 919,
      "Ġsub": 920,
      "Ġunto": 921,
      "ile": 922,
      "ray": 923,
      "Ġtill": 924,
      "Ġsm": 925,
      "uty": 926,
      "RI": 927,
      "ZAB": 928,
      "ect": 929,
      "Ġtra": 930,
      "Ġbid": 931,
      "Ġback": 932,
      "Ġdre": 933,
      "Ġhus": 934,
      "ETH": 935,
      "ĠELI": 936,
      "Ġtherefore": 937,
      "Ġearth": 938,
      "Ġwords": 939,
      "Ġcount": 940,
      "ZABETH": 941,
      "ĠELIZABETH": 942,
      "Have": 943,
      "band": 944,
      "ius": 945,
      "men": 946,
      "ople": 947,
      "yal": 948,
      "Ġfind": 949,
      "Ġcould": 950,
      "Ġtongue": 951,
      "orse": 952,
      "Ġlady": 953,
      "Ġthine": 954,
      "Ġneed": 955,
      "ĠYork": 956,
      "HENRY": 957,
      "get": 958,
      "tw": 959,
      "Ġtre": 960,
      "Ġfell": 961,
      "enry": 962,
      "Ġhigh": 963,
      "Ġforth": 964,
      "Ġhope": 965,
      "MER": 966,
      "St": 967,
      "lp": 968,
      "Ġhome": 969,
      "vere": 970,
      "eth": 971,
      "Ġseem": 972,
      "eech": 973,
      "ĠRomeo": 974,
      "Ġhusband": 975,
      "CL": 976,
      "Ġduke": 977,
      "Ġright": 978,
      "GE": 979,
      "WAR": 980,
      "WIC": 981,
      "fort": 982,
      "ĠWhat": 983,
      "rer": 984,
      "Ġban": 985,
      "uth": 986,
      "Ġthough": 987,
      "WARWIC": 988,
      "WARWICK": 989,
      "UT": 990,
      "ach": 991,
      "ix": 992,
      "Ġmind": 993,
      "Ġbra": 994,
      "ister": 995,
      "Ġche": 996,
      "Ġchar": 997,
      "hip": 998,
      "Ġpeople": 999,
      "Nurse": 1000,
      "ds": 1001,
      "ged": 1002,
      "ĠCitizen": 1003,
      "ren": 1004,
      "They": 1005,
      "ĠHenry": 1006,
      "HAM": 1007,
      "IAN": 1008,
      "LET": 1009,
      "PU": 1010,
      "eed": 1011,
      "Ġbri": 1012,
      "Ġchan": 1013,
      "Ġlaw": 1014,
      "ĠRichard": 1015,
      "Ġshow": 1016,
      "Ġconf": 1017,
      "Ġhands": 1018,
      "PULET": 1019,
      "EY": 1020,
      "be": 1021,
      "Ġmaster": 1022,
      "Ġwhy": 1023,
      "Ġco": 1024,
      "Ġcause": 1025,
      "Ġgl": 1026,
      "Ġonce": 1027,
      "Ġsaid": 1028,
      "Ġimp": 1029,
      "Good": 1030,
      "MIO": 1031,
      "Shall": 1032,
      "Ġbod": 1033,
      "Ġnone": 1034,
      "ousin": 1035,
      "Ġjoy": 1036,
      "ervant": 1037,
      "All": 1038,
      "bt": 1039,
      "Ġfort": 1040,
      "Ġbring": 1041,
      "Yet": 1042,
      "Ġdou": 1043,
      "ates": 1044,
      "Ġevery": 1045,
      "UCKING": 1046,
      "BRUT": 1047,
      "UCKINGHAM": 1048,
      "BRUTUS": 1049,
      "BRO": 1050,
      "BUCKINGHAM": 1051,
      "From": 1052,
      "TRAN": 1053,
      "iet": 1054,
      "Ġmist": 1055,
      "Ġpass": 1056,
      "ird": 1057,
      "Ġlight": 1058,
      "INGBRO": 1059,
      "ESS": 1060,
      "ĠBOL": 1061,
      "TRANIO": 1062,
      "INGBROKE": 1063,
      "ĠBOLINGBROKE": 1064,
      "Do": 1065,
      "Will": 1066,
      "lt": 1067,
      "vost": 1068,
      "Ġwo": 1069,
      "Ġnat": 1070,
      "Ġthr": 1071,
      "Ġroyal": 1072,
      "swer": 1073,
      "PER": 1074,
      "TIS": 1075,
      "cle": 1076,
      "Ġtears": 1077,
      "its": 1078,
      "Ġcame": 1079,
      "ary": 1080,
      "ĠMAR": 1081,
      "Ġwhose": 1082,
      "Ġplease": 1083,
      "lf": 1084,
      "vy": 1085,
      "ory": 1086,
      "Ġpardon": 1087,
      "roke": 1088,
      "ĠAn": 1089,
      "Cl": 1090,
      "GAR": 1091,
      "NE": 1092,
      "pose": 1093,
      "Ġbes": 1094,
      "Ġboy": 1095,
      "Ġfull": 1096,
      "arry": 1097,
      "Ġheard": 1098,
      "Ġhapp": 1099,
      "Ġdev": 1100,
      "Ġjust": 1101,
      "Ġwrong": 1102,
      "Ġpresent": 1103,
      "ĠMARGAR": 1104,
      "ĠMARGARET": 1105,
      "ATH": 1106,
      "eel": 1107,
      "Ġsince": 1108,
      "Ġmis": 1109,
      "ens": 1110,
      "Ġland": 1111,
      "Ġlast": 1112,
      "Ġere": 1113,
      "Ġstate": 1114,
      "Ġplace": 1115,
      "MIL": 1116,
      "bl": 1117,
      "sand": 1118,
      "Ġmeet": 1119,
      "Ġunder": 1120,
      "Ġkill": 1121,
      "Ġafter": 1122,
      "HOR": 1123,
      "cent": 1124,
      "Ġsorrow": 1125,
      "ition": 1126,
      "Ġcare": 1127,
      "Ġthousand": 1128,
      "esty": 1129,
      "ANGE": 1130,
      "ORD": 1131,
      "Ġhold": 1132,
      "GRE": 1133,
      "ANGELO": 1134,
      "CU": 1135,
      "Our": 1136,
      "Ġhelp": 1137,
      "ARINA": 1138,
      "arence": 1139,
      "Ġwhom": 1140,
      "Ġfollow": 1141,
      "KATH": 1142,
      "day": 1143,
      "Ġfar": 1144,
      "Ġless": 1145,
      "Ġhither": 1146,
      "ceive": 1147,
      "irt": 1148,
      "Ġweep": 1149,
      "Ġshame": 1150,
      "selves": 1151,
      "cius": 1152,
      "Ġenem": 1153,
      "Ġabout": 1154,
      "Ġeye": 1155,
      "KATHARINA": 1156,
      "iol": 1157,
      "Ġfal": 1158,
      "Ġfool": 1159,
      "ons": 1160,
      "Ġpat": 1161,
      "urde": 1162,
      "Ġsun": 1163,
      "Ġanswer": 1164,
      "air": 1165,
      "Ġch": 1166,
      "asure": 1167,
      "Ġfall": 1168,
      "Ġmaid": 1169,
      "LUS": 1170,
      "Un": 1171,
      "Up": 1172,
      "ount": 1173,
      "Ġbus": 1174,
      "Ġcousin": 1175,
      "thy": 1176,
      "ESCA": 1177,
      "Ġhate": 1178,
      "Ġgracious": 1179,
      "Ġgentleman": 1180,
      "ĠKing": 1181,
      "Ġgrief": 1182,
      "ESCALUS": 1183,
      "An": 1184,
      "ject": 1185,
      "ove": 1186,
      "Ġmakes": 1187,
      "Ġinto": 1188,
      "imes": 1189,
      "Ġstri": 1190,
      "Hath": 1191,
      "iv": 1192,
      "ild": 1193,
      "Ġstre": 1194,
      "ĠEng": 1195,
      "Ġwoman": 1196,
      "DUCH": 1197,
      "Ġturn": 1198,
      "Ġhum": 1199,
      "Ġbel": 1200,
      "alt": 1201,
      "Ġdost": 1202,
      "Ġcomfort": 1203,
      "ices": 1204,
      "Ġcoun": 1205,
      "ĠDuke": 1206,
      "Ġcourt": 1207,
      "Ġsleep": 1208,
      "urderer": 1209,
      "DUCHESS": 1210,
      "Lord": 1211,
      "pher": 1212,
      "Ġtalk": 1213,
      "itor": 1214,
      "Ġover": 1215,
      "Ġbody": 1216,
      "morrow": 1217,
      "Ġwilt": 1218,
      "Ġbu": 1219,
      "Ġgr": 1220,
      "ute": 1221,
      "gelo": 1222,
      "deed": 1223,
      "ĠMarcius": 1224,
      "IA": 1225,
      "ience": 1226,
      "Ġi": 1227,
      "ised": 1228,
      "Ġbed": 1229,
      "Ġfault": 1230,
      "Ġatt": 1231,
      "ieve": 1232,
      "ĠVI": 1233,
      "Ġprove": 1234,
      "Ġplay": 1235,
      "CAMIL": 1236,
      "ĠClarence": 1237,
      "CAMILLO": 1238,
      "God": 1239,
      "ere": 1240,
      "ily": 1241,
      "Ġsound": 1242,
      "Ġdra": 1243,
      "ans": 1244,
      "omet": 1245,
      "Ġinst": 1246,
      "Ġwel": 1247,
      "ade": 1248,
      "Ġret": 1249,
      "Ġdeed": 1250,
      "Ġthank": 1251,
      "ĠHENRY": 1252,
      "TEN": 1253,
      "Ġser": 1254,
      "Ġbo": 1255,
      "Ġfight": 1256,
      "Ġindeed": 1257,
      "illain": 1258,
      "hold": 1259,
      "Ġvo": 1260,
      "Ġsword": 1261,
      "ĠAngelo": 1262,
      "HORTEN": 1263,
      "Ġfalse": 1264,
      "HORTENS": 1265,
      "FRI": 1266,
      "Sh": 1267,
      "Ġuse": 1268,
      "Ġeven": 1269,
      "Ġsovere": 1270,
      "Ġanother": 1271,
      "Ġgrave": 1272,
      "Ġadv": 1273,
      "Provost": 1274,
      "Ġfellow": 1275,
      "Upon": 1276,
      "HORTENSIO": 1277,
      "FRIAR": 1278,
      ",'": 1279,
      "PTIS": 1280,
      "eal": 1281,
      "Ġcur": 1282,
      "Ġhas": 1283,
      "Ġem": 1284,
      "ury": 1285,
      "pect": 1286,
      "BAPTIS": 1287,
      "Ġbanish": 1288,
      "Ġfortune": 1289,
      "BAPTISTA": 1290,
      "CUS": 1291,
      "COM": 1292,
      "TOL": 1293,
      "YCUS": 1294,
      "pl": 1295,
      "pen": 1296,
      "ouch": 1297,
      "Ġmerc": 1298,
      "Ġmatter": 1299,
      "Ġwant": 1300,
      "Ġreven": 1301,
      "Ġass": 1302,
      "Ġsend": 1303,
      "Ġprison": 1304,
      "fect": 1305,
      "AUTOL": 1306,
      "Ġrather": 1307,
      "Ġcountry": 1308,
      "Ġdoubt": 1309,
      "COMINIUS": 1310,
      "AUTOLYCUS": 1311,
      ".'": 1312,
      "Are": 1313,
      "Even": 1314,
      "More": 1315,
      "Ġwish": 1316,
      "Ġyears": 1317,
      "Ġreason": 1318,
      "Ġlies": 1319,
      "Ġonly": 1320,
      "ARENCE": 1321,
      "Third": 1322,
      "Ġvirt": 1323,
      "Ġtruth": 1324,
      "Would": 1325,
      "ior": 1326,
      "ms": 1327,
      "of": 1328,
      "rance": 1329,
      "ĠBut": 1330,
      "Ġdan": 1331,
      "Ġpers": 1332,
      "any": 1333,
      "Ġbreath": 1334,
      "Ġarms": 1335,
      "Ġdream": 1336,
      "CLARENCE": 1337,
      "pherd": 1338,
      "BEN": 1339,
      "MAR": 1340,
      "NOR": 1341,
      "dd": 1342,
      "der": 1343,
      "Ġsent": 1344,
      "ener": 1345,
      "Ġgi": 1346,
      "Ġstra": 1347,
      "Ġshalt": 1348,
      "Ġdisc": 1349,
      "VOLIO": 1350,
      "Clown": 1351,
      "Ġbusiness": 1352,
      "BENVOLIO": 1353,
      "Al": 1354,
      "At": 1355,
      "PRO": 1356,
      "SPER": 1357,
      "by": 1358,
      "hed": 1359,
      "Ġsen": 1360,
      "Ġprom": 1361,
      "Ġholy": 1362,
      "Ġenough": 1363,
      "erving": 1364,
      "Ġcommand": 1365,
      "UMIO": 1366,
      "GRUMIO": 1367,
      "PROSPER": 1368,
      "PROSPERO": 1369,
      "ia": 1370,
      "ken": 1371,
      "Ġsea": 1372,
      "Ġwind": 1373,
      "itt": 1374,
      "Ġcra": 1375,
      "Ġlay": 1376,
      "ars": 1377,
      "Ġpity": 1378,
      "ator": 1379,
      "Ġbea": 1380,
      "Ġhang": 1381,
      "Ġstran": 1382,
      "Ġsold": 1383,
      "Ġspir": 1384,
      "Ġfare": 1385,
      "Ġproud": 1386,
      "ĠMurderer": 1387,
      "Ġswear": 1388,
      "Ġcontent": 1389,
      "MERCU": 1390,
      "MERCUTIO": 1391,
      "ike": 1392,
      "Ġdare": 1393,
      "eter": 1394,
      "Ġlives": 1395,
      "Ġdep": 1396,
      "Ġsec": 1397,
      "Ġvillain": 1398,
      "gainst": 1399,
      "ĠKate": 1400,
      "LUCENTIO": 1401,
      "Ġremem": 1402,
      "Ġnature": 1403,
      "Ġwelcome": 1404,
      "POM": 1405,
      "Tw": 1406,
      "com": 1407,
      "unt": 1408,
      "Ġtend": 1409,
      "ham": 1410,
      "Ġfree": 1411,
      "Ġgre": 1412,
      "Ġget": 1413,
      "Ġint": 1414,
      "Ġwithin": 1415,
      "Ġkiss": 1416,
      "ester": 1417,
      "ĠCome": 1418,
      "Ġgods": 1419,
      "Ġsaw": 1420,
      "Ġmadam": 1421,
      "LAND": 1422,
      "Ġhappy": 1423,
      "Ġsovereign": 1424,
      "POMP": 1425,
      "LINA": 1426,
      "PAU": 1427,
      "apt": 1428,
      "Ġserv": 1429,
      "Ġsister": 1430,
      "Ġsomet": 1431,
      "hal": 1432,
      "Ġfoul": 1433,
      "Ġcity": 1434,
      "vers": 1435,
      "Were": 1436,
      "Ġbeseech": 1437,
      "PAULINA": 1438,
      "YORK": 1439,
      "ient": 1440,
      "use": 1441,
      "ery": 1442,
      "Ġden": 1443,
      "Ġyield": 1444,
      "Ġthree": 1445,
      "Ġoath": 1446,
      "Ġyours": 1447,
      "onder": 1448,
      "ague": 1449,
      "Ġbreak": 1450,
      "Ġmeans": 1451,
      "Ġsubject": 1452,
      "gether": 1453,
      "GREMIO": 1454,
      "POMPEY": 1455,
      "NIA": 1456,
      "OLI": 1457,
      "POLI": 1458,
      "XEN": 1459,
      "balt": 1460,
      "ybalt": 1461,
      "ĠNor": 1462,
      "Ġaw": 1463,
      "Ġmer": 1464,
      "Ġwhile": 1465,
      "Ġborn": 1466,
      "Ġthings": 1467,
      "Ġhorse": 1468,
      "anc": 1469,
      "usic": 1470,
      "ANT": 1471,
      "Ġbloody": 1472,
      "Ġlooks": 1473,
      "eft": 1474,
      "UMNIA": 1475,
      "like": 1476,
      "ches": 1477,
      "VOLUMNIA": 1478,
      "POLIXEN": 1479,
      "POLIXENES": 1480,
      "GON": 1481,
      "Her": 1482,
      "rong": 1483,
      "up": 1484,
      "ues": 1485,
      "Ġtem": 1486,
      "Ġwin": 1487,
      "Ġwound": 1488,
      "Ġfire": 1489,
      "enger": 1490,
      "Ġyourself": 1491,
      "Ġsupp": 1492,
      "Ġspo": 1493,
      "Ġfaith": 1494,
      "INGS": 1495,
      "ĠServing": 1496,
      "Ġmaj": 1497,
      "STINGS": 1498,
      "Ġtraitor": 1499,
      "centio": 1500,
      "ĠServingman": 1501,
      "RENCE": 1502,
      "Say": 1503,
      "bs": 1504,
      "broke": 1505,
      "rem": 1506,
      "Ġdru": 1507,
      "Ġlam": 1508,
      "essenger": 1509,
      "ĠLAU": 1510,
      "Ġmark": 1511,
      "Ġcommon": 1512,
      "HASTINGS": 1513,
      "Ġchildren": 1514,
      "ertain": 1515,
      "Ġmistress": 1516,
      "ĠLAURENCE": 1517,
      "BY": 1518,
      "BER": 1519,
      "Ġcond": 1520,
      "Ġbeat": 1521,
      "Ġrequ": 1522,
      "Ġdef": 1523,
      "Ġval": 1524,
      "Ġuncle": 1525,
      "Therefore": 1526,
      "form": 1527,
      "Ġmajesty": 1528,
      "CLI": 1529,
      "FF": 1530,
      "Look": 1531,
      "Was": 1532,
      "Ġaff": 1533,
      "Ġsin": 1534,
      "Ġmet": 1535,
      "Ġlate": 1536,
      "Ġleft": 1537,
      "Ġtold": 1538,
      "Ġsoon": 1539,
      "Ġseen": 1540,
      "Ġsave": 1541,
      "Ġdays": 1542,
      "UMBER": 1543,
      "THUMBER": 1544,
      "Ġwoe": 1545,
      "ĠEngland": 1546,
      "NORTHUMBER": 1547,
      "Ġtender": 1548,
      "CLIFF": 1549,
      "NORTHUMBERLAND": 1550,
      "ID": 1551,
      "Take": 1552,
      "bed": 1553,
      "ever": 1554,
      "ring": 1555,
      "ten": 1556,
      "Ġsight": 1557,
      "Ġmon": 1558,
      "Ġgener": 1559,
      "ides": 1560,
      "idow": 1561,
      "Ġdoes": 1562,
      "Though": 1563,
      "Ġreturn": 1564,
      "Ġmercy": 1565,
      "Ġfarewell": 1566,
      "ac": 1567,
      "dom": 1568,
      "mp": 1569,
      "ĠAN": 1570,
      "hes": 1571,
      "Ġsit": 1572,
      "Ġsad": 1573,
      "rel": 1574,
      "Ġdeep": 1575,
      "ters": 1576,
      "Ġgold": 1577,
      "unes": 1578,
      "Ġmarry": 1579,
      "Ġheavy": 1580,
      "Ġfoot": 1581,
      "Ġwarrant": 1582,
      "ĠJul": 1583,
      "Ġpurpose": 1584,
      "Ġthrough": 1585,
      "Ġdanger": 1586,
      "ĠANNE": 1587,
      "Ah": 1588,
      "Did": 1589,
      "Give": 1590,
      "PR": 1591,
      "aim": 1592,
      "ict": 1593,
      "mer": 1594,
      "so": 1595,
      "und": 1596,
      "vent": 1597,
      "Ġill": 1598,
      "Ġcho": 1599,
      "Ġcold": 1600,
      "Ġnurse": 1601,
      "Ġtogether": 1602,
      "Ġgrow": 1603,
      "ours": 1604,
      "ifford": 1605,
      "Ġsure": 1606,
      "earn": 1607,
      "CAPULET": 1608,
      "ignior": 1609,
      "INCE": 1610,
      "Ġdeser": 1611,
      "ments": 1612,
      "PRINCE": 1613,
      "az": 1614,
      "aid": 1615,
      "ca": 1616,
      "oint": 1617,
      "Ġtimes": 1618,
      "oriol": 1619,
      "ingbroke": 1620,
      "ceed": 1621,
      "Ġwithout": 1622,
      "enty": 1623,
      "Ġask": 1624,
      "ross": 1625,
      "ush": 1626,
      "Ġlost": 1627,
      "arewell": 1628,
      "olingbroke": 1629,
      "Ġpluck": 1630,
      "Ġreport": 1631,
      "Ġliege": 1632,
      "Ġbelieve": 1633,
      "Ġspirit": 1634,
      "ling": 1635,
      "sh": 1636,
      "xt": 1637,
      "Ġair": 1638,
      "Ġage": 1639,
      "outh": 1640,
      "Ġwat": 1641,
      "Ġheir": 1642,
      "ets": 1643,
      "ains": 1644,
      "Ġthyself": 1645,
      "ift": 1646,
      "Ġloss": 1647,
      "ĠMont": 1648,
      "Ġsays": 1649,
      "ĠBolingbroke": 1650,
      "Whose": 1651,
      "One": 1652,
      "Ġstrange": 1653,
      "ALO": 1654,
      "Had": 1655,
      "ial": 1656,
      "no": 1657,
      "ner": 1658,
      "Ġbat": 1659,
      "Ġcry": 1660,
      "Ġlearn": 1661,
      "ced": 1662,
      "Ġsuff": 1663,
      "aking": 1664,
      "Ġears": 1665,
      "Ġhaste": 1666,
      "ĠClifford": 1667,
      "Ġentreat": 1668,
      "Ġdevil": 1669,
      "Ġground": 1670,
      "Should": 1671,
      "Ġperson": 1672,
      "ĠJuliet": 1673,
      "Like": 1674,
      "Wh": 1675,
      "ges": 1676,
      "night": 1677,
      "Ġmur": 1678,
      "ined": 1679,
      "Ġfly": 1680,
      "Ġtoward": 1681,
      "Ġpast": 1682,
      "oman": 1683,
      "let": 1684,
      "Ġfast": 1685,
      "Ġvis": 1686,
      "aud": 1687,
      "ĠLu": 1688,
      "Ġpoint": 1689,
      "Ġfriar": 1690,
      "Ġdisp": 1691,
      "Ġslain": 1692,
      "Ġbetw": 1693,
      "ĠFrance": 1694,
      "ixt": 1695,
      "Ġjustice": 1696,
      "Ġstraight": 1697,
      "Ġremember": 1698,
      "APULET": 1699,
      "FL": 1700,
      "FID": 1701,
      "IZ": 1702,
      "May": 1703,
      "Some": 1704,
      "Ġord": 1705,
      "Ġsil": 1706,
      "ina": 1707,
      "Ġbold": 1708,
      "Ġcurse": 1709,
      "Ġnear": 1710,
      "ution": 1711,
      "Ġstrong": 1712,
      "These": 1713,
      "ĠCAPULET": 1714,
      "ORIZ": 1715,
      "Ġworthy": 1716,
      "Ġquick": 1717,
      "AUFID": 1718,
      "entleman": 1719,
      "Ġtrust": 1720,
      "Ġalone": 1721,
      "Ġdesire": 1722,
      "Ġinstru": 1723,
      "Ġbeauty": 1724,
      "Ġservice": 1725,
      "FLORIZ": 1726,
      "AUFIDIUS": 1727,
      "FLORIZEL": 1728,
      "Can": 1729,
      "SE": 1730,
      "Tell": 1731,
      "VER": 1732,
      "gs": 1733,
      "ning": 1734,
      "ship": 1735,
      "with": 1736,
      "Ġtouch": 1737,
      "Ġfound": 1738,
      "ithe": 1739,
      "ĠIs": 1740,
      "adam": 1741,
      "Ġready": 1742,
      "ION": 1743,
      "Ġbrought": 1744,
      "ured": 1745,
      "Ġposs": 1746,
      "ĠTybalt": 1747,
      "Ġrun": 1748,
      "Ġhard": 1749,
      "Ġenemy": 1750,
      "Ġrevenge": 1751,
      "Ġgeneral": 1752,
      "audio": 1753,
      "!'": 1754,
      "Ha": 1755,
      "ible": 1756,
      "vo": 1757,
      "ĠHere": 1758,
      "Ġwoo": 1759,
      "Ġduty": 1760,
      "enator": 1761,
      "Ġgrant": 1762,
      "Ġinf": 1763,
      "cept": 1764,
      "Ġitself": 1765,
      "amill": 1766,
      "Ġlose": 1767,
      "aunt": 1768,
      "Ġknows": 1769,
      "Ġcanst": 1770,
      "ĠSenator": 1771,
      "inks": 1772,
      "umber": 1773,
      "Ġmarried": 1774,
      "Ġthoughts": 1775,
      "Ġcharge": 1776,
      "Against": 1777,
      "Bec": 1778,
      "CIUS": 1779,
      "RICHARD": 1780,
      "Sp": 1781,
      "cester": 1782,
      "eep": 1783,
      "gu": 1784,
      "lou": 1785,
      "sue": 1786,
      "ua": 1787,
      "ĠYou": 1788,
      "Ġmorn": 1789,
      "Ġwear": 1790,
      "riage": 1791,
      "Ġread": 1792,
      "Ġdeli": 1793,
      "Ġspeed": 1794,
      "Ġquar": 1795,
      "Ġprof": 1796,
      "Ġtwenty": 1797,
      "Ġstands": 1798,
      "BAST": 1799,
      "Shepherd": 1800,
      "ched": 1801,
      "Ġhours": 1802,
      "Ġconfess": 1803,
      "Ġstreng": 1804,
      "SEBAST": 1805,
      "ithee": 1806,
      "SEBASTIAN": 1807,
      "OW": 1808,
      "cess": 1809,
      "ĠN": 1810,
      "Ġmock": 1811,
      "Ġfur": 1812,
      "Ġfore": 1813,
      "Ġfield": 1814,
      "ones": 1815,
      "Ġdiv": 1816,
      "Ġcar": 1817,
      "Ġyouth": 1818,
      "Ġpost": 1819,
      "Ġhell": 1820,
      "ingham": 1821,
      "Ġhalf": 1822,
      "oop": 1823,
      "Thus": 1824,
      "ĠRi": 1825,
      "olk": 1826,
      "fection": 1827,
      "Ġjud": 1828,
      "ĠHast": 1829,
      "ump": 1830,
      "Ġexec": 1831,
      "Ġfearful": 1832,
      "Ġcounsel": 1833,
      "amillo": 1834,
      "BION": 1835,
      "Com": 1836,
      "DEL": 1837,
      "Till": 1838,
      "most": 1839,
      "pare": 1840,
      "Ġter": 1841,
      "Ġmin": 1842,
      "Ġwret": 1843,
      "Ġbos": 1844,
      "Ġpar": 1845,
      "Ġbehold": 1846,
      "Ġinc": 1847,
      "Ġeach": 1848,
      "ads": 1849,
      "Ġrec": 1850,
      "Ġdel": 1851,
      "ĠCoriol": 1852,
      "ols": 1853,
      "Ġwork": 1854,
      "ortal": 1855,
      "Ġhearts": 1856,
      "Ġmarriage": 1857,
      "Ġdesp": 1858,
      "ĠClaudio": 1859,
      "itizens": 1860,
      "uckingham": 1861,
      "Ġresol": 1862,
      "MARCIUS": 1863,
      "ĠMontague": 1864,
      "loucester": 1865,
      "BIONDEL": 1866,
      "Ġbosom": 1867,
      "BIONDELLO": 1868,
      "Away": 1869,
      "MON": 1870,
      "Madam": 1871,
      "bly": 1872,
      "folk": 1873,
      "iers": 1874,
      "now": 1875,
      "ĠThe": 1876,
      "Ġtit": 1877,
      "Ġten": 1878,
      "Ġtale": 1879,
      "Ġbound": 1880,
      "Ġdam": 1881,
      "Ġcut": 1882,
      "ench": 1883,
      "Ġye": 1884,
      "Ġopen": 1885,
      "rah": 1886,
      "alm": 1887,
      "ĠCap": 1888,
      "Ġshort": 1889,
      "Ġknown": 1890,
      "ĠBuckingham": 1891,
      "Ġseek": 1892,
      "Ġharm": 1893,
      "Ġcompany": 1894,
      "Ġguilt": 1895,
      "Ġhighness": 1896,
      "Ġstrike": 1897,
      "Ġattend": 1898,
      "Ġserve": 1899,
      "Ġmurder": 1900,
      "ĠHastings": 1901,
      "Farewell": 1902,
      "HER": 1903,
      "OP": 1904,
      "chan": 1905,
      "hood": 1906,
      "Ġve": 1907,
      "ĠHe": 1908,
      "ĠAU": 1909,
      "Ġag": 1910,
      "Ġsat": 1911,
      "Ġside": 1912,
      "Ġwhi": 1913,
      "Ġwatch": 1914,
      "rest": 1915,
      "ished": 1916,
      "Ġfeel": 1917,
      "Ġdish": 1918,
      "Ġdist": 1919,
      "ents": 1920,
      "ander": 1921,
      "Ġsuit": 1922,
      "Ġloving": 1923,
      "ONIO": 1924,
      "Ġhonest": 1925,
      "Ġheavens": 1926,
      "Ġtrib": 1927,
      "MERLE": 1928,
      "Ġdraw": 1929,
      "Ġvoices": 1930,
      "Ġsomething": 1931,
      "ANTONIO": 1932,
      "Ġstrength": 1933,
      "ĠAUMERLE": 1934,
      "Marry": 1935,
      "Pray": 1936,
      "See": 1937,
      "ZALO": 1938,
      "fid": 1939,
      "ging": 1940,
      "Ġact": 1941,
      "Ġsake": 1942,
      "Ġwast": 1943,
      "Ġwonder": 1944,
      "Ġwidow": 1945,
      "Ġbit": 1946,
      "Ġcor": 1947,
      "Ġsto": 1948,
      "Ġstir": 1949,
      "ĠGentleman": 1950,
      "ĠGloucester": 1951,
      "ĠLanc": 1952,
      "Ġdidst": 1953,
      "Ġgentlemen": 1954,
      "Ġcloud": 1955,
      "Ġwomen": 1956,
      "ethinks": 1957,
      "Ġenemies": 1958,
      "GONZALO": 1959,
      "ĠLancaster": 1960,
      "Unt": 1961,
      "ives": 1962,
      "su": 1963,
      "Ġsing": 1964,
      "Ġmusic": 1965,
      "rew": 1966,
      "Ġbreat": 1967,
      "Ġdr": 1968,
      "Ġpra": 1969,
      "Ġpie": 1970,
      "Ġpale": 1971,
      "Ġgates": 1972,
      "oose": 1973,
      "race": 1974,
      "ils": 1975,
      "ĠCamillo": 1976,
      "Ġnext": 1977,
      "Ġknew": 1978,
      "Ġcoming": 1979,
      "Ġthanks": 1980,
      "Ġclose": 1981,
      "Ġpleasure": 1982,
      "Ġsouls": 1983,
      "ianca": 1984,
      "Ġcourse": 1985,
      "Ġenter": 1986,
      "Ġwithal": 1987,
      "Ġbrave": 1988,
      "Ġchee": 1989,
      "ceived": 1990,
      "Ġtitle": 1991,
      "DIO": 1992,
      "fter": 1993,
      "ne": 1994,
      "vour": 1995,
      "you": 1996,
      "Ġty": 1997,
      "Ġwa": 1998,
      "Ġbur": 1999,
      "Ġfit": 2000,
      "oward": 2001,
      "Ġgar": 2002,
      "Ġbecome": 2003,
      "etch": 2004,
      "etru": 2005,
      "Ġforg": 2006,
      "Ġweak": 2007,
      "Ġeither": 2008,
      "Ġlips": 2009,
      "rust": 2010,
      "els": 2011,
      "Ġjest": 2012,
      "Ġplain": 2013,
      "AUDIO": 2014,
      "Ġabs": 2015,
      "Ġpret": 2016,
      "claim": 2017,
      "Ġgrie": 2018,
      "CLAUDIO": 2019,
      "Ġchange": 2020,
      "MIONE": 2021,
      "ĠNorfolk": 2022,
      "CLIFFORD": 2023,
      "Ġsuffer": 2024,
      "Ġdeliver": 2025,
      "HERMIONE": 2026,
      "DA": 2027,
      "EDWARD": 2028,
      "LORD": 2029,
      "Most": 2030,
      "cher": 2031,
      "kes": 2032,
      "ses": 2033,
      "ufid": 2034,
      "ĠTh": 2035,
      "Ġsk": 2036,
      "Ġsame": 2037,
      "Ġsick": 2038,
      "Ġsign": 2039,
      "Ġwis": 2040,
      "Ġwall": 2041,
      "ready": 2042,
      "isf": 2043,
      "Ġcast": 2044,
      "irth": 2045,
      "chio": 2046,
      "Ġforb": 2047,
      "Ġforget": 2048,
      "oof": 2049,
      "ries": 2050,
      "Ġreg": 2051,
      "urp": 2052,
      "east": 2053,
      "Ġven": 2054,
      "Ġthemselves": 2055,
      "ĠBianca": 2056,
      "Ġworse": 2057,
      "ĠPom": 2058,
      "Ġtook": 2059,
      "Ġpoison": 2060,
      "Ġalong": 2061,
      "Ġrich": 2062,
      "Ġbreast": 2063,
      "ranio": 2064,
      "Ġconsul": 2065,
      "RANDA": 2066,
      "MIRANDA": 2067,
      "twas": 2068,
      "twere": 2069,
      "Ġcheer": 2070,
      "Ġpatience": 2071,
      "Ġmerry": 2072,
      "Ġorder": 2073,
      "etruchio": 2074,
      "ufidius": 2075,
      "HN": 2076,
      "Messenger": 2077,
      "OHN": 2078,
      "SA": 2079,
      "SON": 2080,
      "Servant": 2081,
      "lst": 2082,
      "oin": 2083,
      "ting": 2084,
      "Ġmouth": 2085,
      "Ġwed": 2086,
      "Ġbad": 2087,
      "Ġbook": 2088,
      "Ġfour": 2089,
      "Ġdu": 2090,
      "ĠIf": 2091,
      "Ġgave": 2092,
      "chm": 2093,
      "Ġissue": 2094,
      "ash": 2095,
      "Ġliber": 2096,
      "vern": 2097,
      "Ġself": 2098,
      "ions": 2099,
      "rows": 2100,
      "ally": 2101,
      "Ġoffice": 2102,
      "Ġalready": 2103,
      "Being": 2104,
      "Ġmove": 2105,
      "Ġvirtue": 2106,
      "Ġgiven": 2107,
      "Ġbattle": 2108,
      "ĠHereford": 2109,
      "Ġmorning": 2110,
      "Ġfurther": 2111,
      "Make": 2112,
      "Since": 2113,
      "mber": 2114,
      "nk": 2115,
      "pes": 2116,
      "rist": 2117,
      "she": 2118,
      "uous": 2119,
      "used": 2120,
      "Ġta": 2121,
      "Ġac": 2122,
      "oun": 2123,
      "Ġwise": 2124,
      "Ġburn": 2125,
      "orge": 2126,
      "Ġfrown": 2127,
      "Ġfeast": 2128,
      "Ġdire": 2129,
      "esh": 2130,
      "Ġlad": 2131,
      "Ġpay": 2132,
      "anus": 2133,
      "Ġgro": 2134,
      "ats": 2135,
      "Ġred": 2136,
      "Ġsoft": 2137,
      "each": 2138,
      "Ġsucc": 2139,
      "icer": 2140,
      "Ġblack": 2141,
      "Ġgoes": 2142,
      "Ġsworn": 2143,
      "ĠSignior": 2144,
      "elcome": 2145,
      "Ġprop": 2146,
      "Ġsons": 2147,
      "Ġfoe": 2148,
      "Ġext": 2149,
      "ĠTower": 2150,
      "Before": 2151,
      "Ġtrou": 2152,
      "Ġbegg": 2153,
      "Ġbegin": 2154,
      "Ġconsent": 2155,
      "dden": 2156,
      "Ġsoldiers": 2157,
      "Ġrequest": 2158,
      "ĠLucentio": 2159,
      "Ġbetween": 2160,
      "Ġquarrel": 2161,
      "Ġsatisf": 2162,
      "chmond": 2163,
      "AS": 2164,
      "Call": 2165,
      "IR": 2166,
      "Must": 2167,
      "NT": 2168,
      "Re": 2169,
      "Sw": 2170,
      "Such": 2171,
      "gare": 2172,
      "ires": 2173,
      "ures": 2174,
      "ung": 2175,
      "uff": 2176,
      "ĠFor": 2177,
      "hem": 2178,
      "Ġservant": 2179,
      "Ġbar": 2180,
      "Ġdro": 2181,
      "Ġdark": 2182,
      "Ġcr": 2183,
      "Ġcase": 2184,
      "Ġthri": 2185,
      "aris": 2186,
      "ots": 2187,
      "stand": 2188,
      "owers": 2189,
      "irm": 2190,
      "Ġloves": 2191,
      "ĠCh": 2192,
      "ends": 2193,
      "Ġbless": 2194,
      "empt": 2195,
      "Ġthence": 2196,
      "Ġworth": 2197,
      "ĠAufidius": 2198,
      "CATES": 2199,
      "Ġexp": 2200,
      "awd": 2201,
      "Ġpresence": 2202,
      "Ġpriv": 2203,
      "Unless": 2204,
      "Alas": 2205,
      "Ġwounds": 2206,
      "Ġdangerous": 2207,
      "Because": 2208,
      "garet": 2209,
      "CATESBY": 2210,
      "LY": 2211,
      "oll": 2212,
      "that": 2213,
      "Ġsigh": 2214,
      "Ġble": 2215,
      "ona": 2216,
      "onour": 2217,
      "Ġhot": 2218,
      "Ġgot": 2219,
      "Ġinter": 2220,
      "Ġund": 2221,
      "Ġev": 2222,
      "Ġsum": 2223,
      "Ġneither": 2224,
      "Ġvict": 2225,
      "emn": 2226,
      "ĠLond": 2227,
      "ĠSir": 2228,
      "ĠVols": 2229,
      "cient": 2230,
      "Ġwars": 2231,
      "Ġflatter": 2232,
      "Ġmighty": 2233,
      "Ġrespect": 2234,
      "Ġdread": 2235,
      "Ġbride": 2236,
      "Ġbrief": 2237,
      "Ġthrone": 2238,
      "Ġvoice": 2239,
      "Ġemb": 2240,
      "aptist": 2241,
      "Ġdeny": 2242,
      "Ġspoke": 2243,
      "Ġwater": 2244,
      "Ġvisit": 2245,
      "ĠLondon": 2246,
      "Both": 2247,
      "BIAN": 2248,
      "JOHN": 2249,
      "Lest": 2250,
      "Rome": 2251,
      "REY": 2252,
      "Yes": 2253,
      "eorge": 2254,
      "ip": 2255,
      "iant": 2256,
      "mand": 2257,
      "ught": 2258,
      "Ġest": 2259,
      "Ġmal": 2260,
      "Ġmortal": 2261,
      "Ġbow": 2262,
      "Ġbab": 2263,
      "Ġfra": 2264,
      "ern": 2265,
      "Ġhur": 2266,
      "Ġtown": 2267,
      "Ġoften": 2268,
      "Ġhaving": 2269,
      "right": 2270,
      "ided": 2271,
      "Ġsudden": 2272,
      "rum": 2273,
      "Ġancient": 2274,
      "Ġspeech": 2275,
      "Ġvow": 2276,
      "ĠGeorge": 2277,
      "Ġloved": 2278,
      "Ġkings": 2279,
      "ĠBaptist": 2280,
      "Ġworship": 2281,
      "LIA": 2282,
      "ĠParis": 2283,
      "Ġsafe": 2284,
      "ired": 2285,
      "ainted": 2286,
      "BAL": 2287,
      "ĠMargaret": 2288,
      "Ġprincely": 2289,
      "BRA": 2290,
      "Ġchamber": 2291,
      "Ġseems": 2292,
      "bey": 2293,
      "Ġbuy": 2294,
      "Ġdeeds": 2295,
      "Whom": 2296,
      "VERS": 2297,
      "ĠRichmond": 2298,
      "Ġbitter": 2299,
      "BIANCA": 2300,
      "BOW": 2301,
      "Welcome": 2302,
      "king": 2303,
      "ls": 2304,
      "lish": 2305,
      "mb": 2306,
      "rt": 2307,
      "sp": 2308,
      "ura": 2309,
      "ĠThou": 2310,
      "ĠThis": 2311,
      "Ġfres": 2312,
      "Ġfetch": 2313,
      "Ġcol": 2314,
      "Ġcross": 2315,
      "Ġcoward": 2316,
      "essed": 2317,
      "Ġlim": 2318,
      "Ġpen": 2319,
      "otion": 2320,
      "ated": 2321,
      "urch": 2322,
      "Ġknock": 2323,
      "antage": 2324,
      "oney": 2325,
      "Ġprot": 2326,
      "ĠGAU": 2327,
      "ĠLady": 2328,
      "ĠSaint": 2329,
      "ĠServant": 2330,
      "Ġkingdom": 2331,
      "ĠPl": 2332,
      "Ġsac": 2333,
      "ELBOW": 2334,
      "Ġheads": 2335,
      "Ġscorn": 2336,
      "Ġrage": 2337,
      "Ġappear": 2338,
      "Ġlead": 2339,
      "Ġwitness": 2340,
      "RIVERS": 2341,
      "Ġpatient": 2342,
      "Ġpromise": 2343,
      "Ġlament": 2344,
      "Ġvaliant": 2345,
      "ĠIsab": 2346,
      "Speak": 2347,
      "Ġsuccess": 2348,
      "ĠBaptista": 2349,
      "ĠGAUNT": 2350,
      "Bes": 2351,
      "Ere": 2352,
      "GUE": 2353,
      "Hold": 2354,
      "TY": 2355,
      "cy": 2356,
      "coun": 2357,
      "nown": 2358,
      "sper": 2359,
      "will": 2360,
      "xford": 2361,
      "Ġign": 2362,
      "Ġaction": 2363,
      "Ġbro": 2364,
      "Ġbawd": 2365,
      "ities": 2366,
      "Ġcle": 2367,
      "Ġcreat": 2368,
      "Ġcap": 2369,
      "Ġlack": 2370,
      "Ġthrow": 2371,
      "Ġow": 2372,
      "Ġopp": 2373,
      "Ġgall": 2374,
      "Ġforward": 2375,
      "Ġeat": 2376,
      "Ġkins": 2377,
      "Their": 2378,
      "iff": 2379,
      "Ġang": 2380,
      "Ġviol": 2381,
      "antag": 2382,
      "Ġprin": 2383,
      "Ġprithee": 2384,
      "ĠMy": 2385,
      "Ġwash": 2386,
      "ortens": 2387,
      "aken": 2388,
      "ĠPetruchio": 2389,
      "Ġoffer": 2390,
      "Ġleast": 2391,
      "Ġslave": 2392,
      "Ġflesh": 2393,
      "ĠTranio": 2394,
      "Ġprepare": 2395,
      "Ġprayers": 2396,
      "then": 2397,
      "Ġappro": 2398,
      "TAGUE": 2399,
      "Ġtriump": 2400,
      "Ġmoon": 2401,
      "Ġcompl": 2402,
      "itted": 2403,
      "Ġtribunes": 2404,
      "Ġdrink": 2405,
      "ĠChrist": 2406,
      "Romeo": 2407,
      "ortensio": 2408,
      "Yea": 2409,
      "bit": 2410,
      "but": 2411,
      "ees": 2412,
      "joy": 2413,
      "ler": 2414,
      "oor": 2415,
      "ohem": 2416,
      "vest": 2417,
      "Ġid": 2418,
      "Ġsur": 2419,
      "Ġmid": 2420,
      "ines": 2421,
      "Ġfie": 2422,
      "Ġdest": 2423,
      "Ġnay": 2424,
      "Ġthither": 2425,
      "Ġhide": 2426,
      "athar": 2427,
      "Ġbeast": 2428,
      "ley": 2429,
      "Ġreb": 2430,
      "raw": 2431,
      "als": 2432,
      "alth": 2433,
      "cks": 2434,
      "thumber": 2435,
      "host": 2436,
      "asters": 2437,
      "feit": 2438,
      "aked": 2439,
      "pey": 2440,
      "Ġalmost": 2441,
      "ully": 2442,
      "Ġscar": 2443,
      "Ġsmall": 2444,
      "Ġpresently": 2445,
      "Ġfaults": 2446,
      "Ġdepart": 2447,
      "Ġsecret": 2448,
      "Ġsubjects": 2449,
      "Ġdefend": 2450,
      "Ġpossess": 2451,
      "atharina": 2452,
      "thumberland": 2453,
      "Con": 2454,
      "DI": 2455,
      "GI": 2456,
      "IEL": 2457,
      "Pl": 2458,
      "VIR": 2459,
      "Whi": 2460,
      "aul": 2461,
      "hind": 2462,
      "ying": 2463,
      "Ġtear": 2464,
      "Ġwert": 2465,
      "rey": 2466,
      "Ġben": 2467,
      "Ġbase": 2468,
      "Ġbirth": 2469,
      "Ġfill": 2470,
      "Ġfond": 2471,
      "Ġlab": 2472,
      "arl": 2473,
      "Ġpain": 2474,
      "inger": 2475,
      "Ġbec": 2476,
      "Ġform": 2477,
      "Ġeas": 2478,
      "Ġstru": 2479,
      "Ġliving": 2480,
      "rue": 2481,
      "though": 2482,
      "Ġgoodly": 2483,
      "Ġwhence": 2484,
      "ĠGREY": 2485,
      "Ġusurp": 2486,
      "cience": 2487,
      "Ġtrump": 2488,
      "Ġhearing": 2489,
      "Ġslaughter": 2490,
      "Ġperform": 2491,
      "Ġwrit": 2492,
      "perate": 2493,
      "ledge": 2494,
      "Stay": 2495,
      "Stand": 2496,
      "Ġchance": 2497,
      "PERDI": 2498,
      "Ġvirtuous": 2499,
      "Ġquickly": 2500,
      "MONTAGUE": 2501,
      "Ġdamn": 2502,
      "ural": 2503,
      "ohemia": 2504,
      "GILIA": 2505,
      "VIRGILIA": 2506,
      "PERDITA": 2507,
      "Ab": 2508,
      "Doth": 2509,
      "Peace": 2510,
      "SET": 2511,
      "SLY": 2512,
      "ding": 2513,
      "eem": 2514,
      "gg": 2515,
      "iest": 2516,
      "over": 2517,
      "oss": 2518,
      "ror": 2519,
      "your": 2520,
      "ze": 2521,
      "Ġut": 2522,
      "Ġtor": 2523,
      "Ġay": 2524,
      "Ġmatch": 2525,
      "Ġmild": 2526,
      "Ġwild": 2527,
      "read": 2528,
      "isure": 2529,
      "Ġfier": 2530,
      "ony": 2531,
      "Ġca": 2532,
      "Ġcertain": 2533,
      "arn": 2534,
      "Ġpu": 2535,
      "Ġpit": 2536,
      "ingly": 2537,
      "sem": 2538,
      "Ġinj": 2539,
      "Ġins": 2540,
      "Ġinno": 2541,
      "eds": 2542,
      "edant": 2543,
      "Ġur": 2544,
      "Ġshad": 2545,
      "Think": 2546,
      "Ġknee": 2547,
      "Ġkneel": 2548,
      "astard": 2549,
      "ustom": 2550,
      "Ġblows": 2551,
      "ĠSt": 2552,
      "ĠOxford": 2553,
      "Ġquiet": 2554,
      "Ġproceed": 2555,
      "ĠPaul": 2556,
      "Ġhadst": 2557,
      "Ġoffence": 2558,
      "Ġadm": 2559,
      "Ġpleas": 2560,
      "force": 2561,
      "Ġaffection": 2562,
      "Ġslew": 2563,
      "IANA": 2564,
      "Ġlawful": 2565,
      "Ġglad": 2566,
      "bling": 2567,
      "Ġweeping": 2568,
      "MARIANA": 2569,
      "Ġsoldier": 2570,
      "Ġawhile": 2571,
      "Ġdeserved": 2572,
      "Ġexecution": 2573,
      "ĠCoriolanus": 2574,
      "Ġguilty": 2575,
      "Ġpretty": 2576,
      "ĠPompey": 2577,
      "Ġangry": 2578,
      "Fa": 2579,
      "Mar": 2580,
      "Master": 2581,
      "PAR": 2582,
      "RA": 2583,
      "VINCENTIO": 2584,
      "awn": 2585,
      "dge": 2586,
      "fully": 2587,
      "gue": 2588,
      "ked": 2589,
      "med": 2590,
      "ual": 2591,
      "vol": 2592,
      "zen": 2593,
      "Ġap": 2594,
      "Ġshi": 2595,
      "Ġsho": 2596,
      "Ġmed": 2597,
      "Ġmod": 2598,
      "Ġwalk": 2599,
      "Ġfam": 2600,
      "Ġfled": 2601,
      "eness": 2602,
      "Ġyear": 2603,
      "Ġob": 2604,
      "Ġocc": 2605,
      "Ġhap": 2606,
      "Ġmeasure": 2607,
      "Ġforsw": 2608,
      "adua": 2609,
      "Ġreign": 2610,
      "Ġdoom": 2611,
      "ames": 2612,
      "Ġnob": 2613,
      "rupt": 2614,
      "Ġourselves": 2615,
      "Ġfavour": 2616,
      "Ġneck": 2617,
      "Ġshows": 2618,
      "ended": 2619,
      "Ġblow": 2620,
      "Ġgovern": 2621,
      "Ġwouldst": 2622,
      "Ġletters": 2623,
      "Ġunc": 2624,
      "Ġunk": 2625,
      "Ġworst": 2626,
      "Ġspeaks": 2627,
      "Ġmarch": 2628,
      "ighb": 2629,
      "ĠKatharina": 2630,
      "Ġgreater": 2631,
      "Ġleisure": 2632,
      "osition": 2633,
      "Ġtreason": 2634,
      "ĠEnglish": 2635,
      "Ġbanishment": 2636,
      "Ġsense": 2637,
      "remio": 2638,
      "Ġcondemn": 2639,
      "ointed": 2640,
      "Ġdishonour": 2641,
      "Ġclouds": 2642,
      "Ġbreathe": 2643,
      "Ġforbid": 2644,
      "Ġliberty": 2645,
      "Ġladies": 2646,
      "Ġtrouble": 2647,
      "rumio": 2648,
      "ĠIsabel": 2649,
      "counter": 2650,
      "antagen": 2651,
      "PARIS": 2652,
      ":'": 2653,
      "Int": 2654,
      "Out": 2655,
      "Too": 2656,
      "While": 2657,
      "aves": 2658,
      "acle": 2659,
      "dle": 2660,
      "house": 2661,
      "rim": 2662,
      "rous": 2663,
      "ĠX": 2664,
      "Ġsort": 2665,
      "Ġmorrow": 2666,
      "Ġwon": 2667,
      "Ġdry": 2668,
      "Ġcru": 2669,
      "Ġlan": 2670,
      "Ġlist": 2671,
      "Ġlaid": 2672,
      "aring": 2673,
      "Ġobey": 2674,
      "Ġheld": 2675,
      "vel": 2676,
      "ster": 2677,
      "ators": 2678,
      "Ġbehind": 2679,
      "set": 2680,
      "Ġnote": 2681,
      "Ġstor": 2682,
      "ider": 2683,
      "Ġref": 2684,
      "Ġlived": 2685,
      "urs": 2686,
      "Ġaside": 2687,
      "Ġdog": 2688,
      "Ġnoise": 2689,
      "Ġseat": 2690,
      "iles": 2691,
      "Ġvain": 2692,
      "ĠMerc": 2693,
      "ĠBohemia": 2694,
      "Ġletter": 2695,
      "Ġjoin": 2696,
      "ounds": 2697,
      "Ġprosper": 2698,
      "Ġrough": 2699,
      "Ġabove": 2700,
      "ize": 2701,
      "Ġremain": 2702,
      "Ġlonger": 2703,
      "Ġwomb": 2704,
      "Ġneeds": 2705,
      "Ġchoose": 2706,
      "Ġchurch": 2707,
      "Ġprisoner": 2708,
      "Ġsecond": 2709,
      "Ġtemp": 2710,
      "Ġgolden": 2711,
      "undred": 2712,
      "Ġdispatch": 2713,
      "Ġpiece": 2714,
      "Ġfresh": 2715,
      "Ġignor": 2716,
      "Ġbecause": 2717,
      "antagenet": 2718,
      "!--": 2719,
      "Am": 2720,
      "De": 2721,
      "DOR": 2722,
      "EW": 2723,
      "En": 2724,
      "Hark": 2725,
      "LAR": 2726,
      "Pr": 2727,
      "Su": 2728,
      "TIUS": 2729,
      "bb": 2730,
      "ban": 2731,
      "cal": 2732,
      "ffect": 2733,
      "him": 2734,
      "iled": 2735,
      "ny": 2736,
      "ts": 2737,
      "under": 2738,
      "ulet": 2739,
      "ĠNow": 2740,
      "Ġtent": 2741,
      "Ġsch": 2742,
      "Ġsus": 2743,
      "Ġsaint": 2744,
      "Ġmut": 2745,
      "inius": 2746,
      "Ġbig": 2747,
      "Ġbroke": 2748,
      "Ġbones": 2749,
      "Ġfat": 2750,
      "Ġfine": 2751,
      "Ġfive": 2752,
      "erle": 2753,
      "itors": 2754,
      "Ġdrown": 2755,
      "Ġcitizens": 2756,
      "Ġlen": 2757,
      "Ġlow": 2758,
      "Ġlust": 2759,
      "Ġlau": 2760,
      "Ġthreat": 2761,
      "Ġhundred": 2762,
      "Ġobed": 2763,
      "Ġpet": 2764,
      "vey": 2765,
      "ang": 2766,
      "Ġoft": 2767,
      "Ġbend": 2768,
      "Ġbell": 2769,
      "Ġind": 2770,
      "ceit": 2771,
      "lease": 2772,
      "ety": 2773,
      "Ġeffect": 2774,
      "Ġyourselves": 2775,
      "Ġstood": 2776,
      "Ġstain": 2777,
      "Ġsteel": 2778,
      "Ġsteal": 2779,
      "ords": 2780,
      "asion": 2781,
      "Ġrevere": 2782,
      "Ġsole": 2783,
      "ARIEL": 2784,
      "ease": 2785,
      "Ġknees": 2786,
      "ular": 2787,
      "icious": 2788,
      "Ġconqu": 2789,
      "ieu": 2790,
      "Ġblessed": 2791,
      "ĠGaunt": 2792,
      "ĠGremio": 2793,
      "Ġshed": 2794,
      "ĠLet": 2795,
      "ĠLEW": 2796,
      "Ġswift": 2797,
      "ĠHortensio": 2798,
      "Ġgrand": 2799,
      "Ġproclaim": 2800,
      "ĠPr": 2801,
      "ĠPadua": 2802,
      "Ġsaf": 2803,
      "ume": 2804,
      "ĠWatch": 2805,
      "istress": 2806,
      "Ġexc": 2807,
      "Ġdesperate": 2808,
      "Ġslander": 2809,
      "Ġprecious": 2810,
      "Ġbears": 2811,
      "Ġappare": 2812,
      "Ġconscience": 2813,
      "Ġentertain": 2814,
      "ontent": 2815,
      "Ġpride": 2816,
      "Sirrah": 2817,
      "uthor": 2818,
      "Ġglory": 2819,
      "Ġdouble": 2820,
      "atesby": 2821,
      "Ġwoes": 2822,
      "posed": 2823,
      "Ġlands": 2824,
      "Ġsentence": 2825,
      "ĠNorthumberland": 2826,
      "Ġdrunk": 2827,
      "Ġtowards": 2828,
      "ĠCapulet": 2829,
      "Unto": 2830,
      "Ġforgot": 2831,
      "Ġwisdom": 2832,
      "Ġvenge": 2833,
      "Sweet": 2834,
      "Ġvictory": 2835,
      "Ġkinsman": 2836,
      "ĠXI": 2837,
      "LARTIUS": 2838,
      "ĠLEWIS": 2839,
      "ĠWatchman": 2840,
      ";'": 2841,
      "Bel": 2842,
      "Could": 2843,
      "Hear": 2844,
      "MP": 2845,
      "Me": 2846,
      "Pardon": 2847,
      "Pedant": 2848,
      "RTIS": 2849,
      "bray": 2850,
      "den": 2851,
      "gment": 2852,
      "hn": 2853,
      "iance": 2854,
      "ohn": 2855,
      "pir": 2856,
      "ude": 2857,
      "vail": 2858,
      "which": 2859,
      "head": 2860,
      "Ġauthor": 2861,
      "Ġsour": 2862,
      "Ġmount": 2863,
      "Ġmethinks": 2864,
      "Ġmoney": 2865,
      "Ġmasters": 2866,
      "rent": 2867,
      "rence": 2868,
      "Ġfe": 2869,
      "Ġfru": 2870,
      "Ġfought": 2871,
      "Ġfew": 2872,
      "Ġdied": 2873,
      "Ġdeter": 2874,
      "Ġcapt": 2875,
      "Ġpun": 2876,
      "owbray": 2877,
      "Ġhair": 2878,
      "irl": 2879,
      "Ġeld": 2880,
      "Ġstud": 2881,
      "estion": 2882,
      "Ġdoing": 2883,
      "iful": 2884,
      "Ġseal": 2885,
      "ility": 2886,
      "ĠCa": 2887,
      "cted": 2888,
      "ETER": 2889,
      "Ġmanner": 2890,
      "ĠEarl": 2891,
      "ĠGo": 2892,
      "ĠGrumio": 2893,
      "Ġknowledge": 2894,
      "umerle": 2895,
      "Ġenjoy": 2896,
      "Ġran": 2897,
      "ĠAnt": 2898,
      "Within": 2899,
      "Ġalive": 2900,
      "Ġabro": 2901,
      "ways": 2902,
      "Ġhonours": 2903,
      "Ġwarm": 2904,
      "ations": 2905,
      "Ġdeadly": 2906,
      "Ġkept": 2907,
      "Ġcontr": 2908,
      "Ġcontin": 2909,
      "Ġarmy": 2910,
      "Ġlordship": 2911,
      "Ġguest": 2912,
      "Ġguess": 2913,
      "CURTIS": 2914,
      "Ġpromised": 2915,
      "comes": 2916,
      "eeper": 2917,
      "Ġwretched": 2918,
      "Ġdespair": 2919,
      "Ġcheeks": 2920,
      "SAMP": 2921,
      "Ġlabour": 2922,
      "Ġstruck": 2923,
      "Faith": 2924,
      "Ġdeterm": 2925,
      "SAMPSON": 2926,
      "'re": 2927,
      ":--": 2928,
      "BU": 2929,
      "Br": 2930,
      "Citizens": 2931,
      "Dis": 2932,
      "EX": 2933,
      "Either": 2934,
      "IGON": 2935,
      "bury": 2936,
      "ey": 2937,
      "good": 2938,
      "mit": 2939,
      "take": 2940,
      "Ġtry": 2941,
      "Ġteach": 2942,
      "Ġaid": 2943,
      "ounce": 2944,
      "Ġsim": 2945,
      "reed": 2946,
      "Ġbastard": 2947,
      "orious": 2948,
      "llow": 2949,
      "ited": 2950,
      "Ġdance": 2951,
      "Ġcorn": 2952,
      "Ġcred": 2953,
      "Ġcried": 2954,
      "Ġpal": 2955,
      "Ġhel": 2956,
      "Ġhealth": 2957,
      "stant": 2958,
      "utio": 2959,
      "ourn": 2960,
      "Ġliest": 2961,
      "Ġdeg": 2962,
      "Ġdemand": 2963,
      "Ġshake": 2964,
      "eaven": 2965,
      "ament": 2966,
      "Ġsever": 2967,
      "Ġherself": 2968,
      "Ġspent": 2969,
      "ĠMaster": 2970,
      "ĠMowbray": 2971,
      "Ġwhether": 2972,
      "Ġamong": 2973,
      "Ġshepherd": 2974,
      "othing": 2975,
      "ppy": 2976,
      "Ġunp": 2977,
      "Ġunw": 2978,
      "Ġquoth": 2979,
      "ĠHow": 2980,
      "Ġprov": 2981,
      "umb": 2982,
      "Ġplant": 2983,
      "ĠWill": 2984,
      "ĠWhy": 2985,
      "osed": 2986,
      "Ġencounter": 2987,
      "Ġrot": 2988,
      "Ġofficer": 2989,
      "Ġbrothers": 2990,
      "Ġearly": 2991,
      "Ġhonourable": 2992,
      "Ġflowers": 2993,
      "LEY": 2994,
      "Ġcalls": 2995,
      "Ġwhite": 2996,
      "Ġremed": 2997,
      "Ġmoved": 2998,
      "Ġaccount": 2999,
      "ewis": 3000,
      "Ġkindred": 3001,
      "Ġpriest": 3002,
      "Ġguard": 3003,
      "Ġcharity": 3004,
      "Ġunderstand": 3005,
      "Ġfoolish": 3006,
      "Ġhumble": 3007,
      "Ġcounter": 3008,
      "Ġdreams": 3009,
      "Ġgreet": 3010,
      "ANTIGON": 3011,
      "Ġvalour": 3012,
      "Ġjudge": 3013,
      "Ġwretch": 3014,
      "Ġbeggar": 3015,
      "Ġsummer": 3016,
      "Ġtriumph": 3017,
      "Ġcruel": 3018,
      "BURY": 3019,
      "ANTIGONUS": 3020,
      "Bet": 3021,
      "Fear": 3022,
      "Lo": 3023,
      "Mine": 3024,
      "Made": 3025,
      "TCLIFF": 3026,
      "True": 3027,
      "fall": 3028,
      "mon": 3029,
      "rison": 3030,
      "ĠAnd": 3031,
      "heart": 3032,
      "ining": 3033,
      "Ġwail": 3034,
      "orthy": 3035,
      "Ġfart": 3036,
      "Ġfaint": 3037,
      "ites": 3038,
      "Ġdin": 3039,
      "Ġdwell": 3040,
      "Ġyea": 3041,
      "Ġthro": 3042,
      "Ġhung": 3043,
      "Ġpack": 3044,
      "Ġga": 3045,
      "Ġgent": 3046,
      "leep": 3047,
      "Ġforce": 3048,
      "Ġweary": 3049,
      "Ġstone": 3050,
      "Ġstars": 3051,
      "ask": 3052,
      "roy": 3053,
      "Ġbutcher": 3054,
      "ify": 3055,
      "Ġseven": 3056,
      "Ġanon": 3057,
      "Ġours": 3058,
      "ĠCom": 3059,
      "Ġneighb": 3060,
      "ĠRoman": 3061,
      "Ġvie": 3062,
      "ief": 3063,
      "Ġblame": 3064,
      "Ġgoing": 3065,
      "ĠLewis": 3066,
      "Ġthereof": 3067,
      "Ġunf": 3068,
      "Ġuns": 3069,
      "Ġenvy": 3070,
      "Ġrise": 3071,
      "Ġthinks": 3072,
      "Ġrid": 3073,
      "Ġparty": 3074,
      "Ġadd": 3075,
      "Ġothers": 3076,
      "ĠJohn": 3077,
      "ians": 3078,
      "Ġkindness": 3079,
      "Ġchast": 3080,
      "Ġbids": 3081,
      "Ġbright": 3082,
      "Ġglass": 3083,
      "Ġmiser": 3084,
      "Ġcrave": 3085,
      "Twas": 3086,
      "Ġwinter": 3087,
      "Ġmonth": 3088,
      "Ġminister": 3089,
      "Ġwalls": 3090,
      "Ġextrem": 3091,
      "Ġsatisfied": 3092,
      "Ġprivate": 3093,
      "ĠVolsces": 3094,
      "Ġidle": 3095,
      "Ġscarce": 3096,
      "Ġbenef": 3097,
      "RATCLIFF": 3098,
      "Ġlaugh": 3099,
      "Ġvengeance": 3100,
      "Ġabroad": 3101,
      "Ġview": 3102,
      "After": 3103,
      "Bid": 3104,
      "BIS": 3105,
      "Fie": 3106,
      "Gentle": 3107,
      "HOP": 3108,
      "Ne": 3109,
      "Never": 3110,
      "Signior": 3111,
      "Under": 3112,
      "aff": 3113,
      "gra": 3114,
      "ners": 3115,
      "ope": 3116,
      "shall": 3117,
      "ued": 3118,
      "vious": 3119,
      "whe": 3120,
      "woman": 3121,
      "Ġver": 3122,
      "incentio": 3123,
      "Ġwre": 3124,
      "Ġwench": 3125,
      "rees": 3126,
      "have": 3127,
      "orous": 3128,
      "Ġfirm": 3129,
      "Ġcir": 3130,
      "Ġcorse": 3131,
      "enes": 3132,
      "Ġlest": 3133,
      "Ġhol": 3134,
      "vell": 3135,
      "ott": 3136,
      "omas": 3137,
      "att": 3138,
      "ating": 3139,
      "Ġincl": 3140,
      "cell": 3141,
      "utland": 3142,
      "Ġformer": 3143,
      "Ġease": 3144,
      "riar": 3145,
      "ident": 3146,
      "Ġrel": 3147,
      "Ġreceived": 3148,
      "Ġdeal": 3149,
      "amp": 3150,
      "Ġsport": 3151,
      "Ġfaire": 3152,
      "ANLEY": 3153,
      "ĠRutland": 3154,
      "Ġvile": 3155,
      "Ġshrew": 3156,
      "antua": 3157,
      "ĠMantua": 3158,
      "Ġconcl": 3159,
      "Ġconvey": 3160,
      "Ġgod": 3161,
      "allow": 3162,
      "ĠBarn": 3163,
      "Ġarri": 3164,
      "Ġunb": 3165,
      "Ġmayst": 3166,
      "eless": 3167,
      "Ġquite": 3168,
      "ĠHer": 3169,
      "ĠVincentio": 3170,
      "Ġprovost": 3171,
      "IST": 3172,
      "Ġtruly": 3173,
      "Ġdism": 3174,
      "Off": 3175,
      "Ġfoes": 3176,
      "Ġroot": 3177,
      "Ġwherefore": 3178,
      "Ġflower": 3179,
      "Ġimag": 3180,
      "Ġtrial": 3181,
      "ailor": 3182,
      "Ġsmo": 3183,
      "Ġtrem": 3184,
      "Ġfellows": 3185,
      "rench": 3186,
      "Ġchanged": 3187,
      "Ġcover": 3188,
      "Ġhumour": 3189,
      "Ġboot": 3190,
      "Ġswords": 3191,
      "Ġdeputy": 3192,
      "Ġcondition": 3193,
      "Ġjudgment": 3194,
      "change": 3195,
      "Ġtyrant": 3196,
      "Ġacqu": 3197,
      "Ġevil": 3198,
      "BALT": 3199,
      "TYBALT": 3200,
      "Whilst": 3201,
      "Ġeasy": 3202,
      "ĠMercutio": 3203,
      "Ġschool": 3204,
      "Ġexcuse": 3205,
      "Ġfruit": 3206,
      "BISHOP": 3207,
      "'?": 3208,
      "AL": 3209,
      "Bl": 3210,
      "Des": 3211,
      "Ex": 3212,
      "KEN": 3213,
      "Methinks": 3214,
      "Put": 3215,
      "Tut": 3216,
      "ault": 3217,
      "after": 3218,
      "con": 3219,
      "ek": 3220,
      "ead": 3221,
      "ered": 3222,
      "his": 3223,
      "oot": 3224,
      "pin": 3225,
      "roth": 3226,
      "rate": 3227,
      "shi": 3228,
      "ta": 3229,
      "vish": 3230,
      "Ġtaken": 3231,
      "Ġwither": 3232,
      "Ġba": 3233,
      "Ġbrow": 3234,
      "Ġbite": 3235,
      "Ġbrows": 3236,
      "Ġfain": 3237,
      "Ġfeed": 3238,
      "erona": 3239,
      "Ġdust": 3240,
      "Ġdull": 3241,
      "enance": 3242,
      "Ġthunder": 3243,
      "Ġpains": 3244,
      "anley": 3245,
      "Ġgown": 3246,
      "Ġgrown": 3247,
      "Ġgift": 3248,
      "Ġghost": 3249,
      "Ġgirl": 3250,
      "Ġbeha": 3251,
      "Ġmeat": 3252,
      "rift": 3253,
      "Ġstab": 3254,
      "Ġstoop": 3255,
      "idings": 3256,
      "ract": 3257,
      "arden": 3258,
      "Ġspe": 3259,
      "Ġspake": 3260,
      "Ġspring": 3261,
      "ilia": 3262,
      "ĠCatesby": 3263,
      "Ġknave": 3264,
      "AND": 3265,
      "Ġvice": 3266,
      "aste": 3267,
      "Ġshore": 3268,
      "Ġproof": 3269,
      "Ġblest": 3270,
      "Ġblind": 3271,
      "ement": 3272,
      "Ġsirrah": 3273,
      "Ġunl": 3274,
      "Ġquestion": 3275,
      "Ġjoint": 3276,
      "cians": 3277,
      "ĠWe": 3278,
      "ĠAl": 3279,
      "ĠAumerle": 3280,
      "Ġhonesty": 3281,
      "ursed": 3282,
      "Ġleaves": 3283,
      "Ġtwice": 3284,
      "aper": 3285,
      "ĠKeeper": 3286,
      "Ġprevent": 3287,
      "OMAS": 3288,
      "there": 3289,
      "ĠMars": 3290,
      "Ġrepent": 3291,
      "Ġtraitors": 3292,
      "twixt": 3293,
      "Ġimport": 3294,
      "Ġwrongs": 3295,
      "Ġburied": 3296,
      "ealous": 3297,
      "place": 3298,
      "Ġreasons": 3299,
      "Alack": 3300,
      "Ġsenate": 3301,
      "Ġgreen": 3302,
      "Ġaffair": 3303,
      "acher": 3304,
      "Ġchoice": 3305,
      "azed": 3306,
      "Ġdivine": 3307,
      "ĠCorioli": 3308,
      "Ġwhilst": 3309,
      "Ġstop": 3310,
      "Ġtyran": 3311,
      "Ġprophe": 3312,
      "Ġembrace": 3313,
      "Ġmalice": 3314,
      "BRAKEN": 3315,
      "ĠPlantagenet": 3316,
      "Ġsacred": 3317,
      "Ġfiery": 3318,
      "Ġinnocent": 3319,
      "ĠPaulina": 3320,
      "Ġleng": 3321,
      "ĠPrince": 3322,
      "Ġsafety": 3323,
      "ĠCominius": 3324,
      "BRAKENBURY": 3325,
      "?'": 3326,
      "Ad": 3327,
      "DER": 3328,
      "DON": 3329,
      "Edward": 3330,
      "GOR": 3331,
      "Hence": 3332,
      "Ind": 3333,
      "MIST": 3334,
      "Once": 3335,
      "Richard": 3336,
      "RESS": 3337,
      "cha": 3338,
      "draw": 3339,
      "eld": 3340,
      "go": 3341,
      "mn": 3342,
      "my": 3343,
      "more": 3344,
      "nat": 3345,
      "op": 3346,
      "oly": 3347,
      "oard": 3348,
      "pet": 3349,
      "port": 3350,
      "poll": 3351,
      "sic": 3352,
      "would": 3353,
      "Ġed": 3354,
      "ĠTo": 3355,
      "Ġavo": 3356,
      "Ġsits": 3357,
      "inous": 3358,
      "Ġwag": 3359,
      "Ġwings": 3360,
      "rehe": 3361,
      "Ġbark": 3362,
      "orry": 3363,
      "Ġfury": 3364,
      "Ġfinger": 3365,
      "erset": 3366,
      "itol": 3367,
      "Ġcustom": 3368,
      "enen": 3369,
      "anch": 3370,
      "omerset": 3371,
      "Ġgross": 3372,
      "Ġgarden": 3373,
      "Ġinform": 3374,
      "edious": 3375,
      "Ġused": 3376,
      "Ġweeds": 3377,
      "Ġele": 3378,
      "Ġeag": 3379,
      "Ġstones": 3380,
      "Ġdec": 3381,
      "Ġdoor": 3382,
      "Ġnose": 3383,
      "Ġallow": 3384,
      "think": 3385,
      "Ġanger": 3386,
      "ardine": 3387,
      "Ġloath": 3388,
      "Ġloyal": 3389,
      "ellow": 3390,
      "Ġfares": 3391,
      "Ġnecess": 3392,
      "Ġknight": 3393,
      "ctise": 3394,
      "Ġshr": 3395,
      "Ġoracle": 3396,
      "ĠOVER": 3397,
      "Myself": 3398,
      "hysic": 3399,
      "Ġmayor": 3400,
      "elve": 3401,
      "Ġhollow": 3402,
      "Ġsail": 3403,
      "Ġplague": 3404,
      "unning": 3405,
      "Ġround": 3406,
      "Ġfright": 3407,
      "icked": 3408,
      "Without": 3409,
      "Ġalways": 3410,
      "Ġrob": 3411,
      "Ġrock": 3412,
      "Ġwherein": 3413,
      "Ġdesign": 3414,
      "Wherein": 3415,
      "aughters": 3416,
      "Ġadieu": 3417,
      "Ġcommend": 3418,
      "Ġclaim": 3419,
      "Ġprevail": 3420,
      "Ġprayer": 3421,
      "PETER": 3422,
      "Ġplead": 3423,
      "Ġperceive": 3424,
      "Ġtroth": 3425,
      "Ġrude": 3426,
      "Ġtongues": 3427,
      "Ġsubst": 3428,
      "Ġsmile": 3429,
      "Ġimprison": 3430,
      "Ġcares": 3431,
      "GREGOR": 3432,
      "Ġdrawn": 3433,
      "Ġempt": 3434,
      "Ġwanton": 3435,
      "Ġassist": 3436,
      "unts": 3437,
      "Ġtempt": 3438,
      "Ġdeserve": 3439,
      "Ġdelight": 3440,
      "ĠCapitol": 3441,
      "Ġpractise": 3442,
      "Ġcheek": 3443,
      "Ġabsence": 3444,
      "ĠThomas": 3445,
      "Ġdrop": 3446,
      "Ġcreature": 3447,
      "Ġtrumpets": 3448,
      "Ġutter": 3449,
      "Ġlangu": 3450,
      "Ġignorant": 3451,
      "Brother": 3452,
      "Ġrotten": 3453,
      "Ġremedy": 3454,
      "Ġcirc": 3455,
      "ĠBarnardine": 3456,
      "DERBY": 3457,
      "DONE": 3458,
      "Indeed": 3459,
      "MISTRESS": 3460,
      "enenius": 3461,
      "ĠOVERDONE": 3462,
      "GREGORY": 3463,
      "Art": 3464,
      "CH": 3465,
      "Dost": 3466,
      "FORD": 3467,
      "OX": 3468,
      "Poor": 3469,
      "Res": 3470,
      "RICH": 3471,
      "SOM": 3472,
      "Turn": 3473,
      "VAL": 3474,
      "act": 3475,
      "dy": 3476,
      "eous": 3477,
      "mion": 3478,
      "sing": 3479,
      "thi": 3480,
      "what": 3481,
      "yard": 3482,
      "Ġes": 3483,
      "ĠWhere": 3484,
      "Ġtune": 3485,
      "Ġtidings": 3486,
      "Ġtedious": 3487,
      "held": 3488,
      "Ġaim": 3489,
      "Ġaught": 3490,
      "Ġship": 3491,
      "Ġsens": 3492,
      "Ġwent": 3493,
      "Ġwont": 3494,
      "Ġwives": 3495,
      "Ġwicked": 3496,
      "haps": 3497,
      "isa": 3498,
      "ises": 3499,
      "onounce": 3500,
      "Ġdur": 3501,
      "Ġcre": 3502,
      "Ġcell": 3503,
      "Ġcure": 3504,
      "Ġcarry": 3505,
      "Ġcries": 3506,
      "esy": 3507,
      "Ġnumber": 3508,
      "Ġlar": 3509,
      "Ġloud": 3510,
      "Ġthrust": 3511,
      "Ġhit": 3512,
      "Ġhid": 3513,
      "Ġpil": 3514,
      "Ġpair": 3515,
      "othe": 3516,
      "Ġbecomes": 3517,
      "cend": 3518,
      "utes": 3519,
      "iment": 3520,
      "rious": 3521,
      "Ġstar": 3522,
      "Ġstat": 3523,
      "Ġsteed": 3524,
      "ashi": 3525,
      "Ġreceive": 3526,
      "Ġasleep": 3527,
      "Ġdew": 3528,
      "Ġdeceived": 3529,
      "Ġdeposed": 3530,
      "Ġshar": 3531,
      "this": 3532,
      "ards": 3533,
      "hant": 3534,
      "Ġvantage": 3535,
      "ERIA": 3536,
      "ERSET": 3537,
      "ĠMusic": 3538,
      "Ġconj": 3539,
      "ongs": 3540,
      "ĠGrey": 3541,
      "Ġsheep": 3542,
      "Ġtherein": 3543,
      "ĠSic": 3544,
      "ĠSomerset": 3545,
      "Ġjealous": 3546,
      "ĠVerona": 3547,
      "Ġshouldst": 3548,
      "Ġproper": 3549,
      "Ġras": 3550,
      "Ġoutward": 3551,
      "Ġwhole": 3552,
      "Ġoffend": 3553,
      "ĠYour": 3554,
      "Ġalas": 3555,
      "Ġheav": 3556,
      "Ġearn": 3557,
      "eeth": 3558,
      "Ġmeaning": 3559,
      "aced": 3560,
      "Ġchief": 3561,
      "Ġbegins": 3562,
      "ĠJove": 3563,
      "Ġruin": 3564,
      "loved": 3565,
      "ission": 3566,
      "Ġresign": 3567,
      "Ġfollows": 3568,
      "Ġtread": 3569,
      "Ġtreacher": 3570,
      "ethought": 3571,
      "Ġbanished": 3572,
      "Ġpassing": 3573,
      "Ġwoful": 3574,
      "Ġdevise": 3575,
      "Ġfollowers": 3576,
      "Ġfools": 3577,
      "Ġmaids": 3578,
      "Show": 3579,
      "Ġadvise": 3580,
      "Ġgives": 3581,
      "itting": 3582,
      "Ġrememb": 3583,
      "Ġawake": 3584,
      "Ġborne": 3585,
      "Ġsupper": 3586,
      "Ġlamb": 3587,
      "Ġcondu": 3588,
      "aze": 3589,
      "Ġsilence": 3590,
      "Ġpossible": 3591,
      "Having": 3592,
      "Ġprofess": 3593,
      "Ġdespite": 3594,
      "MOND": 3595,
      "Ġgarments": 3596,
      "Ġcastle": 3597,
      "Ġthrive": 3598,
      "Ġexpress": 3599,
      "Ġundone": 3600,
      "Ġdreadful": 3601,
      "Ġbabe": 3602,
      "Ġprotect": 3603,
      "Besides": 3604,
      "Ġbroken": 3605,
      "Ġviolent": 3606,
      "ĠChristian": 3607,
      "Ġpubl": 3608,
      "Ġoccasion": 3609,
      "Ġnobles": 3610,
      "Into": 3611,
      "ursday": 3612,
      "Ġfatal": 3613,
      "Ġbelly": 3614,
      "Ġauthority": 3615,
      "Ġsimple": 3616,
      "Ġfarther": 3617,
      "Ġthroat": 3618,
      "Ġbenefit": 3619,
      "pinion": 3620,
      "Ġaffairs": 3621,
      "pollo": 3622,
      "OXFORD": 3623,
      "RICHMOND": 3624,
      "SOMERSET": 3625,
      "VALERIA": 3626,
      "mione": 3627,
      "AMIL": 3628,
      "BUS": 3629,
      "Great": 3630,
      "HY": 3631,
      "Hast": 3632,
      "LIUS": 3633,
      "MOP": 3634,
      "MAMIL": 3635,
      "Per": 3636,
      "Tybalt": 3637,
      "Tailor": 3638,
      "Very": 3639,
      "app": 3640,
      "cing": 3641,
      "can": 3642,
      "eg": 3643,
      "fl": 3644,
      "father": 3645,
      "gle": 3646,
      "iond": 3647,
      "oat": 3648,
      "pr": 3649,
      "ron": 3650,
      "son": 3651,
      "ub": 3652,
      "Ġer": 3653,
      "Ġir": 3654,
      "ĠThere": 3655,
      "Ġtort": 3656,
      "Ġtaste": 3657,
      "Ġsan": 3658,
      "Ġsix": 3659,
      "Ġsorry": 3660,
      "Ġwine": 3661,
      "Ġwander": 3662,
      "Ġband": 3663,
      "Ġbond": 3664,
      "erved": 3665,
      "itude": 3666,
      "Ġdet": 3667,
      "Ġdue": 3668,
      "Ġcal": 3669,
      "Ġcam": 3670,
      "Ġcunning": 3671,
      "ene": 3672,
      "enn": 3673,
      "Ġnine": 3674,
      "Ġnames": 3675,
      "Ġlend": 3676,
      "arch": 3677,
      "Ġtop": 3678,
      "Ġpin": 3679,
      "Ġpawn": 3680,
      "Ġpaper": 3681,
      "Ġphysic": 3682,
      "Ġgain": 3683,
      "Ġgage": 3684,
      "Ġbelike": 3685,
      "Ġbeheld": 3686,
      "Ġinfect": 3687,
      "ldom": 3688,
      "eding": 3689,
      "utation": 3690,
      "Ġweight": 3691,
      "Ġweap": 3692,
      "ills": 3693,
      "Ġequ": 3694,
      "enture": 3695,
      "Ġstore": 3696,
      "Ġstep": 3697,
      "Ġstock": 3698,
      "Ġstuff": 3699,
      "Ġrenown": 3700,
      "rand": 3701,
      "Ġlip": 3702,
      "Ġdeare": 3703,
      "room": 3704,
      "eave": 3705,
      "usion": 3706,
      "iffe": 3707,
      "Ġseas": 3708,
      "Ġsup": 3709,
      "run": 3710,
      "Ġange": 3711,
      "Ġlod": 3712,
      "ello": 3713,
      "Ġspend": 3714,
      "Ġspare": 3715,
      "hop": 3716,
      "Ġvan": 3717,
      "ouses": 3718,
      "Ġshut": 3719,
      "ustice": 3720,
      "ĠMOW": 3721,
      "ĠMenenius": 3722,
      "olix": 3723,
      "Ġsway": 3724,
      "Ġbrook": 3725,
      "Ġkingly": 3726,
      "ĠBona": 3727,
      "Ġunnat": 3728,
      "Ġquit": 3729,
      "ĠHarry": 3730,
      "imely": 3731,
      "Ġenvious": 3732,
      "Ġrash": 3733,
      "Ġdisd": 3734,
      "ABHOR": 3735,
      "Ġroom": 3736,
      "Ġexile": 3737,
      "Ġexcell": 3738,
      "Ġdesert": 3739,
      "Ġgentlewoman": 3740,
      "Ġflight": 3741,
      "Ġtwelve": 3742,
      "Ġparts": 3743,
      "Ġprey": 3744,
      "THOMAS": 3745,
      "Ġperil": 3746,
      "Ġperish": 3747,
      "Ġtrans": 3748,
      "iteous": 3749,
      "ĠFriar": 3750,
      "Ġwhither": 3751,
      "swain": 3752,
      "Ġuntil": 3753,
      "Ġaffect": 3754,
      "Ġlean": 3755,
      "Ġlegs": 3756,
      "orses": 3757,
      "Ġkeeps": 3758,
      "Ġaccus": 3759,
      "STANLEY": 3760,
      "Ġprize": 3761,
      "Ġpursu": 3762,
      "Ġchair": 3763,
      "Ġcountenance": 3764,
      "Ġpleased": 3765,
      "ounty": 3766,
      "Ġhumbly": 3767,
      "Ġcourtesy": 3768,
      "Ġadvantage": 3769,
      "Ġcurst": 3770,
      "ploy": 3771,
      "Ġspirits": 3772,
      "Two": 3773,
      "Ġintend": 3774,
      "Ġdenied": 3775,
      "ancy": 3776,
      "Ġdisposition": 3777,
      "Ġbetwixt": 3778,
      "Ġsilver": 3779,
      "Ġdelay": 3780,
      "Ġresolve": 3781,
      "ĠThursday": 3782,
      "Ġwedding": 3783,
      "Ġsighs": 3784,
      "Ġhurt": 3785,
      "BRAY": 3786,
      "Ġcolour": 3787,
      "Ġclear": 3788,
      "Ġowe": 3789,
      "Ġprepared": 3790,
      "Ġdamned": 3791,
      "Ġshadow": 3792,
      "Ġpleasant": 3793,
      "Ġforsworn": 3794,
      "Ġstorm": 3795,
      "Death": 3796,
      "Ġthreaten": 3797,
      "Ġconquer": 3798,
      "Ġpunish": 3799,
      "ĠCaius": 3800,
      "Ġcontrary": 3801,
      "EXETER": 3802,
      "Ġpalace": 3803,
      "Ġdinner": 3804,
      "Ġneighbour": 3805,
      "Ġmiserable": 3806,
      "Ġspeci": 3807,
      "Ġempty": 3808,
      "ĠMusician": 3809,
      "BUSHY": 3810,
      "MOPSA": 3811,
      "MAMILLIUS": 3812,
      "iondello": 3813,
      "Ġsanct": 3814,
      "ĠMOWBRAY": 3815,
      "olixenes": 3816,
      "ABHORSON": 3817,
      "CY": 3818,
      "Cousin": 3819,
      "Ed": 3820,
      "Know": 3821,
      "None": 3822,
      "Nothing": 3823,
      "Pre": 3824,
      "Ret": 3825,
      "Right": 3826,
      "Rem": 3827,
      "Rep": 3828,
      "Sc": 3829,
      "Sha": 3830,
      "Widow": 3831,
      "bow": 3832,
      "born": 3833,
      "grace": 3834,
      "hor": 3835,
      "hore": 3836,
      "lar": 3837,
      "mity": 3838,
      "oc": 3839,
      "oke": 3840,
      "par": 3841,
      "ping": 3842,
      "pic": 3843,
      "pass": 3844,
      "tune": 3845,
      "urious": 3846,
      "we": 3847,
      "wise": 3848,
      "yond": 3849,
      "ĠWhen": 3850,
      "Ġtut": 3851,
      "Ġtable": 3852,
      "Ġscept": 3853,
      "Ġmiss": 3854,
      "Ġmurderer": 3855,
      "Ġmaking": 3856,
      "Ġmotion": 3857,
      "Ġmourn": 3858,
      "Ġwot": 3859,
      "Ġwood": 3860,
      "Ġwol": 3861,
      "Ġwond": 3862,
      "rease": 3863,
      "Ġbas": 3864,
      "Ġbare": 3865,
      "Ġball": 3866,
      "Ġbud": 3867,
      "ising": 3868,
      "Ġfle": 3869,
      "Ġfro": 3870,
      "Ġfee": 3871,
      "Ġfashi": 3872,
      "erve": 3873,
      "Ġdi": 3874,
      "Ġdign": 3875,
      "Ġdies": 3876,
      "Ġdag": 3877,
      "Ġdaughters": 3878,
      "Ġcens": 3879,
      "Ġcup": 3880,
      "Ġcalm": 3881,
      "ency": 3882,
      "Ġnaked": 3883,
      "Ġyonder": 3884,
      "Ġopinion": 3885,
      "Ġpure": 3886,
      "Ġport": 3887,
      "Ġpainted": 3888,
      "Ġpiteous": 3889,
      "Ġheed": 3890,
      "ote": 3891,
      "ane": 3892,
      "Ġgate": 3893,
      "Ġbew": 3894,
      "Ġbeloved": 3895,
      "sequ": 3896,
      "irg": 3897,
      "Ġmend": 3898,
      "ourish": 3899,
      "Ġweigh": 3900,
      "rib": 3901,
      "Ġstory": 3902,
      "Ġreward": 3903,
      "urance": 3904,
      "Ġdebt": 3905,
      "Ġones": 3906,
      "ARCH": 3907,
      "amed": 3908,
      "Ġseest": 3909,
      "Three": 3910,
      "ruly": 3911,
      "thou": 3912,
      "Ġfail": 3913,
      "ERCY": 3914,
      "que": 3915,
      "Ġgoodness": 3916,
      "Ġpronounce": 3917,
      "Ġcomple": 3918,
      "ĠMessenger": 3919,
      "Ġamb": 3920,
      "Ġamen": 3921,
      "outs": 3922,
      "oler": 3923,
      "Ġhatred": 3924,
      "Ġtheirs": 3925,
      "ĠBiondello": 3926,
      "Ġarg": 3927,
      "igence": 3928,
      "Ġquench": 3929,
      "Ġhopes": 3930,
      "cio": 3931,
      "cian": 3932,
      "Ġseeing": 3933,
      "ĠPro": 3934,
      "ĠPeter": 3935,
      "ĠPisa": 3936,
      "ĠPolixenes": 3937,
      "ĠPERCY": 3938,
      "umble": 3939,
      "Ġplot": 3940,
      "Ġdiss": 3941,
      "Ġexpect": 3942,
      "Ġslow": 3943,
      "Ġado": 3944,
      "THAS": 3945,
      "ĠDid": 3946,
      "Ġperfect": 3947,
      "Ġperpet": 3948,
      "Ġwrath": 3949,
      "Thanks": 3950,
      "lesome": 3951,
      "ĠFl": 3952,
      "Ġremains": 3953,
      "Ġcrowns": 3954,
      "Ġhark": 3955,
      "Ġcourage": 3956,
      "Ġwits": 3957,
      "clock": 3958,
      "Ġaccess": 3959,
      "Ġaccuse": 3960,
      "Ġfolly": 3961,
      "Only": 3962,
      "Ġends": 3963,
      "Ġendure": 3964,
      "Ġneedful": 3965,
      "Still": 3966,
      "Ġbodies": 3967,
      "Ġjoys": 3968,
      "Ġjoyful": 3969,
      "Ġfortunes": 3970,
      "Ġmistake": 3971,
      "Ġnatural": 3972,
      "Ġhappiness": 3973,
      "Ġmisery": 3974,
      "Ġundertake": 3975,
      "Ġchide": 3976,
      "Ġattempt": 3977,
      "Ġadvance": 3978,
      "Ġcurses": 3979,
      "Ġemploy": 3980,
      "Ġassurance": 3981,
      "Ġpersu": 3982,
      "Ġdiscontent": 3983,
      "Ġsenators": 3984,
      "Ġcrack": 3985,
      "Ġintent": 3986,
      "Ġsometime": 3987,
      "Ġwounded": 3988,
      "Ġspoken": 3989,
      "Ġdrum": 3990,
      "Ġmarket": 3991,
      "cape": 3992,
      "Ġwaters": 3993,
      "Ġcursed": 3994,
      "Ġinstruct": 3995,
      "Ġinstrument": 3996,
      "ĠNap": 3997,
      "ĠRivers": 3998,
      "Ġterror": 3999,
      "Ġresolved": 4000,
      "chance": 4001,
      "Ġwhiles": 4002,
      "Ġcorrupt": 4003,
      "ney": 4004,
      "Ġburthen": 4005,
      "Ġgriev": 4006,
      "Ġduked": 4007,
      "Ġaccept": 4008,
      "Ġgroan": 4009,
      "BALTHAS": 4010,
      "Ġcolours": 4011,
      "Ġpenit": 4012,
      "Ġprotest": 4013,
      "Ġprinces": 4014,
      "Ġprincess": 4015,
      "ĠStanley": 4016,
      "Ġgovernment": 4017,
      "Prithee": 4018,
      "Ġobedience": 4019,
      "Ġpetition": 4020,
      "Ġsolemn": 4021,
      "Believe": 4022,
      "Ġcontinue": 4023,
      "Ġcredit": 4024,
      "Ġseveral": 4025,
      "hearted": 4026,
      "Ġwreck": 4027,
      "Ġlanguage": 4028,
      "Ġcircum": 4029,
      "Ġdurst": 4030,
      "Ġremembrance": 4031,
      "Ġpublic": 4032,
      "Ġunnatural": 4033,
      "picion": 4034,
      "Ġdukedom": 4035,
      "BALTHASAR": 4036,
      "?--": 4037,
      "Ar": 4038,
      "App": 4039,
      "AEd": 4040,
      "Bear": 4041,
      "Boat": 4042,
      "Father": 4043,
      "FOL": 4044,
      "Heaven": 4045,
      "Love": 4046,
      "Might": 4047,
      "Mark": 4048,
      "OS": 4049,
      "Post": 4050,
      "Page": 4051,
      "Save": 4052,
      "afe": 4053,
      "bear": 4054,
      "do": 4055,
      "dds": 4056,
      "ex": 4057,
      "fer": 4058,
      "gers": 4059,
      "how": 4060,
      "ipe": 4061,
      "just": 4062,
      "lic": 4063,
      "oe": 4064,
      "oved": 4065,
      "ped": 4066,
      "pro": 4067,
      "sc": 4068,
      "same": 4069,
      "time": 4070,
      "uary": 4071,
      "val": 4072,
      "vours": 4073,
      "yr": 4074,
      "ĠNay": 4075,
      "ĠThey": 4076,
      "Ġtest": 4077,
      "Ġteeth": 4078,
      "hest": 4079,
      "Ġsink": 4080,
      "Ġsins": 4081,
      "Ġmag": 4082,
      "Ġmile": 4083,
      "ination": 4084,
      "happy": 4085,
      "ishop": 4086,
      "Ġfame": 4087,
      "erd": 4088,
      "ita": 4089,
      "Ġcock": 4090,
      "Ġcease": 4091,
      "ences": 4092,
      "Ġnought": 4093,
      "Ġled": 4094,
      "aries": 4095,
      "Ġhost": 4096,
      "Ġhunt": 4097,
      "Ġhouses": 4098,
      "Ġhorses": 4099,
      "Ġodd": 4100,
      "Ġobs": 4101,
      "Ġodds": 4102,
      "Ġtomb": 4103,
      "Ġpol": 4104,
      "Ġpowers": 4105,
      "strous": 4106,
      "omp": 4107,
      "omen": 4108,
      "atic": 4109,
      "atience": 4110,
      "Ġbeyond": 4111,
      "Ġhaz": 4112,
      "uted": 4113,
      "Ġmere": 4114,
      "Ġisle": 4115,
      "Ġisland": 4116,
      "ourage": 4117,
      "Ġeast": 4118,
      "Ġits": 4119,
      "Ġkin": 4120,
      "idence": 4121,
      "Ġrepe": 4122,
      "Ġrealm": 4123,
      "Ġshape": 4124,
      "uses": 4125,
      "ified": 4126,
      "Ġseize": 4127,
      "Those": 4128,
      "Ġspite": 4129,
      "Ġfaces": 4130,
      "ĠCan": 4131,
      "ĠCal": 4132,
      "ĠROS": 4133,
      "Ġvault": 4134,
      "Ġvirg": 4135,
      "Ġshun": 4136,
      "ants": 4137,
      "Ġcomest": 4138,
      "Ġmanners": 4139,
      "ĠEl": 4140,
      "icular": 4141,
      "Ġconc": 4142,
      "ieved": 4143,
      "Ġblock": 4144,
      "Ġblush": 4145,
      "ĠGood": 4146,
      "ared": 4147,
      "arent": 4148,
      "olute": 4149,
      "Ġhereafter": 4150,
      "Ġswallow": 4151,
      "Ġbrings": 4152,
      "ĠSo": 4153,
      "ĠBl": 4154,
      "elt": 4155,
      "Ġqual": 4156,
      "Ġjour": 4157,
      "Young": 4158,
      "akest": 4159,
      "ument": 4160,
      "Ġfathers": 4161,
      "ĠWho": 4162,
      "Ġenmity": 4163,
      "Ġring": 4164,
      "CAS": 4165,
      "ĠYet": 4166,
      "Ġalter": 4167,
      "Ġlooking": 4168,
      "Ġfriendly": 4169,
      "Ġslay": 4170,
      "Ġflies": 4171,
      "ĠTake": 4172,
      "Ġfairly": 4173,
      "tled": 4174,
      "Ġadvers": 4175,
      "Ġclo": 4176,
      "Ġwrite": 4177,
      "Ġtrade": 4178,
      "Ġways": 4179,
      "Ġscope": 4180,
      "Ġscene": 4181,
      "aintain": 4182,
      "they": 4183,
      "Ġkey": 4184,
      "ĠFrench": 4185,
      "Ġapprehe": 4186,
      "Ġcontract": 4187,
      "Ġwhore": 4188,
      "Ġarmour": 4189,
      "ctions": 4190,
      "Ġuntimely": 4191,
      "ression": 4192,
      "Ġimm": 4193,
      "Ġrepair": 4194,
      "Ġrule": 4195,
      "Ġleads": 4196,
      "Ġslept": 4197,
      "Ġaccord": 4198,
      "Ġpurcha": 4199,
      "Ġcompass": 4200,
      "orset": 4201,
      "Ġseeming": 4202,
      "Ġbrain": 4203,
      "Ġglorious": 4204,
      "Ġimposs": 4205,
      "Ġpassage": 4206,
      "Ġmaiden": 4207,
      "Ġhateful": 4208,
      "Ġstrew": 4209,
      "Ġturns": 4210,
      "uteous": 4211,
      "Ġinstant": 4212,
      "Ġboar": 4213,
      "Ġwants": 4214,
      "NORFOL": 4215,
      "Ġdiscover": 4216,
      "Ġcommanded": 4217,
      "Ġhanging": 4218,
      "Ġcontented": 4219,
      "Ġdares": 4220,
      "Ġfreely": 4221,
      "Ġgrey": 4222,
      "Ġservices": 4223,
      "Ġtemper": 4224,
      "Ġdrums": 4225,
      "Ġcholer": 4226,
      "Ġgrows": 4227,
      "Ġdeserves": 4228,
      "noon": 4229,
      "ĠLucio": 4230,
      "Ġgranted": 4231,
      "Comm": 4232,
      "Ġterms": 4233,
      "Ġincrease": 4234,
      "Ġresolution": 4235,
      "Ġshortly": 4236,
      "Ġvex": 4237,
      "Ġpraise": 4238,
      "Ġabsent": 4239,
      "Ġvenom": 4240,
      "Ġdrops": 4241,
      "Ġprivile": 4242,
      "Ġrespected": 4243,
      "Ġframe": 4244,
      "Beseech": 4245,
      "Ġapproach": 4246,
      "Ġcomplain": 4247,
      "Ġtorment": 4248,
      "Ġunknown": 4249,
      "Ġprosperous": 4250,
      "DORCAS": 4251,
      "Ġsuspicion": 4252,
      "Ġreverend": 4253,
      "Ġapparel": 4254,
      "Ġcaptain": 4255,
      "Ġdegree": 4256,
      "ĠHermione": 4257,
      "Ġsmooth": 4258,
      "Ġlarge": 4259,
      "Ġsharp": 4260,
      "Ġearnest": 4261,
      "Ġcamest": 4262,
      "Ġdisdain": 4263,
      "Ġexcellent": 4264,
      "Ġsceptre": 4265,
      "Ġdagger": 4266,
      "ĠNaples": 4267,
      "Boatswain": 4268,
      "ĠROSS": 4269,
      "NORFOLK": 4270,
      "Amen": 4271,
      "Boy": 4272,
      "Came": 4273,
      "Cons": 4274,
      "DIN": 4275,
      "Dear": 4276,
      "FER": 4277,
      "GH": 4278,
      "Ghost": 4279,
      "Has": 4280,
      "Long": 4281,
      "Mistress": 4282,
      "NS": 4283,
      "Please": 4284,
      "RR": 4285,
      "Roman": 4286,
      "Set": 4287,
      "Wilt": 4288,
      "Worthy": 4289,
      "aces": 4290,
      "aily": 4291,
      "bri": 4292,
      "bra": 4293,
      "dis": 4294,
      "fret": 4295,
      "gl": 4296,
      "gar": 4297,
      "iven": 4298,
      "iate": 4299,
      "ipp": 4300,
      "kin": 4301,
      "ker": 4302,
      "law": 4303,
      "pul": 4304,
      "uce": 4305,
      "wife": 4306,
      "ĠTherefore": 4307,
      "Ġtame": 4308,
      "Ġtaught": 4309,
      "Ġtap": 4310,
      "Ġtide": 4311,
      "Ġable": 4312,
      "Ġsqu": 4313,
      "Ġsouth": 4314,
      "Ġmor": 4315,
      "Ġmill": 4316,
      "Ġmessenger": 4317,
      "iny": 4318,
      "reg": 4319,
      "reland": 4320,
      "reme": 4321,
      "Ġbird": 4322,
      "Ġbury": 4323,
      "isper": 4324,
      "Ġfig": 4325,
      "Ġfurn": 4326,
      "itus": 4327,
      "Ġdig": 4328,
      "Ġdress": 4329,
      "Ġdaily": 4330,
      "Ġchat": 4331,
      "Ġcatch": 4332,
      "Ġlark": 4333,
      "Ġthorn": 4334,
      "Ġthief": 4335,
      "Ġparent": 4336,
      "ĠIreland": 4337,
      "ances": 4338,
      "omans": 4339,
      "ater": 4340,
      "ature": 4341,
      "atcl": 4342,
      "Ġbef": 4343,
      "Ġbeard": 4344,
      "Ġbethink": 4345,
      "Ġmeant": 4346,
      "Ġweather": 4347,
      "Ġwept": 4348,
      "ades": 4349,
      "ricians": 4350,
      "Ġstol": 4351,
      "Ġstamp": 4352,
      "Ġrej": 4353,
      "Ġrecom": 4354,
      "Ġrevol": 4355,
      "Ġlion": 4356,
      "aline": 4357,
      "Ġwilling": 4358,
      "Ġwillingly": 4359,
      "Ġnobl": 4360,
      "Ġnobly": 4361,
      "andal": 4362,
      "Ġseason": 4363,
      "Ġsull": 4364,
      "Ġsuck": 4365,
      "Ġspr": 4366,
      "Ġspur": 4367,
      "ĠCo": 4368,
      "ĠCons": 4369,
      "Ġknife": 4370,
      "ĠRos": 4371,
      "ĠRomans": 4372,
      "Ġvows": 4373,
      "Ġcomb": 4374,
      "ĠMay": 4375,
      "ĠMil": 4376,
      "Ġamazed": 4377,
      "Ġconce": 4378,
      "Ġconceit": 4379,
      "Ġconstant": 4380,
      "ember": 4381,
      "Help": 4382,
      "Ġlovely": 4383,
      "Ġswell": 4384,
      "ĠST": 4385,
      "ĠBe": 4386,
      "ĠBer": 4387,
      "Ġunless": 4388,
      "Ġworn": 4389,
      "Ġworthi": 4390,
      "Ġjew": 4391,
      "Ġmuster": 4392,
      "Ġprovo": 4393,
      "ĠPray": 4394,
      "Ġruth": 4395,
      "ĠAd": 4396,
      "ĠApollo": 4397,
      "Ġdisper": 4398,
      "Ġabhor": 4399,
      "Ġroar": 4400,
      "Ġrogue": 4401,
      "Ġtells": 4402,
      "Ġwhereof": 4403,
      "Ġwarlike": 4404,
      "Ġhasty": 4405,
      "Ġfears": 4406,
      "Ġgreatest": 4407,
      "oldier": 4408,
      "Ġparticular": 4409,
      "Ġadver": 4410,
      "Ġcommitted": 4411,
      "Ġclam": 4412,
      "ĠDo": 4413,
      "Ġperj": 4414,
      "Ġperforce": 4415,
      "Ġwrought": 4416,
      "liament": 4417,
      "Ġnorth": 4418,
      "Ġpress": 4419,
      "Ġrap": 4420,
      "Ġraise": 4421,
      "ĠFarewell": 4422,
      "Ġbegun": 4423,
      "forth": 4424,
      "ĠJack": 4425,
      "Ġconsider": 4426,
      "Ġpeers": 4427,
      "love": 4428,
      "Ġwitch": 4429,
      "Ġaccused": 4430,
      "Ġkindly": 4431,
      "Ġcompan": 4432,
      "Ġsmiles": 4433,
      "Ġcounty": 4434,
      "Ġfinds": 4435,
      "Stri": 4436,
      "Ġbraw": 4437,
      "Ġcharged": 4438,
      "Ġpassion": 4439,
      "Clarence": 4440,
      "Ġholds": 4441,
      "GREEN": 4442,
      "Ġstreets": 4443,
      "Ġbuild": 4444,
      "Ġsoundly": 4445,
      "Ġserves": 4446,
      "Ġboots": 4447,
      "Ġadvice": 4448,
      "Ġcurrent": 4449,
      "Ġrevenged": 4450,
      "Ġassured": 4451,
      "Ġsends": 4452,
      "Ġgiving": 4453,
      "Ġwinds": 4454,
      "Ġhanged": 4455,
      "Ġdarest": 4456,
      "Ġintell": 4457,
      "Ġsupposed": 4458,
      "Ġafford": 4459,
      "ALONS": 4460,
      "Whither": 4461,
      "Ġhardly": 4462,
      "Ġprofit": 4463,
      "Ġparliament": 4464,
      "Ġrecord": 4465,
      "Ġveins": 4466,
      "Ġwaste": 4467,
      "Ġstopp": 4468,
      "Until": 4469,
      "Ġpieces": 4470,
      "Ġwait": 4471,
      "Ġgarland": 4472,
      "Ġgrieve": 4473,
      "Ġsky": 4474,
      "Ġforbear": 4475,
      "ĠPomfret": 4476,
      "Ġdirect": 4477,
      "Ġgroans": 4478,
      "Ġthrice": 4479,
      "Ġestate": 4480,
      "erns": 4481,
      "TYRR": 4482,
      "Ġoppos": 4483,
      "Ġdestroy": 4484,
      "About": 4485,
      "Ġurged": 4486,
      "Ġaffections": 4487,
      "Ġfamous": 4488,
      "Ġhaply": 4489,
      "DORSET": 4490,
      "Supp": 4491,
      "Ġlusty": 4492,
      "Ġelder": 4493,
      "Ġstudy": 4494,
      "Ġcounterfeit": 4495,
      "Gentlemen": 4496,
      "Ġarrived": 4497,
      "Ġbehalf": 4498,
      "ĠMarshal": 4499,
      "Ġavoid": 4500,
      "Ġimprisonment": 4501,
      "untsman": 4502,
      "Ġrascal": 4503,
      "Ġtreacherous": 4504,
      "Ġconduct": 4505,
      "Ġprotector": 4506,
      "Ġspecial": 4507,
      "Ġsanctuary": 4508,
      "Ġperpetual": 4509,
      "Ġgrievous": 4510,
      "AEdile": 4511,
      "Ġvirgin": 4512,
      "Ġjourney": 4513,
      "DINAND": 4514,
      "FERDINAND": 4515,
      "atcliff": 4516,
      "ĠConspir": 4517,
      "ALONSO": 4518,
      "TYRREL": 4519,
      ";--": 4520,
      "Acc": 4521,
      "Bring": 4522,
      "Coriol": 4523,
      "Keep": 4524,
      "Leave": 4525,
      "Makes": 4526,
      "Vols": 4527,
      "af": 4528,
      "cure": 4529,
      "des": 4530,
      "dig": 4531,
      "eat": 4532,
      "erer": 4533,
      "fess": 4534,
      "fellow": 4535,
      "faced": 4536,
      "grim": 4537,
      "groom": 4538,
      "ib": 4539,
      "iving": 4540,
      "ienn": 4541,
      "lanch": 4542,
      "master": 4543,
      "mory": 4544,
      "maid": 4545,
      "nal": 4546,
      "sha": 4547,
      "ser": 4548,
      "some": 4549,
      "ties": 4550,
      "upt": 4551,
      "vior": 4552,
      "wear": 4553,
      "xeter": 4554,
      "zz": 4555,
      "Ġz": 4556,
      "Ġing": 4557,
      "ĠThen": 4558,
      "Ġtask": 4559,
      "Ġach": 4560,
      "Ġapt": 4561,
      "Ġaunt": 4562,
      "Ġsy": 4563,
      "Ġsal": 4564,
      "Ġsire": 4565,
      "Ġmult": 4566,
      "Ġmaintain": 4567,
      "Ġwing": 4568,
      "Ġwide": 4569,
      "Ġwhip": 4570,
      "Ġwaking": 4571,
      "reen": 4572,
      "Ġbade": 4573,
      "isbury": 4574,
      "Ġfi": 4575,
      "Ġfood": 4576,
      "Ġfrow": 4577,
      "Ġfun": 4578,
      "Ġfeet": 4579,
      "Ġfires": 4580,
      "Ġfancy": 4581,
      "erity": 4582,
      "erby": 4583,
      "itation": 4584,
      "onci": 4585,
      "Ġdow": 4586,
      "Ġdim": 4587,
      "Ġdri": 4588,
      "Ġdying": 4589,
      "Ġcher": 4590,
      "Ġcaught": 4591,
      "Ġcere": 4592,
      "esar": 4593,
      "essel": 4594,
      "enant": 4595,
      "Ġnail": 4596,
      "Ġlin": 4597,
      "Ġyond": 4598,
      "Ġyoke": 4599,
      "Ġthird": 4600,
      "Ġhor": 4601,
      "Ġhie": 4602,
      "Ġpi": 4603,
      "Ġpot": 4604,
      "Ġpound": 4605,
      "Ġpurse": 4606,
      "Ġpier": 4607,
      "vet": 4608,
      "ative": 4609,
      "sell": 4610,
      "Ġinqu": 4611,
      "etite": 4612,
      "eder": 4613,
      "utenant": 4614,
      "Ġmelt": 4615,
      "Ġmelanch": 4616,
      "Ġfors": 4617,
      "Ġforced": 4618,
      "Ġforfeit": 4619,
      "ourse": 4620,
      "ourth": 4621,
      "Ġevent": 4622,
      "adv": 4623,
      "aded": 4624,
      "rick": 4625,
      "Ġsting": 4626,
      "Ġstro": 4627,
      "Ġstout": 4628,
      "Ġstret": 4629,
      "Ġstroke": 4630,
      "Ġreck": 4631,
      "rac": 4632,
      "ales": 4633,
      "alisbury": 4634,
      "Ġsore": 4635,
      "Ġsooth": 4636,
      "Ġdeceit": 4637,
      "roll": 4638,
      "ested": 4639,
      "earer": 4640,
      "amb": 4641,
      "ams": 4642,
      "aming": 4643,
      "Ġsees": 4644,
      "Ġalliance": 4645,
      "Ġsue": 4646,
      "ruction": 4647,
      "ellion": 4648,
      "Ġsple": 4649,
      "ilence": 4650,
      "Ġknaves": 4651,
      "Ġvessel": 4652,
      "ulate": 4653,
      "arts": 4654,
      "nty": 4655,
      "ĠExeter": 4656,
      "icy": 4657,
      "Ġconfe": 4658,
      "Ġblunt": 4659,
      "ĠGive": 4660,
      "ares": 4661,
      "ĠLe": 4662,
      "Ġsaying": 4663,
      "ĠSoldier": 4664,
      "Ġunjust": 4665,
      "Ġunhappy": 4666,
      "ignty": 4667,
      "LIS": 4668,
      "Ġgraves": 4669,
      "ĠWell": 4670,
      "Ġenforce": 4671,
      "deem": 4672,
      "ĠAll": 4673,
      "ĠAway": 4674,
      "irect": 4675,
      "harge": 4676,
      "Ġoffended": 4677,
      "Ġdissem": 4678,
      "Ġdisgrace": 4679,
      "Ġalack": 4680,
      "Ġalike": 4681,
      "Ġalthough": 4682,
      "Ġabide": 4683,
      "Ġaboard": 4684,
      "Noble": 4685,
      "Ġrose": 4686,
      "Ġexchange": 4687,
      "Soft": 4688,
      "ages": 4689,
      "Ġdesires": 4690,
      "Ġdescend": 4691,
      "Ġslaves": 4692,
      "Ġflood": 4693,
      "Ġflatt": 4694,
      "Ġtwain": 4695,
      "ĠTitus": 4696,
      "Ġbetray": 4697,
      "Ġbetimes": 4698,
      "Ġnewly": 4699,
      "Ġparting": 4700,
      "Ġpartly": 4701,
      "Ġcalled": 4702,
      "Ġcommons": 4703,
      "Ġcommission": 4704,
      "Ġstanding": 4705,
      "Ġclim": 4706,
      "ĠDe": 4707,
      "ĠDorset": 4708,
      "ĠDerby": 4709,
      "ullus": 4710,
      "Ġwrink": 4711,
      "Ġbearing": 4712,
      "aints": 4713,
      "Ġrare": 4714,
      "thee": 4715,
      "ĠFroth": 4716,
      "Ġappeal": 4717,
      "Ġappetite": 4718,
      "Ġcontempt": 4719,
      "Ġwhisper": 4720,
      "Ġimage": 4721,
      "ĠMarian": 4722,
      "forced": 4723,
      "Ġrust": 4724,
      "Ġruled": 4725,
      "Ġhousehold": 4726,
      "Ġrestra": 4727,
      "ercy": 4728,
      "Ġsets": 4729,
      "clam": 4730,
      "osing": 4731,
      "Ġresist": 4732,
      "Ġtrick": 4733,
      "Ġputs": 4734,
      "Ġpowerful": 4735,
      "Ġchase": 4736,
      "Ġcharac": 4737,
      "Ġsmell": 4738,
      "Ġtreasure": 4739,
      "Ġbrace": 4740,
      "iety": 4741,
      "Ġmistrust": 4742,
      "Ġnative": 4743,
      "Ġboys": 4744,
      "Ġweeps": 4745,
      "Ġpatricians": 4746,
      "Ġbelow": 4747,
      "Lords": 4748,
      "Ġfalsehood": 4749,
      "Ġsovereignty": 4750,
      "ouchs": 4751,
      "Ġassure": 4752,
      "Ġsecure": 4753,
      "Twere": 4754,
      "Ġsometimes": 4755,
      "Ġoaths": 4756,
      "Ġmerit": 4757,
      "upon": 4758,
      "Ġfaithful": 4759,
      "Ġdefence": 4760,
      "Ġaffli": 4761,
      "Ġsurely": 4762,
      "should": 4763,
      "Ġsilent": 4764,
      "Ġinstruments": 4765,
      "Cannot": 4766,
      "Ġbeholding": 4767,
      "Ġreconci": 4768,
      "Ġago": 4769,
      "Ġagree": 4770,
      "Ġcorre": 4771,
      "Ġsingle": 4772,
      "Ġbreathed": 4773,
      "Ġforgive": 4774,
      "Ġweakness": 4775,
      "Ġprett": 4776,
      "Ġsickness": 4777,
      "Ġregal": 4778,
      "Ġregard": 4779,
      "Ġmouths": 4780,
      "Ġbooks": 4781,
      "Ġbarren": 4782,
      "Ġbeasts": 4783,
      "Ġtrumpet": 4784,
      "eeming": 4785,
      "Ġpitch": 4786,
      "Ġshield": 4787,
      "Ġunkind": 4788,
      "Ġtempest": 4789,
      "Ġsuspect": 4790,
      "Ġobedient": 4791,
      "Ġreverence": 4792,
      "Ġapparent": 4793,
      "Ġentertainment": 4794,
      "ĠAnti": 4795,
      "Ġdetermined": 4796,
      "Ġhelm": 4797,
      "Ġgently": 4798,
      "Ġholp": 4799,
      "Ġfairest": 4800,
      "Ġtremble": 4801,
      "shire": 4802,
      "Ġstabb": 4803,
      "Ġtyranny": 4804,
      "Ġlength": 4805,
      "Ġpilgrim": 4806,
      "ĠSicilia": 4807,
      "Ġequal": 4808,
      "Ġfashion": 4809,
      "Ġdignity": 4810,
      "Ġcomplex": 4811,
      "Ġcircumst": 4812,
      "yrrel": 4813,
      "Ġaccording": 4814,
      "Ġimpossible": 4815,
      "Ġrejo": 4816,
      "ĠRosaline": 4817,
      "ĠMayor": 4818,
      "ĠMilan": 4819,
      "Volsce": 4820,
      "ienna": 4821,
      "Ġfroward": 4822,
      "Ġmelancholy": 4823,
      "Ġconference": 4824,
      ".--": 4825,
      "AD": 4826,
      "Cry": 4827,
      "Cond": 4828,
      "CLE": 4829,
      "Down": 4830,
      "Draw": 4831,
      "Each": 4832,
      "Fl": 4833,
      "FRO": 4834,
      "Fair": 4835,
      "Hail": 4836,
      "IL": 4837,
      "IT": 4838,
      "Im": 4839,
      "Kn": 4840,
      "King": 4841,
      "Lay": 4842,
      "Lie": 4843,
      "Lady": 4844,
      "Many": 4845,
      "OMEN": 4846,
      "PH": 4847,
      "Qu": 4848,
      "Ri": 4849,
      "Sm": 4850,
      "Son": 4851,
      "Somet": 4852,
      "Tush": 4853,
      "UGH": 4854,
      "Warwick": 4855,
      "Ye": 4856,
      "acc": 4857,
      "action": 4858,
      "bod": 4859,
      "bation": 4860,
      "cra": 4861,
      "cary": 4862,
      "cceed": 4863,
      "eb": 4864,
      "eve": 4865,
      "fa": 4866,
      "fold": 4867,
      "foot": 4868,
      "give": 4869,
      "iver": 4870,
      "iam": 4871,
      "kind": 4872,
      "long": 4873,
      "look": 4874,
      "mong": 4875,
      "ns": 4876,
      "nes": 4877,
      "new": 4878,
      "rs": 4879,
      "rat": 4880,
      "rough": 4881,
      "say": 4882,
      "sues": 4883,
      "than": 4884,
      "tic": 4885,
      "teen": 4886,
      "tles": 4887,
      "uries": 4888,
      "war": 4889,
      "weal": 4890,
      "xe": 4891,
      "Ġtim": 4892,
      "Ġtres": 4893,
      "Ġtall": 4894,
      "Ġtakes": 4895,
      "Ġtarry": 4896,
      "Ġtaunt": 4897,
      "here": 4898,
      "Ġaxe": 4899,
      "oubt": 4900,
      "Ġsalt": 4901,
      "Ġsnow": 4902,
      "Ġmir": 4903,
      "Ġmood": 4904,
      "Ġmess": 4905,
      "Ġmirth": 4906,
      "inct": 4907,
      "Ġwid": 4908,
      "Ġwest": 4909,
      "Ġwake": 4910,
      "Ġwink": 4911,
      "hand": 4912,
      "Ġbir": 4913,
      "Ġbuck": 4914,
      "ories": 4915,
      "ering": 4916,
      "erves": 4917,
      "iter": 4918,
      "itable": 4919,
      "onation": 4920,
      "Ġdiffe": 4921,
      "Ġcost": 4922,
      "Ġchall": 4923,
      "Ġciv": 4924,
      "Ġnap": 4925,
      "Ġlent": 4926,
      "Ġline": 4927,
      "Ġlap": 4928,
      "Ġyes": 4929,
      "Ġthir": 4930,
      "Ġthick": 4931,
      "Ġthread": 4932,
      "Ġhorn": 4933,
      "Ġoak": 4934,
      "Ġope": 4935,
      "Ġtoad": 4936,
      "Ġtoil": 4937,
      "Ġtooth": 4938,
      "Ġpee": 4939,
      "Ġpause": 4940,
      "ĠIta": 4941,
      "othes": 4942,
      "stable": 4943,
      "stery": 4944,
      "aning": 4945,
      "omach": 4946,
      "Ġgru": 4947,
      "Ġgaze": 4948,
      "Ġmystery": 4949,
      "Ġinfection": 4950,
      "Ġmemory": 4951,
      "imble": 4952,
      "illy": 4953,
      "illing": 4954,
      "herit": 4955,
      "Ġste": 4956,
      "Ġstick": 4957,
      "Ġstumble": 4958,
      "asp": 4959,
      "ases": 4960,
      "Ġrece": 4961,
      "Ġreap": 4962,
      "Ġredeem": 4963,
      "Ġlift": 4964,
      "Ġliken": 4965,
      "alse": 4966,
      "Ġdeb": 4967,
      "Ġdeck": 4968,
      "Ġdecl": 4969,
      "Ġsham": 4970,
      "ushy": 4971,
      "ushes": 4972,
      "Ġsell": 4973,
      "Ġseiz": 4974,
      "Ġseldom": 4975,
      "Ġsepul": 4976,
      "Through": 4977,
      "Ġsuper": 4978,
      "Ġsuitor": 4979,
      "Ġsucceed": 4980,
      "thing": 4981,
      "Ġlover": 4982,
      "Ġlovest": 4983,
      "Ġspl": 4984,
      "Ġspy": 4985,
      "Ġfact": 4986,
      "Ġfawn": 4987,
      "Ġnegle": 4988,
      "Ġknot": 4989,
      "Ġvar": 4990,
      "Ġvill": 4991,
      "Ġvol": 4992,
      "Ġshri": 4993,
      "ulf": 4994,
      "seless": 4995,
      "artius": 4996,
      "Ġmanif": 4997,
      "Ġmanage": 4998,
      "ĠMin": 4999,
      "ical": 5000,
      "icles": 5001,
      "ĠLau": 5002,
      "ĠLartius": 5003,
      "Ġhated": 5004,
      "LOUGH": 5005,
      "ersu": 5006,
      "Ġswain": 5007,
      "Ġbran": 5008,
      "pping": 5009,
      "ĠSalisbury": 5010,
      "Ġunwill": 5011,
      "Whether": 5012,
      "Ġjot": 5013,
      "ĠHis": 5014,
      "ĠHeaven": 5015,
      "ĠVen": 5016,
      "ĠVienna": 5017,
      "cies": 5018,
      "Ġshoulder": 5019,
      "ĠPerd": 5020,
      "ĠWIL": 5021,
      "Ġdeaths": 5022,
      "Ġheartily": 5023,
      "Ġwholesome": 5024,
      "Ġmarks": 5025,
      "Ġoffic": 5026,
      "Ġdisple": 5027,
      "Ġdisgu": 5028,
      "Ġabused": 5029,
      "Ġexerc": 5030,
      "Ġdescent": 5031,
      "Ġripe": 5032,
      "Ġride": 5033,
      "ased": 5034,
      "Ġleague": 5035,
      "Ġslip": 5036,
      "Ġwarri": 5037,
      "ĠTar": 5038,
      "ĠTell": 5039,
      "ĠTyrrel": 5040,
      "Ġbred": 5041,
      "Ġheavenly": 5042,
      "Ġclothes": 5043,
      "Ġsweeter": 5044,
      "Ġperhaps": 5045,
      "Ġscold": 5046,
      "Ġscandal": 5047,
      "Ġrain": 5048,
      "Ġrail": 5049,
      "Ġraised": 5050,
      "Ġappointed": 5051,
      "Ġwhit": 5052,
      "Ġremorse": 5053,
      "Ġremove": 5054,
      "Ġremoved": 5055,
      "ĠLords": 5056,
      "Ġbegan": 5057,
      "Ġrepose": 5058,
      "Ġharsh": 5059,
      "Ġkeeper": 5060,
      "Ġaccident": 5061,
      "Ġaccursed": 5062,
      "Ġyounger": 5063,
      "Ġyoungest": 5064,
      "Ġprick": 5065,
      "Ġdearly": 5066,
      "Ġsubtle": 5067,
      "RIAN": 5068,
      "Ġrights": 5069,
      "fortune": 5070,
      "Ġminds": 5071,
      "Ġcoff": 5072,
      "Ġdevotion": 5073,
      "Ġmischance": 5074,
      "Ġmeeting": 5075,
      "Ġafternoon": 5076,
      "Ġcareless": 5077,
      "Uncle": 5078,
      "Ġgriefs": 5079,
      "Anon": 5080,
      "Ġhuman": 5081,
      "Ġcounc": 5082,
      "Ġgrat": 5083,
      "Ġretire": 5084,
      "Ġserved": 5085,
      "Ġadventure": 5086,
      "Ġcurt": 5087,
      "Ġcountrymen": 5088,
      "Ġvirtues": 5089,
      "Ġwindows": 5090,
      "itten": 5091,
      "Ġcraves": 5092,
      "Ġcraft": 5093,
      "Ġbeauteous": 5094,
      "Ġstranger": 5095,
      "Ġyielded": 5096,
      "Ġsupply": 5097,
      "Ġcommonweal": 5098,
      "Ġmonstrous": 5099,
      "Ġmonument": 5100,
      "Didst": 5101,
      "soever": 5102,
      "Ġgrowing": 5103,
      "Ġheirs": 5104,
      "Ġvisage": 5105,
      "Ġpoints": 5106,
      "Ġstronger": 5107,
      "Ġtrusty": 5108,
      "Ġinstruction": 5109,
      "Ġinfant": 5110,
      "Ġforeign": 5111,
      "Ġincen": 5112,
      "Ġfeeling": 5113,
      "Ġburst": 5114,
      "Ġplainly": 5115,
      "Ġabsolute": 5116,
      "Ġfourteen": 5117,
      "Ġselfsame": 5118,
      "Ġfrowns": 5119,
      "Ġdirection": 5120,
      "Ġredress": 5121,
      "Ġsatisfy": 5122,
      "Ġservants": 5123,
      "ollow": 5124,
      "Ġblem": 5125,
      "Ġbridegroom": 5126,
      "Ġbabes": 5127,
      "Ġgallant": 5128,
      "Ġrebellion": 5129,
      "Ġwriting": 5130,
      "Ġfierce": 5131,
      "Ġshadows": 5132,
      "Ġpleasing": 5133,
      "Ġmodest": 5134,
      "Ġmodesty": 5135,
      "Ġobject": 5136,
      "Ġforswear": 5137,
      "Ġuncles": 5138,
      "Ġrefuse": 5139,
      "Among": 5140,
      "banished": 5141,
      "Ġbigger": 5142,
      "Ġfeather": 5143,
      "Ġdetermine": 5144,
      "Betw": 5145,
      "Better": 5146,
      "Ġchaste": 5147,
      "otted": 5148,
      "Ġfairer": 5149,
      "Ġshrewd": 5150,
      "Ġdismal": 5151,
      "Ġtrembling": 5152,
      "Ġacquaint": 5153,
      "Ġprophet": 5154,
      "Ġedge": 5155,
      "Ġeagle": 5156,
      "Ġshroud": 5157,
      "Ġsubstit": 5158,
      "othecary": 5159,
      "Ġsteeds": 5160,
      "Ġiron": 5161,
      "Ġtorture": 5162,
      "Ġrenowned": 5163,
      "Ġdearest": 5164,
      "Return": 5165,
      "Remember": 5166,
      "Ġwondrous": 5167,
      "Ġballad": 5168,
      "Ġpenitent": 5169,
      "Ġpolicy": 5170,
      "Ġrepeal": 5171,
      "Ġadversaries": 5172,
      "Ġpurchase": 5173,
      "Commend": 5174,
      "Ġprivilege": 5175,
      "Ġrevolt": 5176,
      "Ġsullen": 5177,
      "Ġconceal": 5178,
      "ĠConspirator": 5179,
      "Coriolanus": 5180,
      "Ġdowry": 5181,
      "Ġpierce": 5182,
      "Ġstrokes": 5183,
      "Ġflatterer": 5184,
      "ĠMariana": 5185,
      "ouchsafe": 5186,
      "ADRIAN": 5187,
      "CLEOMEN": 5188,
      "FROTH": 5189,
      "Ġtrespass": 5190,
      "Ġcivil": 5191,
      "Ġthirty": 5192,
      "ĠItaly": 5193,
      "Ġsepulch": 5194,
      "LOUGHBY": 5195,
      "ĠPerdita": 5196,
      "ĠWILLOUGHBY": 5197,
      "Ġexercise": 5198,
      "CLEOMENES": 5199,
      "AM": 5200,
      "Aw": 5201,
      "BAR": 5202,
      "Courage": 5203,
      "Dare": 5204,
      "Find": 5205,
      "Get": 5206,
      "Men": 5207,
      "Mist": 5208,
      "Making": 5209,
      "Methought": 5210,
      "NARD": 5211,
      "Oh": 5212,
      "Pur": 5213,
      "Petruchio": 5214,
      "Que": 5215,
      "Rather": 5216,
      "RUT": 5217,
      "Se": 5218,
      "Sound": 5219,
      "Tranio": 5220,
      "UR": 5221,
      "Villain": 5222,
      "Wit": 5223,
      "ax": 5224,
      "br": 5225,
      "bble": 5226,
      "boy": 5227,
      "car": 5228,
      "cest": 5229,
      "cue": 5230,
      "cence": 5231,
      "done": 5232,
      "ders": 5233,
      "duke": 5234,
      "ext": 5235,
      "from": 5236,
      "gy": 5237,
      "got": 5238,
      "ghan": 5239,
      "great": 5240,
      "gentle": 5241,
      "iar": 5242,
      "ips": 5243,
      "mas": 5244,
      "made": 5245,
      "nken": 5246,
      "nicious": 5247,
      "oon": 5248,
      "oes": 5249,
      "off": 5250,
      "phy": 5251,
      "pret": 5252,
      "pardon": 5253,
      "rity": 5254,
      "ratch": 5255,
      "sire": 5256,
      "scal": 5257,
      "tend": 5258,
      "ug": 5259,
      "vive": 5260,
      "vied": 5261,
      "ĠAs": 5262,
      "Ġtou": 5263,
      "Ġtro": 5264,
      "Ġtig": 5265,
      "Ġtail": 5266,
      "Ġale": 5267,
      "Ġages": 5268,
      "Ġsn": 5269,
      "Ġmain": 5270,
      "Ġmil": 5271,
      "Ġmethought": 5272,
      "inate": 5273,
      "Ġward": 5274,
      "Ġwakes": 5275,
      "Ġbon": 5276,
      "Ġbore": 5277,
      "Ġbag": 5278,
      "Ġbrown": 5279,
      "Ġborrow": 5280,
      "Ġbott": 5281,
      "ision": 5282,
      "orough": 5283,
      "Ġfish": 5284,
      "Ġfret": 5285,
      "Ġfix": 5286,
      "Ġfreed": 5287,
      "ital": 5288,
      "itiff": 5289,
      "onest": 5290,
      "Ġdate": 5291,
      "Ġdower": 5292,
      "Ġcrow": 5293,
      "esu": 5294,
      "enge": 5295,
      "Ġnet": 5296,
      "Ġnest": 5297,
      "Ġnice": 5298,
      "Ġnumb": 5299,
      "Ġnupt": 5300,
      "Ġlur": 5301,
      "Ġlance": 5302,
      "Ġlower": 5303,
      "Ġluck": 5304,
      "Ġyon": 5305,
      "Ġthin": 5306,
      "Ġthie": 5307,
      "Ġthirst": 5308,
      "Ġthumb": 5309,
      "Ġhom": 5310,
      "Ġhind": 5311,
      "Ġhig": 5312,
      "Ġhire": 5313,
      "Ġhoney": 5314,
      "Ġtoy": 5315,
      "Ġtomorrow": 5316,
      "Ġped": 5317,
      "Ġpear": 5318,
      "Ġpath": 5319,
      "Ġpage": 5320,
      "hath": 5321,
      "ĠIt": 5322,
      "Ġheat": 5323,
      "Ġheels": 5324,
      "owl": 5325,
      "ingers": 5326,
      "Ġgid": 5327,
      "atri": 5328,
      "atest": 5329,
      "Ġbere": 5330,
      "Ġbefall": 5331,
      "sey": 5332,
      "Ġink": 5333,
      "cels": 5334,
      "Ġhare": 5335,
      "Ġhaught": 5336,
      "Ġhabit": 5337,
      "ayed": 5338,
      "Ġnoted": 5339,
      "chief": 5340,
      "keley": 5341,
      "Ġweal": 5342,
      "Ġwealth": 5343,
      "oops": 5344,
      "hern": 5345,
      "Ġwithdraw": 5346,
      "rif": 5347,
      "rich": 5348,
      "rible": 5349,
      "Ġstale": 5350,
      "Ġstern": 5351,
      "Ġstomach": 5352,
      "order": 5353,
      "rage": 5354,
      "Ġlivery": 5355,
      "Ġliking": 5356,
      "INE": 5357,
      "urg": 5358,
      "urrey": 5359,
      "Ġdeaf": 5360,
      "Ġshare": 5361,
      "Ġshapes": 5362,
      "Ġdove": 5363,
      "Ġdogs": 5364,
      "Ġdozen": 5365,
      "Ġwills": 5366,
      "ushing": 5367,
      "Ġsuits": 5368,
      "Ġhers": 5369,
      "Ġanointed": 5370,
      "ardel": 5371,
      "Ġspit": 5372,
      "Ġspect": 5373,
      "Ġshallow": 5374,
      "ĠCounty": 5375,
      "Ġneat": 5376,
      "Ġvent": 5377,
      "Ġshook": 5378,
      "Ġshines": 5379,
      "Ġupright": 5380,
      "Ġgoods": 5381,
      "Ġprime": 5382,
      "Ġamiss": 5383,
      "icate": 5384,
      "icio": 5385,
      "Ġconceive": 5386,
      "iege": 5387,
      "Ġblast": 5388,
      "ĠGree": 5389,
      "emper": 5390,
      "Ġgodd": 5391,
      "aughan": 5392,
      "Ġsirs": 5393,
      "ola": 5394,
      "olved": 5395,
      "ĠLicio": 5396,
      "Ġthereby": 5397,
      "ept": 5398,
      "eping": 5399,
      "Ġswore": 5400,
      "Ġsweat": 5401,
      "Ġorn": 5402,
      "ĠSc": 5403,
      "ĠSp": 5404,
      "ĠSee": 5405,
      "ĠShore": 5406,
      "ĠOff": 5407,
      "ĠBr": 5408,
      "ĠBy": 5409,
      "Ġarrest": 5410,
      "Ġlets": 5411,
      "Ġunst": 5412,
      "Ġunse": 5413,
      "Ġunfe": 5414,
      "Ġworm": 5415,
      "ĠVal": 5416,
      "aker": 5417,
      "Ġhop": 5418,
      "Ġlikely": 5419,
      "Ġproclam": 5420,
      "ĠPlease": 5421,
      "ĠPETER": 5422,
      "Ġsav": 5423,
      "Ġmadness": 5424,
      "umbling": 5425,
      "Ġplaces": 5426,
      "iced": 5427,
      "ĠWilt": 5428,
      "Ġeng": 5429,
      "unate": 5430,
      "Ġrans": 5431,
      "Ġtrunk": 5432,
      "Ġsomewhat": 5433,
      "harged": 5434,
      "orney": 5435,
      "Ġoffices": 5436,
      "Ġdisgra": 5437,
      "Ġalms": 5438,
      "Ġabuse": 5439,
      "Ġexam": 5440,
      "Ġtelling": 5441,
      "Ġlooked": 5442,
      "Ġthinking": 5443,
      "Ġwhereon": 5444,
      "agues": 5445,
      "Whereto": 5446,
      "Ġflow": 5447,
      "Ġflint": 5448,
      "Ġflourish": 5449,
      "Ġfearing": 5450,
      "bert": 5451,
      "Ġbreed": 5452,
      "Ġgreatness": 5453,
      "Ġparted": 5454,
      "Ġpernicious": 5455,
      "Ġtroop": 5456,
      "Ġtroops": 5457,
      "lied": 5458,
      "Ġscatter": 5459,
      "ainty": 5460,
      "ables": 5461,
      "ĠFare": 5462,
      "Ġappea": 5463,
      "Ġgraced": 5464,
      "Ġbegu": 5465,
      "Ġbeget": 5466,
      "rank": 5467,
      "Ġchildish": 5468,
      "Ġreply": 5469,
      "Ġconsort": 5470,
      "loves": 5471,
      "ercing": 5472,
      "cheth": 5473,
      "Ġtrif": 5474,
      "ontes": 5475,
      "Ġprice": 5476,
      "Ġsubd": 5477,
      "Ġbacks": 5478,
      "twill": 5479,
      "Ġforthwith": 5480,
      "Ġbank": 5481,
      "Ġcheap": 5482,
      "Ġcharm": 5483,
      "Ġlaws": 5484,
      "Ġconfirm": 5485,
      "Ġcoll": 5486,
      "Ġlightning": 5487,
      "Does": 5488,
      "Ġroyalty": 5489,
      "ĠAnne": 5490,
      "Ġbesides": 5491,
      "Ġhappily": 5492,
      "Ġsorrows": 5493,
      "Ġcareful": 5494,
      "Ġlesser": 5495,
      "Ġstrive": 5496,
      "Ġsleeping": 5497,
      "Ġdrag": 5498,
      "Ġserp": 5499,
      "Ġboast": 5500,
      "pense": 5501,
      "Ġwanting": 5502,
      "Ġbreathing": 5503,
      "Ġdiscourse": 5504,
      "Ġsenseless": 5505,
      "Ġbeaut": 5506,
      "Ġhangs": 5507,
      "Ġdepend": 5508,
      "hamed": 5509,
      "Ġgrew": 5510,
      "Ġspoil": 5511,
      "Ġdrunken": 5512,
      "Ġaffords": 5513,
      "Ġmetal": 5514,
      "Ġsooner": 5515,
      "IDAM": 5516,
      "Ġsights": 5517,
      "Ġmonster": 5518,
      "Ġmonarch": 5519,
      "acles": 5520,
      "Ġsadness": 5521,
      "Ġsuffic": 5522,
      "Ġcarried": 5523,
      "Ġexecute": 5524,
      "Ġexecuted": 5525,
      "Ġminute": 5526,
      "Ġvel": 5527,
      "Ġcoronation": 5528,
      "Ġpraises": 5529,
      "Ġwaves": 5530,
      "Ġburnt": 5531,
      "Ġliberal": 5532,
      "Ġburns": 5533,
      "Ġburning": 5534,
      "Ġproport": 5535,
      "Ġblessing": 5536,
      "Ġbleeding": 5537,
      "Ġestim": 5538,
      "Ġbitterly": 5539,
      "mbles": 5540,
      "speak": 5541,
      "Ġlimit": 5542,
      "Ġlimbs": 5543,
      "Ġsacrif": 5544,
      "Ġsuccession": 5545,
      "Ġactions": 5546,
      "Ġcaps": 5547,
      "Ġviolence": 5548,
      "Ġtriumphant": 5549,
      "Ġmidnight": 5550,
      "Ġrebels": 5551,
      "Ġpossession": 5552,
      "Play": 5553,
      "Ġtorch": 5554,
      "Ġcaitiff": 5555,
      "Ġpitiful": 5556,
      "Ġinjury": 5557,
      "Ġurge": 5558,
      "Ġexecutioner": 5559,
      "March": 5560,
      "Marcius": 5561,
      "Ġmeddle": 5562,
      "Ġoccup": 5563,
      "Ġnobility": 5564,
      "Ġchurchyard": 5565,
      "Ġignorance": 5566,
      "Ġsaints": 5567,
      "headed": 5568,
      "ĠCaesar": 5569,
      "Ġrank": 5570,
      "Ġguests": 5571,
      "ĠWilliam": 5572,
      "Ġhungry": 5573,
      "Ġunfold": 5574,
      "Ġmonths": 5575,
      "Ġextremity": 5576,
      "Ġinclined": 5577,
      "Ġcovert": 5578,
      "Ġjoints": 5579,
      "Ġprevented": 5580,
      "Ġtyrann": 5581,
      "Ġlengthen": 5582,
      "Ġwager": 5583,
      "Ġnecessity": 5584,
      "Ġsubstance": 5585,
      "Ġescape": 5586,
      "Ġsenses": 5587,
      "Ġstatue": 5588,
      "Ġconjure": 5589,
      "Ġbands": 5590,
      "Ġweapon": 5591,
      "Ġsteps": 5592,
      "Ġangel": 5593,
      "Ġtransport": 5594,
      "Ġthreatening": 5595,
      "Ġwolf": 5596,
      "Ġcensure": 5597,
      "ribunes": 5598,
      "ARCHIDAM": 5599,
      "ĠDido": 5600,
      "ĠElbow": 5601,
      "Ġapprehend": 5602,
      "Ġimmortal": 5603,
      "Ġtapster": 5604,
      "Ġmoral": 5605,
      "ĠBerkeley": 5606,
      "Ġjewel": 5607,
      "Ġruthless": 5608,
      "Ġdispersed": 5609,
      "Ġclamour": 5610,
      "Ġrapier": 5611,
      "Ġcompanion": 5612,
      "Strike": 5613,
      "Ġopposite": 5614,
      "Ġzeal": 5615,
      "Ġcherish": 5616,
      "Ġstretch": 5617,
      "ambio": 5618,
      "Ġspleen": 5619,
      "Ġcharacter": 5620,
      "Ġprettiest": 5621,
      "Ġrejoice": 5622,
      "Ġbirds": 5623,
      "Ġchallenge": 5624,
      "Ġpeevish": 5625,
      "Ġlikeness": 5626,
      "ĠLaurence": 5627,
      "Ġofficers": 5628,
      "Ġwarriors": 5629,
      "Ġcommonwealth": 5630,
      "Ġsepulchre": 5631,
      "BARNARD": 5632,
      "Queen": 5633,
      "RUTLAND": 5634,
      "scalus": 5635,
      "Ġbottom": 5636,
      "Ġnuptial": 5637,
      "Ġgiddy": 5638,
      "ĠOfficer": 5639,
      "ĠWiltshire": 5640,
      "ARCHIDAMUS": 5641,
      "BARNARDINE": 5642,
      "ATER": 5643,
      "Add": 5644,
      "Bre": 5645,
      "Bra": 5646,
      "BAN": 5647,
      "CRO": 5648,
      "Content": 5649,
      "Ever": 5650,
      "Eng": 5651,
      "Else": 5652,
      "EPH": 5653,
      "Full": 5654,
      "False": 5655,
      "Follow": 5656,
      "GO": 5657,
      "Ga": 5658,
      "Gard": 5659,
      "Gentleman": 5660,
      "Hic": 5661,
      "Henry": 5662,
      "Hortensio": 5663,
      "Lu": 5664,
      "Live": 5665,
      "Mis": 5666,
      "MOR": 5667,
      "Much": 5668,
      "Name": 5669,
      "Old": 5670,
      "Patience": 5671,
      "Persu": 5672,
      "Saw": 5673,
      "Six": 5674,
      "SIR": 5675,
      "TON": 5676,
      "Toward": 5677,
      "TMOR": 5678,
      "Virt": 5679,
      "Wr": 5680,
      "WES": 5681,
      "Woe": 5682,
      "Women": 5683,
      "WATER": 5684,
      "Yield": 5685,
      "ZWATER": 5686,
      "ald": 5687,
      "aven": 5688,
      "back": 5689,
      "cor": 5690,
      "cus": 5691,
      "call": 5692,
      "cap": 5693,
      "cont": 5694,
      "cons": 5695,
      "ded": 5696,
      "dal": 5697,
      "fri": 5698,
      "gged": 5699,
      "horse": 5700,
      "iban": 5701,
      "light": 5702,
      "may": 5703,
      "nant": 5704,
      "pray": 5705,
      "ront": 5706,
      "sen": 5707,
      "vided": 5708,
      "wd": 5709,
      "wing": 5710,
      "water": 5711,
      "zed": 5712,
      "Ġice": 5713,
      "Ġought": 5714,
      "ĠThy": 5715,
      "Ġeter": 5716,
      "ĠQueen": 5717,
      "Ġtard": 5718,
      "Ġtack": 5719,
      "Ġtree": 5720,
      "Ġtied": 5721,
      "Ġtired": 5722,
      "Ġtakest": 5723,
      "Ġah": 5724,
      "Ġaud": 5725,
      "Ġaged": 5726,
      "oured": 5727,
      "Ġsed": 5728,
      "Ġsess": 5729,
      "Ġsau": 5730,
      "Ġsings": 5731,
      "Ġsought": 5732,
      "Ġsides": 5733,
      "Ġsurp": 5734,
      "Ġsilly": 5735,
      "Ġmat": 5736,
      "Ġmour": 5737,
      "Ġmould": 5738,
      "iners": 5739,
      "Ġwet": 5740,
      "Ġwave": 5741,
      "Ġwaked": 5742,
      "reet": 5743,
      "reant": 5744,
      "habit": 5745,
      "Ġbay": 5746,
      "Ġbill": 5747,
      "Ġbent": 5748,
      "Ġbru": 5749,
      "Ġbol": 5750,
      "Ġbalm": 5751,
      "ishes": 5752,
      "isement": 5753,
      "orth": 5754,
      "oriz": 5755,
      "Ġfin": 5756,
      "Ġfant": 5757,
      "Ġfray": 5758,
      "Ġfever": 5759,
      "Ġfelt": 5760,
      "Ġfardel": 5761,
      "erily": 5762,
      "itch": 5763,
      "oned": 5764,
      "onus": 5765,
      "onstant": 5766,
      "Ġcat": 5767,
      "Ġcent": 5768,
      "Ġcook": 5769,
      "envol": 5770,
      "Ġnar": 5771,
      "Ġlour": 5772,
      "Ġlun": 5773,
      "arm": 5774,
      "Ġomit": 5775,
      "Ġtops": 5776,
      "Ġpor": 5777,
      "Ġpill": 5778,
      "Ġpent": 5779,
      "Ġphi": 5780,
      "Ġpick": 5781,
      "Ġpace": 5782,
      "Ġpaint": 5783,
      "Ġpaid": 5784,
      "Ġpush": 5785,
      "Ġpalm": 5786,
      "Ġpomp": 5787,
      "ĠIn": 5788,
      "Ġhera": 5789,
      "Ġheight": 5790,
      "omes": 5791,
      "Ġgn": 5792,
      "Ġgap": 5793,
      "Ġgains": 5794,
      "Ġgoose": 5795,
      "athe": 5796,
      "athed": 5797,
      "Ġbeams": 5798,
      "sec": 5799,
      "seem": 5800,
      "Ġinv": 5801,
      "Ġhail": 5802,
      "iring": 5803,
      "ednes": 5804,
      "uts": 5805,
      "utch": 5806,
      "Ġmew": 5807,
      "Ġmemb": 5808,
      "Ġissu": 5809,
      "Ġforty": 5810,
      "Ġweek": 5811,
      "ently": 5812,
      "riel": 5813,
      "Ġstead": 5814,
      "Ġhist": 5815,
      "Ġrend": 5816,
      "Ġrear": 5817,
      "Ġreach": 5818,
      "Ġrevel": 5819,
      "raid": 5820,
      "Ġlions": 5821,
      "Ġlikes": 5822,
      "Ġlivest": 5823,
      "urgh": 5824,
      "urtis": 5825,
      "alter": 5826,
      "Ġsoil": 5827,
      "Ġsoci": 5828,
      "Ġaspect": 5829,
      "Ġashamed": 5830,
      "Ġdem": 5831,
      "Ġdepose": 5832,
      "rog": 5833,
      "ARLIS": 5834,
      "hire": 5835,
      "verty": 5836,
      "Ġbutt": 5837,
      "Ġsevere": 5838,
      "Ġseated": 5839,
      "Thine": 5840,
      "Things": 5841,
      "Ġalleg": 5842,
      "Ġherd": 5843,
      "three": 5844,
      "Ġanch": 5845,
      "tering": 5846,
      "Ġload": 5847,
      "Ġlock": 5848,
      "Ġlovers": 5849,
      "ellows": 5850,
      "Ġspread": 5851,
      "Ġourself": 5852,
      "Ġfavours": 5853,
      "ilful": 5854,
      "iliar": 5855,
      "ĠCurtis": 5856,
      "ĠCARLIS": 5857,
      "ĠRatcliff": 5858,
      "ĠRaven": 5859,
      "Ġvast": 5860,
      "ORGE": 5861,
      "Ġshru": 5862,
      "Ġshrift": 5863,
      "arted": 5864,
      "ĠMistress": 5865,
      "ĠEm": 5866,
      "ĠEly": 5867,
      "ĠELY": 5868,
      "ĠEscalus": 5869,
      "Ġamain": 5870,
      "Ġamends": 5871,
      "Ġambit": 5872,
      "Ġamorous": 5873,
      "Ġconsequ": 5874,
      "iece": 5875,
      "ĠGreen": 5876,
      "Ġshel": 5877,
      "Ġgoss": 5878,
      "arers": 5879,
      "olks": 5880,
      "ĠLook": 5881,
      "Ġknowing": 5882,
      "resh": 5883,
      "Ġswears": 5884,
      "Ġbrat": 5885,
      "ĠShall": 5886,
      "ĠSurrey": 5887,
      "ĠSCRO": 5888,
      "ĠOur": 5889,
      "ĠBushy": 5890,
      "ĠBurg": 5891,
      "Ġarray": 5892,
      "Ġune": 5893,
      "Ġunm": 5894,
      "Ġunre": 5895,
      "igent": 5896,
      "igonus": 5897,
      "elsh": 5898,
      "eliver": 5899,
      "LIBAN": 5900,
      "ĠHim": 5901,
      "ĠHark": 5902,
      "ĠHuntsman": 5903,
      "ĠVaughan": 5904,
      "Ġgrain": 5905,
      "Ġhoar": 5906,
      "Ġlikewise": 5907,
      "Ġproved": 5908,
      "Ġprocess": 5909,
      "Ġprodig": 5910,
      "umed": 5911,
      "ĠWas": 5912,
      "ĠWould": 5913,
      "ĠWelsh": 5914,
      "isting": 5915,
      "Ġenc": 5916,
      "uns": 5917,
      "Ġrate": 5918,
      "Ġrouse": 5919,
      "Ġpoverty": 5920,
      "Ġspeaking": 5921,
      "Ġoutrage": 5922,
      "ELAND": 5923,
      "ickle": 5924,
      "CALIBAN": 5925,
      "Withdraw": 5926,
      "igned": 5927,
      "Ġmars": 5928,
      "Ġmarvel": 5929,
      "Ġmarvell": 5930,
      "Ġdisin": 5931,
      "Ġdisease": 5932,
      "Ġabund": 5933,
      "Ġrobb": 5934,
      "Ġexcept": 5935,
      "agot": 5936,
      "aged": 5937,
      "Ġdesc": 5938,
      "Ġriches": 5939,
      "Whereof": 5940,
      "Ġslight": 5941,
      "Ġslipp": 5942,
      "Ġflat": 5943,
      "Ġbetide": 5944,
      "Ġbread": 5945,
      "Behold": 5946,
      "Ġcouple": 5947,
      "Ġparties": 5948,
      "Ġpartner": 5949,
      "idered": 5950,
      "Ġclock": 5951,
      "Ġprefer": 5952,
      "Ġsweetly": 5953,
      "ĠDian": 5954,
      "ulls": 5955,
      "Ġwritten": 5956,
      "Ġscratch": 5957,
      "Ġpresume": 5958,
      "Ġpreserve": 5959,
      "Ġnights": 5960,
      "Ġworldly": 5961,
      "perience": 5962,
      "Ġrack": 5963,
      "Ġraven": 5964,
      "them": 5965,
      "ably": 5966,
      "ĠFIT": 5967,
      "Ġdownright": 5968,
      "Ġcontro": 5969,
      "BAGO": 5970,
      "ranch": 5971,
      "Ġimper": 5972,
      "Ġreputation": 5973,
      "Ġafraid": 5974,
      "Ġmightst": 5975,
      "Ġstays": 5976,
      "Ġrue": 5977,
      "Ġleg": 5978,
      "Ġlect": 5979,
      "Ġlewd": 5980,
      "loso": 5981,
      "Ġrestore": 5982,
      "Ġentrance": 5983,
      "Ġtricks": 5984,
      "Ġmoves": 5985,
      "Ġbestow": 5986,
      "Ġaccom": 5987,
      "Ġended": 5988,
      "Ġpurge": 5989,
      "Ġpurple": 5990,
      "Ġputting": 5991,
      "Prove": 5992,
      "Proceed": 5993,
      "Proclaim": 5994,
      "Ġsmil": 5995,
      "Ġsmother": 5996,
      "Ġtrain": 5997,
      "Ġtravell": 5998,
      "Ġbidding": 5999,
      "Ġdrew": 6000,
      "Ġearthly": 6001,
      "Ġcouldst": 6002,
      "Ġtren": 6003,
      "Ġhopeful": 6004,
      "GEORGE": 6005,
      "Ġbrains": 6006,
      "Ġcheque": 6007,
      "Ġbridal": 6008,
      "Ġconfound": 6009,
      "being": 6010,
      "Ġcop": 6011,
      "Ġcoat": 6012,
      "Ġmisfortune": 6013,
      "Ġlanded": 6014,
      "blood": 6015,
      "Ġfalcon": 6016,
      "Ġfalls": 6017,
      "Ġbusy": 6018,
      "Another": 6019,
      "Ġstrict": 6020,
      "Ġcounsell": 6021,
      "Ġcourtier": 6022,
      "Ġcourteous": 6023,
      "Ġbuzz": 6024,
      "Ġattain": 6025,
      "Ġattorney": 6026,
      "erest": 6027,
      "Ġsounds": 6028,
      "Ġsounded": 6029,
      "Ġretired": 6030,
      "Ġadvised": 6031,
      "Ġrevenges": 6032,
      "Ġstraw": 6033,
      "Although": 6034,
      "Ġprompt": 6035,
      "Ġcram": 6036,
      "Ġcontents": 6037,
      "Ġvillains": 6038,
      "Ġinteg": 6039,
      "Ġkisses": 6040,
      "aptain": 6041,
      "Ġyields": 6042,
      "upid": 6043,
      "Ġwinters": 6044,
      "Ġlambs": 6045,
      "Ġbeats": 6046,
      "Ġbeaten": 6047,
      "acy": 6048,
      "undy": 6049,
      "unday": 6050,
      "ventry": 6051,
      "Ġchosen": 6052,
      "Hadst": 6053,
      "Ġentreaties": 6054,
      "Ġdevilish": 6055,
      "Ġboldly": 6056,
      "Ġwooing": 6057,
      "Ġinfer": 6058,
      "Becomes": 6059,
      "guard": 6060,
      "Ġreadiness": 6061,
      "Ġprofane": 6062,
      "Ġdivor": 6063,
      "Ġyouthful": 6064,
      "Comes": 6065,
      "Comfort": 6066,
      "Ġterm": 6067,
      "Ġsuitors": 6068,
      "Ġstops": 6069,
      "Ġcloudy": 6070,
      "Ġmusicians": 6071,
      "Ġdroop": 6072,
      "Ġwax": 6073,
      "Ġgrieves": 6074,
      "Ġgrieved": 6075,
      "chers": 6076,
      "Ġskill": 6077,
      "Ġsignal": 6078,
      "Ġsignify": 6079,
      "Ġcheerly": 6080,
      "Ġprophes": 6081,
      "Ġextreme": 6082,
      "Ġtroubl": 6083,
      "Ġsatisfaction": 6084,
      "Ġdarkness": 6085,
      "Ġexped": 6086,
      "Ġflattering": 6087,
      "Ġembra": 6088,
      "Ġesteem": 6089,
      "Ġbowels": 6090,
      "Ġfrail": 6091,
      "Ġhurl": 6092,
      "Ġtowns": 6093,
      "Ġsuddenly": 6094,
      "spurgh": 6095,
      "Ġcowardly": 6096,
      "Ġlamentable": 6097,
      "Ġowes": 6098,
      "Ġeaten": 6099,
      "Ġkinsmen": 6100,
      "Ġmiddle": 6101,
      "Ġdestruction": 6102,
      "Ġdeparture": 6103,
      "Plantagenet": 6104,
      "Whiles": 6105,
      "Ġfondly": 6106,
      "Ġusurping": 6107,
      "Above": 6108,
      "ossess": 6109,
      "Ġmildness": 6110,
      "Ġinsol": 6111,
      "Ġgladly": 6112,
      "mediate": 6113,
      "Ġapace": 6114,
      "Ġships": 6115,
      "Ġshop": 6116,
      "Ġshoes": 6117,
      "Ġobsequ": 6118,
      "Ġtreasons": 6119,
      "Ġcondemned": 6120,
      "Ġtroubled": 6121,
      "Ġlists": 6122,
      "Ġstorms": 6123,
      "Ġtemples": 6124,
      "Ġmutinous": 6125,
      "Ġpetty": 6126,
      "Ġconquest": 6127,
      "Ġgrandam": 6128,
      "Ġgrandsire": 6129,
      "Ġeldest": 6130,
      "ĠAntigonus": 6131,
      "Disp": 6132,
      "EXTON": 6133,
      "Ġbastards": 6134,
      "Ġhelps": 6135,
      "Ġamongst": 6136,
      "Ġprovide": 6137,
      "Ġgreeting": 6138,
      "Ġministers": 6139,
      "Neither": 6140,
      "where": 6141,
      "Ġconclud": 6142,
      "Ġconclude": 6143,
      "Ġdismiss": 6144,
      "Officer": 6145,
      "Ġimagine": 6146,
      "Ġacquainted": 6147,
      "Ġgifts": 6148,
      "Ġghostly": 6149,
      "Ġbehavior": 6150,
      "Ġeleven": 6151,
      "Ġrobes": 6152,
      "Ġdesigns": 6153,
      "Ġtempted": 6154,
      "Ġheavier": 6155,
      "Perhaps": 6156,
      "Ġerrand": 6157,
      "Ġwandering": 6158,
      "Ġdetest": 6159,
      "Ġweapons": 6160,
      "Ġvanity": 6161,
      "Ġaccusation": 6162,
      "Shalt": 6163,
      "Ġfrost": 6164,
      "Ġpersuade": 6165,
      "Ġdiscontented": 6166,
      "Appear": 6167,
      "Ġtestim": 6168,
      "Ġhazard": 6169,
      "ĠCaliban": 6170,
      "ĠBlunt": 6171,
      "Ġkeys": 6172,
      "Ġinstantly": 6173,
      "iveness": 6174,
      "Ġfigure": 6175,
      "Ġfurnish": 6176,
      "Ġparents": 6177,
      "Ġrecompense": 6178,
      "Ġnobleness": 6179,
      "ĠCoventry": 6180,
      "ĠSTEPH": 6181,
      "Ġprovoked": 6182,
      "Ġintelligence": 6183,
      "Ġfiend": 6184,
      "Ġceremon": 6185,
      "advised": 6186,
      "Ġreckon": 6187,
      "ĠLeontes": 6188,
      "Ġreconcile": 6189,
      "Ġunkindness": 6190,
      "Ġpilgrimage": 6191,
      "Ġcomplexion": 6192,
      "Ġseized": 6193,
      "Ġneglect": 6194,
      "Ġvarlet": 6195,
      "ĠMinola": 6196,
      "ĠVenice": 6197,
      "Ġblemish": 6198,
      "Ġfreedom": 6199,
      "Ġthieves": 6200,
      "Ġgoddess": 6201,
      "Ġproclamation": 6202,
      "Ġsavage": 6203,
      "Ġransom": 6204,
      "Ġexample": 6205,
      "Ġvelvet": 6206,
      "Ġproportion": 6207,
      "Ġtyrannous": 6208,
      "Gaoler": 6209,
      "Gardener": 6210,
      "Lucentio": 6211,
      "Towards": 6212,
      "TMORELAND": 6213,
      "WESTMORELAND": 6214,
      "envolio": 6215,
      "Ġnarrow": 6216,
      "Ġphiloso": 6217,
      "Ġherald": 6218,
      "ednesday": 6219,
      "Ġmembers": 6220,
      "Ġallegiance": 6221,
      "ĠCARLISLE": 6222,
      "ĠRavenspurgh": 6223,
      "Ġambitious": 6224,
      "ĠSCROOP": 6225,
      "ĠBurgundy": 6226,
      "ĠFITZWATER": 6227,
      "BAGOT": 6228,
      "Ġintegrity": 6229,
      "ĠSTEPHEN": 6230,
      "Ġphilosophy": 6231,
      "Ac": 6232,
      "Af": 6233,
      "Bound": 6234,
      "Ca": 6235,
      "Cont": 6236,
      "Camillo": 6237,
      "Catesby": 6238,
      "Dep": 6239,
      "Div": 6240,
      "Fore": 6241,
      "Five": 6242,
      "Fall": 6243,
      "Foul": 6244,
      "Fetch": 6245,
      "Gra": 6246,
      "Gives": 6247,
      "Grace": 6248,
      "Hie": 6249,
      "Harry": 6250,
      "Hang": 6251,
      "Justice": 6252,
      "Kind": 6253,
      "Lies": 6254,
      "Lead": 6255,
      "Mur": 6256,
      "Part": 6257,
      "Peter": 6258,
      "Rel": 6259,
      "Sit": 6260,
      "Send": 6261,
      "Ten": 6262,
      "Tra": 6263,
      "Talk": 6264,
      "Touch": 6265,
      "Teach": 6266,
      "Truly": 6267,
      "Vouchsafe": 6268,
      "Verily": 6269,
      "Wert": 6270,
      "Zounds": 6271,
      "av": 6272,
      "ape": 6273,
      "aving": 6274,
      "bes": 6275,
      "bour": 6276,
      "bell": 6277,
      "board": 6278,
      "cat": 6279,
      "cock": 6280,
      "down": 6281,
      "ech": 6282,
      "eves": 6283,
      "gic": 6284,
      "gues": 6285,
      "hors": 6286,
      "ipt": 6287,
      "join": 6288,
      "kest": 6289,
      "know": 6290,
      "lor": 6291,
      "len": 6292,
      "low": 6293,
      "lain": 6294,
      "last": 6295,
      "lace": 6296,
      "lock": 6297,
      "liness": 6298,
      "longs": 6299,
      "met": 6300,
      "miss": 6301,
      "mistress": 6302,
      "nib": 6303,
      "ob": 6304,
      "oble": 6305,
      "open": 6306,
      "post": 6307,
      "pite": 6308,
      "pular": 6309,
      "pothecary": 6310,
      "ris": 6311,
      "rish": 6312,
      "roof": 6313,
      "sent": 6314,
      "tin": 6315,
      "ted": 6316,
      "tell": 6317,
      "tong": 6318,
      "tied": 6319,
      "trees": 6320,
      "uge": 6321,
      "uild": 6322,
      "ually": 6323,
      "vir": 6324,
      "wh": 6325,
      "wer": 6326,
      "was": 6327,
      "work": 6328,
      "women": 6329,
      "ycor": 6330,
      "ĠFirst": 6331,
      "Ġtrow": 6332,
      "Ġtie": 6333,
      "Ġtorn": 6334,
      "Ġtaking": 6335,
      "heard": 6336,
      "Ġafe": 6337,
      "Ġsow": 6338,
      "Ġsand": 6339,
      "Ġsong": 6340,
      "Ġsixt": 6341,
      "Ġmom": 6342,
      "Ġmas": 6343,
      "Ġmouse": 6344,
      "Ġmates": 6345,
      "Ġmurde": 6346,
      "Ġmask": 6347,
      "inu": 6348,
      "inal": 6349,
      "inies": 6350,
      "inces": 6351,
      "Ġwore": 6352,
      "Ġwipe": 6353,
      "had": 6354,
      "hage": 6355,
      "Ġbot": 6356,
      "Ġbul": 6357,
      "Ġbows": 6358,
      "Ġbail": 6359,
      "Ġbounty": 6360,
      "Ġfre": 6361,
      "Ġfan": 6362,
      "Ġfif": 6363,
      "Ġfil": 6364,
      "Ġfrant": 6365,
      "Ġfount": 6366,
      "Ġfift": 6367,
      "Ġfingers": 6368,
      "Ġfrank": 6369,
      "Ġfolks": 6370,
      "onio": 6371,
      "Ġdot": 6372,
      "Ġdine": 6373,
      "Ġdried": 6374,
      "Ġdined": 6375,
      "Ġdash": 6376,
      "Ġdiest": 6377,
      "Ġdrift": 6378,
      "Ġcord": 6379,
      "Ġcro": 6380,
      "Ġcab": 6381,
      "Ġcool": 6382,
      "Ġcrows": 6383,
      "Ġcords": 6384,
      "ening": 6385,
      "ened": 6386,
      "enches": 6387,
      "Ġnort": 6388,
      "Ġnigh": 6389,
      "Ġnamed": 6390,
      "Ġnimble": 6391,
      "Ġlute": 6392,
      "Ġlads": 6393,
      "Ġlying": 6394,
      "Ġlinger": 6395,
      "Ġthw": 6396,
      "Ġthrown": 6397,
      "Ġhill": 6398,
      "Ġpow": 6399,
      "Ġpour": 6400,
      "Ġpest": 6401,
      "Ġpant": 6402,
      "Ġpup": 6403,
      "Ġpict": 6404,
      "Ġheel": 6405,
      "Ġheinous": 6406,
      "otland": 6407,
      "Ġgust": 6408,
      "Ġgather": 6409,
      "Ġgaunt": 6410,
      "Ġbeef": 6411,
      "see": 6412,
      "Ġinward": 6413,
      "Ġhag": 6414,
      "Ġhaunt": 6415,
      "lect": 6416,
      "aying": 6417,
      "etition": 6418,
      "Ġmeed": 6419,
      "Ġmeal": 6420,
      "iments": 6421,
      "Ġnotice": 6422,
      "Ġforso": 6423,
      "Ġug": 6424,
      "Ġwears": 6425,
      "Ġeight": 6426,
      "Ġeff": 6427,
      "advent": 6428,
      "ril": 6429,
      "rial": 6430,
      "Ġstink": 6431,
      "Ġstag": 6432,
      "Ġsteep": 6433,
      "Ġstiff": 6434,
      "Ġkites": 6435,
      "iders": 6436,
      "asant": 6437,
      "Ġrein": 6438,
      "Ġrevive": 6439,
      "rament": 6440,
      "Ġlick": 6441,
      "Ġlief": 6442,
      "urb": 6443,
      "uring": 6444,
      "alks": 6445,
      "Ġashes": 6446,
      "Ġassem": 6447,
      "Ġdeer": 6448,
      "Ġdece": 6449,
      "Ġdeform": 6450,
      "roach": 6451,
      "Ġshade": 6452,
      "Ġdole": 6453,
      "amy": 6454,
      "amity": 6455,
      "aments": 6456,
      "Ġnod": 6457,
      "Ġnoon": 6458,
      "ushi": 6459,
      "anders": 6460,
      "Ġsearch": 6461,
      "Throw": 6462,
      "Ġann": 6463,
      "Ġancest": 6464,
      "Ġlodge": 6465,
      "Ġloathed": 6466,
      "ella": 6467,
      "Ġspark": 6468,
      "Ġspider": 6469,
      "Ġspurs": 6470,
      "ĠCambio": 6471,
      "ĠCupid": 6472,
      "Ġvul": 6473,
      "Ġvass": 6474,
      "Ġvouch": 6475,
      "Ġvial": 6476,
      "Ġventure": 6477,
      "ctor": 6478,
      "ousins": 6479,
      "Ġwhatsoever": 6480,
      "Ġshot": 6481,
      "Ġshown": 6482,
      "ules": 6483,
      "arthage": 6484,
      "Ġprate": 6485,
      "Ġprint": 6486,
      "Ġprating": 6487,
      "Ġmanhood": 6488,
      "ĠEven": 6489,
      "Ġamaz": 6490,
      "icle": 6491,
      "ication": 6492,
      "ived": 6493,
      "ively": 6494,
      "Ġblot": 6495,
      "Ġblue": 6496,
      "Ġblown": 6497,
      "Ġbliss": 6498,
      "Ġblaze": 6499,
      "Ġblushing": 6500,
      "embroke": 6501,
      "Ġtheme": 6502,
      "ĠLove": 6503,
      "Ġthereto": 6504,
      "Ġcanop": 6505,
      "eptune": 6506,
      "Ġherein": 6507,
      "Ġswoon": 6508,
      "Ġbranch": 6509,
      "Ġorator": 6510,
      "ĠSly": 6511,
      "ĠSunday": 6512,
      "ĠSycor": 6513,
      "ĠBagot": 6514,
      "ĠBenvolio": 6515,
      "Ġarise": 6516,
      "Ġunlike": 6517,
      "Ġunruly": 6518,
      "Ġworms": 6519,
      "Ġworser": 6520,
      "ĠHave": 6521,
      "Ġmustard": 6522,
      "Ġgraces": 6523,
      "Ġseeks": 6524,
      "Ġlikeli": 6525,
      "Ġshoulders": 6526,
      "ĠPoor": 6527,
      "Ġsack": 6528,
      "Ġsaved": 6529,
      "Ġplan": 6530,
      "peian": 6531,
      "ĠWest": 6532,
      "ĠWednesday": 6533,
      "Ġenforced": 6534,
      "Ġenrich": 6535,
      "unis": 6536,
      "uned": 6537,
      "fulness": 6538,
      "Ġrhe": 6539,
      "Ġranc": 6540,
      "Ġrush": 6541,
      "Ġroof": 6542,
      "Ġrushes": 6543,
      "Ġpock": 6544,
      "Ġpopular": 6545,
      "death": 6546,
      "ption": 6547,
      "Ġoffences": 6548,
      "Ġdiso": 6549,
      "Ġalar": 6550,
      "Ġaloud": 6551,
      "Ġalso": 6552,
      "ABRA": 6553,
      "Ġbrotherhood": 6554,
      "Ġfox": 6555,
      "Ġroses": 6556,
      "Ġroaring": 6557,
      "Ġexceed": 6558,
      "Ġrig": 6559,
      "Ġleap": 6560,
      "Ġleaving": 6561,
      "Ġslily": 6562,
      "Ġflock": 6563,
      "ĠTime": 6564,
      "ĠTew": 6565,
      "ĠTroy": 6566,
      "ĠTullus": 6567,
      "ĠTribunes": 6568,
      "ffic": 6569,
      "ĠKent": 6570,
      "Ġcommends": 6571,
      "Ġcler": 6572,
      "Ġsweetest": 6573,
      "Ġplebe": 6574,
      "Ġperfection": 6575,
      "Ġwring": 6576,
      "awful": 6577,
      "Ġtrim": 6578,
      "Ġotherwise": 6579,
      "Ġmeaner": 6580,
      "lier": 6581,
      "Ġscore": 6582,
      "Ġnighting": 6583,
      "Ġrace": 6584,
      "Thank": 6585,
      "these": 6586,
      "ĠFourth": 6587,
      "Ġdownfall": 6588,
      "together": 6589,
      "Ġappears": 6590,
      "Ġcontri": 6591,
      "GREY": 6592,
      "Ġwhist": 6593,
      "Northumberland": 6594,
      "Ġmothers": 6595,
      "Ġeverlast": 6596,
      "ksbury": 6597,
      "ĠJup": 6598,
      "Ġrum": 6599,
      "Ġpeer": 6600,
      "Ġlevel": 6601,
      "Ġharl": 6602,
      "Ġharvest": 6603,
      "Ġharbour": 6604,
      "Ġrests": 6605,
      "Ġsettled": 6606,
      "attern": 6607,
      "oses": 6608,
      "Ġmoe": 6609,
      "Ġmoving": 6610,
      "Ġmoiety": 6611,
      "Ġbestri": 6612,
      "Ġhenceforth": 6613,
      "Ġaccomp": 6614,
      "Ġfaced": 6615,
      "ulting": 6616,
      "Ġendured": 6617,
      "Ġpursue": 6618,
      "Ġcompare": 6619,
      "Ġcompound": 6620,
      "Ġchamp": 6621,
      "Ġdearth": 6622,
      "twould": 6623,
      "Ġtrees": 6624,
      "Ġhomely": 6625,
      "Ġbrand": 6626,
      "isterous": 6627,
      "Ġcharges": 6628,
      "Ġchances": 6629,
      "Ġchanging": 6630,
      "Ġconfidence": 6631,
      "Ġconfeder": 6632,
      "Ġcoast": 6633,
      "Ġcozen": 6634,
      "Ġimpeach": 6635,
      "Ġlights": 6636,
      "Ġroyalties": 6637,
      "Ġbeside": 6638,
      "Ġfully": 6639,
      "Ġdevour": 6640,
      "Ġwronged": 6641,
      "Ġmischief": 6642,
      "Ġlasting": 6643,
      "blance": 6644,
      "Ġafterward": 6645,
      "Ġthousands": 6646,
      "Ġholding": 6647,
      "Ġpatron": 6648,
      "Ġfallen": 6649,
      "Ġfalling": 6650,
      "Ġstrife": 6651,
      "ivant": 6652,
      "Ġhumility": 6653,
      "Ġbelong": 6654,
      "Ġbelieved": 6655,
      "Ġtalking": 6656,
      "Ġgrim": 6657,
      "Ġgrass": 6658,
      "Ġdram": 6659,
      "Ġserious": 6660,
      "Ġboisterous": 6661,
      "Ġadvoc": 6662,
      "Ġmerchant": 6663,
      "Ġrevenue": 6664,
      "Ġdoubtful": 6665,
      "Ġdancing": 6666,
      "Ġpersons": 6667,
      "Ġdischarge": 6668,
      "Attend": 6669,
      "Ġcommands": 6670,
      "Ġwindow": 6671,
      "ittany": 6672,
      "Ġcrab": 6673,
      "Ġhangman": 6674,
      "Ġproudest": 6675,
      "Twixt": 6676,
      "Ġintents": 6677,
      "Ġyielding": 6678,
      "Ġbreaks": 6679,
      "Ġmerri": 6680,
      "Ġtemple": 6681,
      "Ġrequire": 6682,
      "Ġdefy": 6683,
      "Ġlately": 6684,
      "Ġtenderness": 6685,
      "Ġsadly": 6686,
      "Ġchose": 6687,
      "Ġgrowth": 6688,
      "Ġasking": 6689,
      "Ġreported": 6690,
      "shine": 6691,
      "Ġwatery": 6692,
      "ĠMontagues": 6693,
      "Ġbattles": 6694,
      "Ġcrying": 6695,
      "Ġlearning": 6696,
      "Ġlearned": 6697,
      "Ġentreaty": 6698,
      "Ġdevils": 6699,
      "Ġmurders": 6700,
      "Ġsilk": 6701,
      "Ġboldness": 6702,
      "Ġruns": 6703,
      "Ġrevengeful": 6704,
      "Happ": 6705,
      "Happy": 6706,
      "voc": 6707,
      "Ġspeedy": 6708,
      "Ġquarter": 6709,
      "Ġconfessor": 6710,
      "ĠNed": 6711,
      "ĠNeptune": 6712,
      "Ġforehead": 6713,
      "Ġterr": 6714,
      "Ġminutes": 6715,
      "Ġrecreant": 6716,
      "Ġdelicate": 6717,
      "Ġdespised": 6718,
      "Ġbosoms": 6719,
      "Ġharmony": 6720,
      "Ġguiltless": 6721,
      "Ġattended": 6722,
      "Ġmurderous": 6723,
      "Ġveil": 6724,
      "Ġdistra": 6725,
      "Ġdistress": 6726,
      "Ġacts": 6727,
      "Ġwonderful": 6728,
      "Ġsingular": 6729,
      "Ġmusician": 6730,
      "Ġclosed": 6731,
      "Ġwaits": 6732,
      "Ġburden": 6733,
      "Ġsuffering": 6734,
      "Ġbreasts": 6735,
      "Ġwedded": 6736,
      "Ġdukes": 6737,
      "shearing": 6738,
      "Ġwisely": 6739,
      "Ġfeasts": 6740,
      "eshrew": 6741,
      "Ġgroom": 6742,
      "Ġredempt": 6743,
      "Ġbeggars": 6744,
      "Read": 6745,
      "Ready": 6746,
      "Swear": 6747,
      "ĠFortune": 6748,
      "Ġcrim": 6749,
      "Ġcrook": 6750,
      "Ġcrush": 6751,
      "standing": 6752,
      "Ġinterrupt": 6753,
      "Ġundo": 6754,
      "Ġevils": 6755,
      "Ġsumm": 6756,
      "ĠVolscians": 6757,
      "ĠVolscian": 6758,
      "Ġvisitation": 6759,
      "Ġbowl": 6760,
      "Ġbaby": 6761,
      "Ġframed": 6762,
      "Ġsafely": 6763,
      "Ġsafeguard": 6764,
      "Ġknocks": 6765,
      "Ġsacrament": 6766,
      "Ġleaden": 6767,
      "Ġlamentation": 6768,
      "ĠIsabella": 6769,
      "Ġignoble": 6770,
      "Ġclean": 6771,
      "Ġoppression": 6772,
      "Ġapproved": 6773,
      "Ġapprobation": 6774,
      "Ġcomplaint": 6775,
      "Ġdrinking": 6776,
      "Ġsurfeit": 6777,
      "Ġmidst": 6778,
      "Ġmidwife": 6779,
      "Ġdestiny": 6780,
      "Ġsmallest": 6781,
      "Confess": 6782,
      "Ġeasily": 6783,
      "Stands": 6784,
      "Ġdamnable": 6785,
      "Ġutmost": 6786,
      "Ġmildly": 6787,
      "Ġcauses": 6788,
      "Ġpuiss": 6789,
      "Ġpitied": 6790,
      "Ġinjustice": 6791,
      "Ġinsinu": 6792,
      "Ġproceedings": 6793,
      "Ġapart": 6794,
      "Ġmedic": 6795,
      "Ġmodel": 6796,
      "Ġfamiliar": 6797,
      "Ġreigns": 6798,
      "Ġprosperity": 6799,
      "Ġlenity": 6800,
      "Ġlowly": 6801,
      "angling": 6802,
      "Ġbending": 6803,
      "Ġslanderous": 6804,
      "ĠCapulets": 6805,
      "Ġmountain": 6806,
      "Ġunpro": 6807,
      "Ġunworthy": 6808,
      "Ġprovided": 6809,
      "Ġplants": 6810,
      "Ġneighbours": 6811,
      "Ġglasses": 6812,
      "Ġextremes": 6813,
      "when": 6814,
      "Ġconclusion": 6815,
      "Ġimagination": 6816,
      "rateful": 6817,
      "Ġunlook": 6818,
      "Ġunluck": 6819,
      "ĠAlban": 6820,
      "govern": 6821,
      "Ġavoided": 6822,
      "Ġeager": 6823,
      "Ġloathsome": 6824,
      "Ġloyalty": 6825,
      "Ġaims": 6826,
      "Ġsensible": 6827,
      "Ġcrept": 6828,
      "Ġpilot": 6829,
      "Ġstatutes": 6830,
      "Ġchiefest": 6831,
      "cannot": 6832,
      "Ġcalamity": 6833,
      "Ġpinch": 6834,
      "Ġinfected": 6835,
      "Ġstocks": 6836,
      "Ġdearer": 6837,
      "Ġangels": 6838,
      "Ġlodged": 6839,
      "Ġlodging": 6840,
      "Ġpursuit": 6841,
      "Ġconqueror": 6842,
      "Prepare": 6843,
      "Ġtutor": 6844,
      "Ġfleet": 6845,
      "Ġfrozen": 6846,
      "ARCHBISHOP": 6847,
      "Ġadvanced": 6848,
      "Ġcorruption": 6849,
      "Ġmagist": 6850,
      "Ġconcerns": 6851,
      "Ġcloak": 6852,
      "Ġwhoreson": 6853,
      "Ġcompassion": 6854,
      "bric": 6855,
      "Ġstolen": 6856,
      "Ġsprings": 6857,
      "Ġswelling": 6858,
      "Ġabhorr": 6859,
      "Ġadverse": 6860,
      "Ġperjured": 6861,
      "Suppose": 6862,
      "Ġmultitude": 6863,
      "Ġnails": 6864,
      "Ġlinea": 6865,
      "Ġpiercing": 6866,
      "Ġinquire": 6867,
      "Ġclimate": 6868,
      "Ġwrinkled": 6869,
      "Ġwhispering": 6870,
      "Ġcorrection": 6871,
      "ĠAntium": 6872,
      "Ġcircumstance": 6873,
      "Lieutenant": 6874,
      "Sometime": 6875,
      "craft": 6876,
      "favour": 6877,
      "Ġtaunts": 6878,
      "Ġmoody": 6879,
      "Ġsteward": 6880,
      "Ġmanifest": 6881,
      "Ġbranches": 6882,
      "Ġunwilling": 6883,
      "ĠTarpeian": 6884,
      "Ġincensed": 6885,
      "Ġsubstitute": 6886,
      "Ġflatterers": 6887,
      "Mistake": 6888,
      "Ġtiger": 6889,
      "Ġmilk": 6890,
      "Ġnumbers": 6891,
      "Ġhinder": 6892,
      "Ġpearl": 6893,
      "Ġbereft": 6894,
      "Ġornaments": 6895,
      "ĠBrittany": 6896,
      "Ġunseen": 6897,
      "Ġdisgraced": 6898,
      "Ġtrifles": 6899,
      "Ġserpent": 6900,
      "Ġsufficient": 6901,
      "Ġestimation": 6902,
      "Ġoccupation": 6903,
      "Break": 6904,
      "Virtue": 6905,
      "Ġeternal": 6906,
      "Ġtardy": 6907,
      "Ġsurpr": 6908,
      "Ġfantast": 6909,
      "Ġlunatic": 6910,
      "Ġhistory": 6911,
      "Ġconsequence": 6912,
      "Ġmarshal": 6913,
      "Ġmarvellous": 6914,
      "Ġprophesy": 6915,
      "Ġceremonious": 6916,
      "Murder": 6917,
      "Ġafeard": 6918,
      "Ġsixteen": 6919,
      "Ġmoment": 6920,
      "Ġmurdered": 6921,
      "Ġfrantic": 6922,
      "Ġfifteen": 6923,
      "Ġcabin": 6924,
      "Ġnorthern": 6925,
      "Ġforsooth": 6926,
      "adventure": 6927,
      "ĠSycorax": 6928,
      "Ġlikelihood": 6929,
      "ABRAHAM": 6930,
      "ĠTewksbury": 6931,
      "ĠJupiter": 6932,
      "Ġadvocate": 6933,
      "Ġredemption": 6934,
      "Again": 6935,
      "Aff": 6936,
      "AGE": 6937,
      "Aumerle": 6938,
      "Apollo": 6939,
      "Apothecary": 6940,
      "Ban": 6941,
      "BON": 6942,
      "Bold": 6943,
      "Bless": 6944,
      "Cle": 6945,
      "Cast": 6946,
      "Cold": 6947,
      "Carry": 6948,
      "Cursed": 6949,
      "Den": 6950,
      "Dest": 6951,
      "Def": 6952,
      "DION": 6953,
      "Direct": 6954,
      "Er": 6955,
      "End": 6956,
      "Every": 6957,
      "EMI": 6958,
      "Fit": 6959,
      "Fill": 6960,
      "Fourth": 6961,
      "Gain": 6962,
      "Grand": 6963,
      "Groom": 6964,
      "Ho": 6965,
      "Har": 6966,
      "High": 6967,
      "Huntsman": 6968,
      "Imp": 6969,
      "Just": 6970,
      "Join": 6971,
      "Keeper": 6972,
      "Left": 6973,
      "Music": 6974,
      "NATH": 6975,
      "Open": 6976,
      "Obey": 6977,
      "Pres": 6978,
      "PAGE": 6979,
      "Ren": 6980,
      "Run": 6981,
      "Ratcliff": 6982,
      "Sus": 6983,
      "Sic": 6984,
      "Trust": 6985,
      "Ur": 6986,
      "Wife": 6987,
      "Worse": 6988,
      "ais": 6989,
      "aches": 6990,
      "avish": 6991,
      "bon": 6992,
      "bot": 6993,
      "bat": 6994,
      "bid": 6995,
      "bur": 6996,
      "best": 6997,
      "bel": 6998,
      "bles": 6999,
      "bearer": 7000,
      "co": 7001,
      "cis": 7002,
      "cour": 7003,
      "cri": 7004,
      "core": 7005,
      "cast": 7006,
      "count": 7007,
      "cured": 7008,
      "cals": 7009,
      "dra": 7010,
      "dist": 7011,
      "daughter": 7012,
      "door": 7013,
      "duce": 7014,
      "eks": 7015,
      "fly": 7016,
      "fend": 7017,
      "found": 7018,
      "franch": 7019,
      "gea": 7020,
      "gage": 7021,
      "grown": 7022,
      "gled": 7023,
      "greed": 7024,
      "hur": 7025,
      "honour": 7026,
      "iqu": 7027,
      "ivers": 7028,
      "jud": 7029,
      "kn": 7030,
      "kens": 7031,
      "lm": 7032,
      "lu": 7033,
      "leness": 7034,
      "mar": 7035,
      "mal": 7036,
      "make": 7037,
      "mind": 7038,
      "much": 7039,
      "mission": 7040,
      "nut": 7041,
      "name": 7042,
      "never": 7043,
      "nothing": 7044,
      "oa": 7045,
      "og": 7046,
      "overy": 7047,
      "occ": 7048,
      "ops": 7049,
      "opher": 7050,
      "ph": 7051,
      "po": 7052,
      "pre": 7053,
      "por": 7054,
      "put": 7055,
      "phan": 7056,
      "pers": 7057,
      "pres": 7058,
      "pire": 7059,
      "ples": 7060,
      "point": 7061,
      "picious": 7062,
      "sion": 7063,
      "spe": 7064,
      "sick": 7065,
      "sign": 7066,
      "such": 7067,
      "side": 7068,
      "somet": 7069,
      "scape": 7070,
      "ton": 7071,
      "ule": 7072,
      "uish": 7073,
      "uced": 7074,
      "ukes": 7075,
      "vil": 7076,
      "vance": 7077,
      "wit": 7078,
      "who": 7079,
      "why": 7080,
      "weet": 7081,
      "were": 7082,
      "witted": 7083,
      "yp": 7084,
      "yet": 7085,
      "ĠU": 7086,
      "Ġire": 7087,
      "ĠNo": 7088,
      "ĠThus": 7089,
      "Ġton": 7090,
      "Ġtur": 7091,
      "Ġtea": 7092,
      "Ġtink": 7093,
      "Ġtreat": 7094,
      "Ġtents": 7095,
      "Ġtainted": 7096,
      "Ġtailor": 7097,
      "Ġtamed": 7098,
      "Ġtumble": 7099,
      "Ġack": 7100,
      "Ġafore": 7101,
      "Ġape": 7102,
      "ouches": 7103,
      "Ġsith": 7104,
      "Ġsine": 7105,
      "Ġsitting": 7106,
      "Ġsiege": 7107,
      "Ġmast": 7108,
      "Ġmant": 7109,
      "Ġmuff": 7110,
      "Ġmiles": 7111,
      "iner": 7112,
      "Ġwester": 7113,
      "Ġwilful": 7114,
      "reth": 7115,
      "report": 7116,
      "has": 7117,
      "haeth": 7118,
      "Ġbought": 7119,
      "Ġbishop": 7120,
      "isc": 7121,
      "isher": 7122,
      "isome": 7123,
      "oricles": 7124,
      "Ġfet": 7125,
      "Ġfem": 7126,
      "Ġfits": 7127,
      "Ġfulf": 7128,
      "erous": 7129,
      "lly": 7130,
      "lling": 7131,
      "itan": 7132,
      "once": 7133,
      "Ġder": 7134,
      "Ġdom": 7135,
      "Ġded": 7136,
      "Ġdil": 7137,
      "Ġdame": 7138,
      "Ġdiet": 7139,
      "Ġdrows": 7140,
      "Ġdumb": 7141,
      "Ġcand": 7142,
      "Ġcave": 7143,
      "Ġcuck": 7144,
      "Ġcrest": 7145,
      "Ġcrew": 7146,
      "Ġcurious": 7147,
      "Ġcushi": 7148,
      "Ġcousins": 7149,
      "Ġnon": 7150,
      "Ġnaught": 7151,
      "Ġnourish": 7152,
      "Ġlink": 7153,
      "Ġlace": 7154,
      "Ġloose": 7155,
      "Ġlung": 7156,
      "Ġlends": 7157,
      "Ġlatest": 7158,
      "Ġyare": 7159,
      "Ġyester": 7160,
      "Ġthrees": 7161,
      "arison": 7162,
      "Ġhood": 7163,
      "Ġom": 7164,
      "Ġobt": 7165,
      "Ġtoe": 7166,
      "Ġtoken": 7167,
      "Ġtoads": 7168,
      "Ġtower": 7169,
      "Ġpine": 7170,
      "Ġpate": 7171,
      "Ġpuff": 7172,
      "Ġpedant": 7173,
      "Ġpounds": 7174,
      "Ġpattern": 7175,
      "Ġheal": 7176,
      "Ġheigh": 7177,
      "stra": 7178,
      "stone": 7179,
      "strong": 7180,
      "strel": 7181,
      "owick": 7182,
      "ank": 7183,
      "omenes": 7184,
      "Ġgam": 7185,
      "Ġgame": 7186,
      "Ġgaz": 7187,
      "Ġgrum": 7188,
      "Ġgeld": 7189,
      "Ġgulf": 7190,
      "Ġgloves": 7191,
      "ato": 7192,
      "atient": 7193,
      "Ġbeet": 7194,
      "Ġbeads": 7195,
      "seth": 7196,
      "Ġinve": 7197,
      "Ġinch": 7198,
      "Ġinvent": 7199,
      "Ġinherit": 7200,
      "cel": 7201,
      "ceives": 7202,
      "ceiving": 7203,
      "Ġhaw": 7204,
      "Ġhall": 7205,
      "Ġhalt": 7206,
      "ediment": 7207,
      "Ġmellow": 7208,
      "imo": 7209,
      "ims": 7210,
      "Ġnotes": 7211,
      "Ġnotwith": 7212,
      "chool": 7213,
      "child": 7214,
      "Ġforces": 7215,
      "key": 7216,
      "Ġweed": 7217,
      "illed": 7218,
      "Ġelo": 7219,
      "Ġebb": 7220,
      "herited": 7221,
      "entious": 7222,
      "ado": 7223,
      "adem": 7224,
      "adise": 7225,
      "rion": 7226,
      "riam": 7227,
      "rief": 7228,
      "rieve": 7229,
      "Ġstu": 7230,
      "Ġstem": 7231,
      "Ġstark": 7232,
      "Ġstaff": 7233,
      "ghts": 7234,
      "idd": 7235,
      "iding": 7236,
      "asy": 7237,
      "asing": 7238,
      "asures": 7239,
      "Ġrent": 7240,
      "Ġrender": 7241,
      "Ġresem": 7242,
      "raken": 7243,
      "rails": 7244,
      "Ġliar": 7245,
      "Ġliqu": 7246,
      "urvy": 7247,
      "Ġsolic": 7248,
      "Ġashore": 7249,
      "Ġdeceive": 7250,
      "Ġdefect": 7251,
      "aining": 7252,
      "verse": 7253,
      "verdone": 7254,
      "estiv": 7255,
      "eap": 7256,
      "earest": 7257,
      "Ġdoct": 7258,
      "Ġdoves": 7259,
      "Ġdoors": 7260,
      "Ġnoses": 7261,
      "Ġbutter": 7262,
      "using": 7263,
      "usiness": 7264,
      "ifth": 7265,
      "Ġsear": 7266,
      "Ġsequ": 7267,
      "Ġallay": 7268,
      "Ġallies": 7269,
      "Ġsued": 7270,
      "Ġsung": 7271,
      "Ġsunder": 7272,
      "Ġsugg": 7273,
      "Ġsugar": 7274,
      "Ġherbs": 7275,
      "thw": 7276,
      "throw": 7277,
      "thrift": 7278,
      "Ġansw": 7279,
      "Ġantic": 7280,
      "terate": 7281,
      "Ġloins": 7282,
      "Ġlocks": 7283,
      "Ġspar": 7284,
      "Ġsped": 7285,
      "Ġspilt": 7286,
      "Ġspices": 7287,
      "Ġspiders": 7288,
      "Ġfaction": 7289,
      "ĠCle": 7290,
      "ĠCaptain": 7291,
      "ĠCarthage": 7292,
      "Ġnegl": 7293,
      "hoeb": 7294,
      "Ġknit": 7295,
      "ANIEL": 7296,
      "ĠRo": 7297,
      "Ġvi": 7298,
      "Ġvine": 7299,
      "Ġvig": 7300,
      "cts": 7301,
      "Ġshout": 7302,
      "Ġshower": 7303,
      "ulous": 7304,
      "antime": 7305,
      "quet": 7306,
      "athom": 7307,
      "Whate": 7308,
      "ĠMadam": 7309,
      "Ġwhet": 7310,
      "Ġwheel": 7311,
      "Ġamend": 7312,
      "ending": 7313,
      "icial": 7314,
      "bled": 7315,
      "iel": 7316,
      "ivered": 7317,
      "Ġblister": 7318,
      "Ġblade": 7319,
      "venient": 7320,
      "ĠGentle": 7321,
      "Forth": 7322,
      "Forbear": 7323,
      "Forgive": 7324,
      "Forbid": 7325,
      "olar": 7326,
      "olve": 7327,
      "olour": 7328,
      "ĠLam": 7329,
      "ĠLod": 7330,
      "ĠLeave": 7331,
      "Ġhatch": 7332,
      "Ġcanker": 7333,
      "feel": 7334,
      "feits": 7335,
      "ressed": 7336,
      "ately": 7337,
      "Ġbrass": 7338,
      "ppet": 7339,
      "pped": 7340,
      "Ġorphan": 7341,
      "allel": 7342,
      "ĠShe": 7343,
      "ĠSweet": 7344,
      "Ġusure": 7345,
      "ĠBes": 7346,
      "ĠBraken": 7347,
      "Ġarch": 7348,
      "Ġargu": 7349,
      "Ġarbit": 7350,
      "Ġunple": 7351,
      "Ġunrest": 7352,
      "Ġworshi": 7353,
      "elting": 7354,
      "Ġquake": 7355,
      "Ġquaint": 7356,
      "Ġjade": 7357,
      "Ġjoc": 7358,
      "ĠHa": 7359,
      "ĠHear": 7360,
      "ĠHerc": 7361,
      "Ġmusty": 7362,
      "Ġgraft": 7363,
      "Ġhole": 7364,
      "cip": 7365,
      "cially": 7366,
      "Ġprog": 7367,
      "Ġprocure": 7368,
      "ĠPercy": 7369,
      "ĠPatri": 7370,
      "ĠPembroke": 7371,
      "ĠPhaeth": 7372,
      "ĠPhoeb": 7373,
      "Ġsap": 7374,
      "Ġmadly": 7375,
      "Ġmadest": 7376,
      "Ġmadman": 7377,
      "ums": 7378,
      "umes": 7379,
      "umps": 7380,
      "uments": 7381,
      "umny": 7382,
      "Ġplate": 7383,
      "Ġplaints": 7384,
      "people": 7385,
      "ĠWh": 7386,
      "ĠWelcome": 7387,
      "ĠWales": 7388,
      "ĠWalter": 7389,
      "owned": 7390,
      "Ġrats": 7391,
      "Ġrites": 7392,
      "Ġrising": 7393,
      "Ġpox": 7394,
      "Ġpoll": 7395,
      "ptory": 7396,
      "ĠAh": 7397,
      "ĠAm": 7398,
      "ĠAr": 7399,
      "Ġtruer": 7400,
      "Thoughts": 7401,
      "Ġmarr": 7402,
      "Ġmarble": 7403,
      "Ġmariners": 7404,
      "Ins": 7405,
      "Infer": 7406,
      "acks": 7407,
      "Ġdisl": 7408,
      "Ġdisorder": 7409,
      "Ġaloof": 7410,
      "Ġaltogether": 7411,
      "Ġheap": 7412,
      "oyal": 7413,
      "Ġhears": 7414,
      "echer": 7415,
      "eches": 7416,
      "Ġabst": 7417,
      "Ġabod": 7418,
      "Ġfold": 7419,
      "Ġfoil": 7420,
      "Ġearl": 7421,
      "Ġearldom": 7422,
      "Ġrode": 7423,
      "Ġrocks": 7424,
      "Ġexclaim": 7425,
      "Ġexact": 7426,
      "Ġexperience": 7427,
      "Ġlooker": 7428,
      "agine": 7429,
      "ervation": 7430,
      "aved": 7431,
      "Ġripen": 7432,
      "Ġridd": 7433,
      "Ġrivers": 7434,
      "tised": 7435,
      "Wherefore": 7436,
      "Ġslack": 7437,
      "Ġwarn": 7438,
      "Ġflame": 7439,
      "ĠTur": 7440,
      "ĠTunis": 7441,
      "ffer": 7442,
      "Ġbreeding": 7443,
      "izab": 7444,
      "sses": 7445,
      "Ġclap": 7446,
      "Ġprec": 7447,
      "Ġpreced": 7448,
      "Ġprerog": 7449,
      "Ġsweets": 7450,
      "Ġprays": 7451,
      "Ġnobleman": 7452,
      "Ġpledge": 7453,
      "ĠDoricles": 7454,
      "Ġperd": 7455,
      "Ġperf": 7456,
      "Ġpermit": 7457,
      "Ġwrangling": 7458,
      "aws": 7459,
      "Ġtrades": 7460,
      "Ġwayward": 7461,
      "Ġheadstrong": 7462,
      "lip": 7463,
      "Ġscour": 7464,
      "Ġscru": 7465,
      "Ġscape": 7466,
      "Ġpreserved": 7467,
      "Ġqueens": 7468,
      "Ġchival": 7469,
      "Ġrages": 7470,
      "Ġraging": 7471,
      "Ġraiment": 7472,
      "Ġragged": 7473,
      "their": 7474,
      "abour": 7475,
      "ĠFear": 7476,
      "ĠFran": 7477,
      "Ġapply": 7478,
      "Ġappell": 7479,
      "Ġappoint": 7480,
      "Ġarmed": 7481,
      "Norfolk": 7482,
      "sweet": 7483,
      "Ġbegot": 7484,
      "range": 7485,
      "Ġmale": 7486,
      "Ġimmediate": 7487,
      "Ġlongest": 7488,
      "ĠMarch": 7489,
      "Ġreplied": 7490,
      "Ġrepossess": 7491,
      "Ġrepetition": 7492,
      "Ġfriendship": 7493,
      "Ġafoot": 7494,
      "ĠJer": 7495,
      "ĠJun": 7496,
      "ĠJOHN": 7497,
      "ĠJesu": 7498,
      "Ġconspir": 7499,
      "Ġconsumed": 7500,
      "Ġconsidered": 7501,
      "Ġperem": 7502,
      "Ġlevy": 7503,
      "Ġentrails": 7504,
      "Ġlieutenant": 7505,
      "chelor": 7506,
      "Ġresort": 7507,
      "Ġrescue": 7508,
      "Ġtried": 7509,
      "Ġmoan": 7510,
      "Ġfollies": 7511,
      "Ġprivy": 7512,
      "Thyself": 7513,
      "Ġchaf": 7514,
      "Ġchap": 7515,
      "Ġpeaceful": 7516,
      "Ġelsewhere": 7517,
      "ailing": 7518,
      "asonable": 7519,
      "Ġbackward": 7520,
      "Ġcounted": 7521,
      "Ġladyship": 7522,
      "Ġneedle": 7523,
      "Ġneedless": 7524,
      "Ġtrembles": 7525,
      "Ġhighway": 7526,
      "Stanley": 7527,
      "Ġhusbands": 7528,
      "Ġbanquet": 7529,
      "Ġminded": 7530,
      "Ġbraved": 7531,
      "Ġchest": 7532,
      "Ġbribe": 7533,
      "Ġshowers": 7534,
      "Ġconfer": 7535,
      "Ġconfines": 7536,
      "Ġconfusion": 7537,
      "Ġcoz": 7538,
      "Ġcoal": 7539,
      "Ġcoals": 7540,
      "Ġcaused": 7541,
      "Ġglories": 7542,
      "Ġimpart": 7543,
      "Ġimpud": 7544,
      "Ġimpatience": 7545,
      "Ġimpression": 7546,
      "Ġimpatient": 7547,
      "Ġimpediment": 7548,
      "Ġbodes": 7549,
      "Ġmistaking": 7550,
      "Ġlightly": 7551,
      "Ġlightness": 7552,
      "Ġnatures": 7553,
      "Ġpardons": 7554,
      "Claudio": 7555,
      "Ġbeseem": 7556,
      "Ġhappier": 7557,
      "Ġdevice": 7558,
      "blown": 7559,
      "Ġunderne": 7560,
      "Ġundergo": 7561,
      "Ġkilled": 7562,
      "Ġfollowing": 7563,
      "Ġfarm": 7564,
      "Ġsunshine": 7565,
      "Ġbush": 7566,
      "Any": 7567,
      "Ġstreet": 7568,
      "Ġstream": 7569,
      "Ġturned": 7570,
      "Ġcomforts": 7571,
      "Ġcomfortable": 7572,
      "Ġsleeps": 7573,
      "Ġsleepy": 7574,
      "itories": 7575,
      "Ġwelcomes": 7576,
      "Ġthankful": 7577,
      "Ġbox": 7578,
      "Ġboon": 7579,
      "Ġboat": 7580,
      "Ġfights": 7581,
      "Ġfighting": 7582,
      "holds": 7583,
      "Ġfalsely": 7584,
      "plish": 7585,
      "Ġmerciful": 7586,
      "Ġmatters": 7587,
      "Ġassault": 7588,
      "Ġprisoners": 7589,
      "Ġdangers": 7590,
      "Ġdreamt": 7591,
      "enerate": 7592,
      "Ġstrait": 7593,
      "Ġdischarged": 7594,
      "Ġcommanding": 7595,
      "Ġdared": 7596,
      "Twill": 7597,
      "Twice": 7598,
      "Twenty": 7599,
      "comp": 7600,
      "Ġsisterhood": 7601,
      "Ġfouler": 7602,
      "versy": 7603,
      "Ġdenial": 7604,
      "Ġawry": 7605,
      "Ġmerrim": 7606,
      "Ġsupport": 7607,
      "Ġsuppose": 7608,
      "Ġsuppli": 7609,
      "Ġbeating": 7610,
      "Ġrequires": 7611,
      "Ġrequired": 7612,
      "Ġvalue": 7613,
      "Ġaffright": 7614,
      "Ġwoeful": 7615,
      "Ġtenderly": 7616,
      "Ġreturned": 7617,
      "mph": 7618,
      "mpet": 7619,
      "Ġdeeper": 7620,
      "Ġdeeply": 7621,
      "Ġfootman": 7622,
      "Ġchop": 7623,
      "Ġcoldly": 7624,
      "Ġnursed": 7625,
      "azon": 7626,
      "Ġplucks": 7627,
      "shining": 7628,
      "xton": 7629,
      "Ġairy": 7630,
      "Ġsuffice": 7631,
      "Ġpastime": 7632,
      "Ġfasting": 7633,
      "Ġsilken": 7634,
      "Ġstrongly": 7635,
      "Canst": 7636,
      "Ġpossessed": 7637,
      "voke": 7638,
      "voided": 7639,
      "Ġinfring": 7640,
      "Ġinfirm": 7641,
      "Ġprofan": 7642,
      "Ġprofits": 7643,
      "Ġconfession": 7644,
      "ĠNature": 7645,
      "Ġmocking": 7646,
      "Ġmockery": 7647,
      "Ġforest": 7648,
      "Ġdivided": 7649,
      "Ġdivines": 7650,
      "Ġdivision": 7651,
      "Ġcarries": 7652,
      "Ġposterity": 7653,
      "Ġcounsels": 7654,
      "Command": 7655,
      "Commit": 7656,
      "Ġterrible": 7657,
      "Ġminstrel": 7658,
      "Ġinconstant": 7659,
      "Ġrecover": 7660,
      "Ġresolute": 7661,
      "nowledge": 7662,
      "Ġharmless": 7663,
      "ĠHector": 7664,
      "Ġagreed": 7665,
      "Ġwhipt": 7666,
      "Ġdishon": 7667,
      "Ġdisting": 7668,
      "Ġdisturb": 7669,
      "Ġdistressed": 7670,
      "Ġtribune": 7671,
      "Ġtribute": 7672,
      "Ġdraws": 7673,
      "Ġactor": 7674,
      "Ġstirs": 7675,
      "Ġstirring": 7676,
      "Ġbreathes": 7677,
      "Ġclosely": 7678,
      "Ġforgiveness": 7679,
      "Ġsufferance": 7680,
      "Ġskulls": 7681,
      "Ġsigns": 7682,
      "Ġwisest": 7683,
      "Ġregiment": 7684,
      "Ġpoisonous": 7685,
      "Ġcheerfully": 7686,
      "shepherd": 7687,
      "Ġtax": 7688,
      "Ġdireful": 7689,
      "Ġpays": 7690,
      "Ġsuccor": 7691,
      "Ġblessings": 7692,
      "Ġbleed": 7693,
      "Ġbleeds": 7694,
      "Ġinterchange": 7695,
      "Ġembass": 7696,
      "Ġmalign": 7697,
      "Ġhurried": 7698,
      "Ġchamberlain": 7699,
      "Ġcowardice": 7700,
      "Ġlimits": 7701,
      "Ġscorns": 7702,
      "Ġwitnesses": 7703,
      "Ġbroad": 7704,
      "Ġcreated": 7705,
      "Ġcreatures": 7706,
      "Ġcaparison": 7707,
      "ĠChristopher": 7708,
      "Ġidly": 7709,
      "Ġhideous": 7710,
      "Ġbeastly": 7711,
      "Ġrebel": 7712,
      "Ġrebuke": 7713,
      "Ġscarlet": 7714,
      "Ġsecrets": 7715,
      "Ġfills": 7716,
      "Ġstrumpet": 7717,
      "Ġpuppet": 7718,
      "Ġinjurious": 7719,
      "Ġinjuries": 7720,
      "Ġinsulting": 7721,
      "Ġinnocence": 7722,
      "Ġadmit": 7723,
      "Ġadmir": 7724,
      "Ġadmitted": 7725,
      "Ġfamish": 7726,
      "Ġgovernor": 7727,
      "Enough": 7728,
      "Proud": 7729,
      "Ġscholar": 7730,
      "Ġmutiny": 7731,
      "Ġlustful": 7732,
      "Ġthreats": 7733,
      "Ġindiffe": 7734,
      "Ġindirect": 7735,
      "Ġsolely": 7736,
      "Ġgrandfather": 7737,
      "Ġsafer": 7738,
      "Ġsentenced": 7739,
      "Ġdrunkard": 7740,
      "Belike": 7741,
      "Heart": 7742,
      "Measure": 7743,
      "Meantime": 7744,
      "piring": 7745,
      "Ġmounting": 7746,
      "Ġfeat": 7747,
      "Ġcaptive": 7748,
      "ĠAntonio": 7749,
      "Ġcontrad": 7750,
      "Ġdegrees": 7751,
      "Ġdemands": 7752,
      "Ġremedies": 7753,
      "Ġunderstanding": 7754,
      "Ġgreetings": 7755,
      "Ġtriumphs": 7756,
      "Ġfarthest": 7757,
      "Ġfaintly": 7758,
      "Ġdwells": 7759,
      "Ġthroats": 7760,
      "Ġhunger": 7761,
      "Ġgait": 7762,
      "Ġgaol": 7763,
      "Ġgape": 7764,
      "Ġgaoler": 7765,
      "Ġgentler": 7766,
      "Ġchastity": 7767,
      "Ġchastisement": 7768,
      "Ġmiseries": 7769,
      "Ġextremest": 7770,
      "Ġscarcely": 7771,
      "whelm": 7772,
      "Ġfirmly": 7773,
      "Ġholid": 7774,
      "Ġinclination": 7775,
      "Ġrelig": 7776,
      "Ġunborn": 7777,
      "Ġbootless": 7778,
      "Ġconditions": 7779,
      "Ġschoolmaster": 7780,
      "Ġfruitful": 7781,
      "Ġbald": 7782,
      "Ġbachelor": 7783,
      "Ġfeeding": 7784,
      "Ġstooping": 7785,
      "Ġunlawful": 7786,
      "ĠAlas": 7787,
      "therefore": 7788,
      "Ġimportune": 7789,
      "Ġprophecy": 7790,
      "portion": 7791,
      "Ġdecay": 7792,
      "Ġknightly": 7793,
      "Ġknighthood": 7794,
      "Ġshrink": 7795,
      "Ġroundly": 7796,
      "Ġfrighted": 7797,
      "Ġassistance": 7798,
      "Ġdelights": 7799,
      "Ġutterance": 7800,
      "actors": 7801,
      "Ġcreate": 7802,
      "Ġlouder": 7803,
      "Ġstarve": 7804,
      "Ġjealousies": 7805,
      "Ġrascals": 7806,
      "Ġtreachery": 7807,
      "Ġerror": 7808,
      "Ġcalumny": 7809,
      "Ġphysician": 7810,
      "Ġweighty": 7811,
      "Ġsupreme": 7812,
      "runes": 7813,
      "Ġpursued": 7814,
      "Repent": 7815,
      "Shame": 7816,
      "paration": 7817,
      "Ġwolves": 7818,
      "Ġwonders": 7819,
      "Ġbaseness": 7820,
      "Ġbudge": 7821,
      "Ġdiadem": 7822,
      "Ġbeware": 7823,
      "Ġrewards": 7824,
      "Ġpronounced": 7825,
      "Ġambition": 7826,
      "Ġargos": 7827,
      "ĠFlore": 7828,
      "ĠFloriz": 7829,
      "Ġcracking": 7830,
      "Ġpenitence": 7831,
      "Ġpublicly": 7832,
      "Arm": 7833,
      "Arise": 7834,
      "doing": 7835,
      "scap": 7836,
      "Ġmagic": 7837,
      "Ġhazel": 7838,
      "Ġmerely": 7839,
      "ĠCalais": 7840,
      "ĠElizab": 7841,
      "Ġapprehens": 7842,
      "Ġgreyh": 7843,
      "Ġcholeric": 7844,
      "Consider": 7845,
      "glass": 7846,
      "Ġmillions": 7847,
      "regory": 7848,
      "Ġthorns": 7849,
      "Ġbefal": 7850,
      "Ġbefits": 7851,
      "Ġnobler": 7852,
      "ĠSTANLEY": 7853,
      "Ġworthily": 7854,
      "Ġadvertised": 7855,
      "Ġperjury": 7856,
      "Ġwitchcraft": 7857,
      "Ġbrawl": 7858,
      "Ġbrawling": 7859,
      "Ġachieve": 7860,
      "Ġachieved": 7861,
      "Ġsyll": 7862,
      "Ġwinged": 7863,
      "Ġfunction": 7864,
      "Ġhorror": 7865,
      "Ġforsake": 7866,
      "Ġevents": 7867,
      "Ġdissemble": 7868,
      "Ġclimb": 7869,
      "ĠDeath": 7870,
      "Ġrestraint": 7871,
      "Ġafflict": 7872,
      "ĠAntiates": 7873,
      "Ġcircumstances": 7874,
      "Condemn": 7875,
      "Knock": 7876,
      "Small": 7877,
      "mongst": 7878,
      "Ġtimeless": 7879,
      "Ġwidows": 7880,
      "Ġnapkin": 7881,
      "Ġdebase": 7882,
      "Ġsuperfl": 7883,
      "Ġsplit": 7884,
      "Ġvillany": 7885,
      "Ġvolume": 7886,
      "Ġshriek": 7887,
      "Ġdispleasure": 7888,
      "Ġdisguised": 7889,
      "Ġscolding": 7890,
      "Ġcouncil": 7891,
      "Ġcouncils": 7892,
      "Ġcurtain": 7893,
      "Amongst": 7894,
      "Between": 7895,
      "Betwixt": 7896,
      "Pursu": 7897,
      "Seize": 7898,
      "URREY": 7899,
      "Ġbaggage": 7900,
      "Ġhomage": 7901,
      "Ġhigher": 7902,
      "Ġpedlar": 7903,
      "Ġhaughty": 7904,
      "ĠGreece": 7905,
      "ĠScotland": 7906,
      "ĠSpeak": 7907,
      "Ġunfeigned": 7908,
      "Ġappeared": 7909,
      "Ġconsorted": 7910,
      "Ġbankrupt": 7911,
      "Ġdragon": 7912,
      "Ġtransported": 7913,
      "Evermore": 7914,
      "England": 7915,
      "Ġsaucy": 7916,
      "Ġmourning": 7917,
      "Ġcentre": 7918,
      "Ġissued": 7919,
      "Ġsociety": 7920,
      "Ġanchor": 7921,
      "ĠEmilia": 7922,
      "Ġshelter": 7923,
      "ĠWelshmen": 7924,
      "Ġimperial": 7925,
      "Ġlecture": 7926,
      "Ġrestored": 7927,
      "Ġsmiling": 7928,
      "Ġcounsellor": 7929,
      "Ġinferior": 7930,
      "Ġdivorce": 7931,
      "Ġtroublous": 7932,
      "Ġexpedition": 7933,
      "Ġinsolence": 7934,
      "Dispatch": 7935,
      "Ġconcluded": 7936,
      "Ġtestimony": 7937,
      "Ġreckoning": 7938,
      "Affection": 7939,
      "Touching": 7940,
      "posterous": 7941,
      "Ġsands": 7942,
      "Ġcordial": 7943,
      "Ġpestilence": 7944,
      "Ġpupil": 7945,
      "Ġugly": 7946,
      "Ġvulgar": 7947,
      "Ġvassal": 7948,
      "Ġamazement": 7949,
      "Ġcanopy": 7950,
      "Ġrancour": 7951,
      "Ġpocket": 7952,
      "Ġdisobed": 7953,
      "Ġplebeians": 7954,
      "Ġnightingale": 7955,
      "Ġwhistle": 7956,
      "Ġharlot": 7957,
      "Ġmerrily": 7958,
      "Ġterritories": 7959,
      "Ġpuissant": 7960,
      "Ġmedicine": 7961,
      "BONA": 7962,
      "EMILIA": 7963,
      "Gainst": 7964,
      "Grandam": 7965,
      "Harp": 7966,
      "NATHANIEL": 7967,
      "Urge": 7968,
      "iquity": 7969,
      "Ġtonight": 7970,
      "Ġsinew": 7971,
      "Ġwestern": 7972,
      "Ġfemale": 7973,
      "Ġcuckold": 7974,
      "Ġlungs": 7975,
      "Ġobtain": 7976,
      "Ġnotwithstanding": 7977,
      "Ġeloqu": 7978,
      "Ġsolicit": 7979,
      "estival": 7980,
      "Ġvineyard": 7981,
      "ĠLodowick": 7982,
      "ĠBrakenbury": 7983,
      "Ġjocund": 7984,
      "ĠHercules": 7985,
      "ĠPatrician": 7986,
      "ĠPhaethon": 7987,
      "ĠPhoebus": 7988,
      "Ġprecedent": 7989,
      "Ġprerogative": 7990,
      "ĠFrancis": 7991,
      "Ġperemptory": 7992,
      "Ġunderneath": 7993,
      "Ġmerriment": 7994,
      "Ġindifferent": 7995,
      "ĠFlorizel": 7996,
      "ĠElizabeth": 7997,
      "Ġapprehension": 7998,
      "'!": 7999,
      "'--": 8000,
      "Aufidius": 8001,
      "ALIS": 8002,
      "BL": 8003,
      "Bad": 8004,
      "Bore": 8005,
      "Best": 8006,
      "Breat": 8007,
      "Back": 8008,
      "Bohemia": 8009,
      "Beshrew": 8010,
      "Ch": 8011,
      "Che": 8012,
      "Cut": 8013,
      "Chi": 8014,
      "Care": 8015,
      "CIS": 8016,
      "Citizen": 8017,
      "Charge": 8018,
      "Dou": 8019,
      "Dro": 8020,
      "Die": 8021,
      "Ele": 8022,
      "EAR": 8023,
      "Far": 8024,
      "Fri": 8025,
      "Fly": 8026,
      "Fell": 8027,
      "Fine": 8028,
      "Found": 8029,
      "FRAN": 8030,
      "Fool": 8031,
      "Friar": 8032,
      "Fellow": 8033,
      "Gl": 8034,
      "Gu": 8035,
      "Gold": 8036,
      "Gloucester": 8037,
      "Grumio": 8038,
      "Girl": 8039,
      "Given": 8040,
      "Hard": 8041,
      "Host": 8042,
      "Hap": 8043,
      "HOMAS": 8044,
      "Holy": 8045,
      "Ill": 8046,
      "Jul": 8047,
      "Jesu": 8048,
      "Katharina": 8049,
      "Less": 8050,
      "Last": 8051,
      "Lend": 8052,
      "Little": 8053,
      "Lives": 8054,
      "Man": 8055,
      "Mount": 8056,
      "Mere": 8057,
      "Masters": 8058,
      "Mercy": 8059,
      "Near": 8060,
      "Night": 8061,
      "Nine": 8062,
      "Opp": 8063,
      "Oxford": 8064,
      "Pit": 8065,
      "Perc": 8066,
      "Pale": 8067,
      "Red": 8068,
      "Rest": 8069,
      "Ref": 8070,
      "Sin": 8071,
      "Sen": 8072,
      "Sent": 8073,
      "Sad": 8074,
      "Sel": 8075,
      "Soul": 8076,
      "Sorrow": 8077,
      "Sto": 8078,
      "Sland": 8079,
      "Seal": 8080,
      "Sleep": 8081,
      "Tong": 8082,
      "Time": 8083,
      "Tran": 8084,
      "Takes": 8085,
      "Trem": 8086,
      "Tullus": 8087,
      "UNT": 8088,
      "Went": 8089,
      "Yonder": 8090,
      "ait": 8091,
      "aus": 8092,
      "avery": 8093,
      "aled": 8094,
      "acious": 8095,
      "against": 8096,
      "avoided": 8097,
      "bre": 8098,
      "bro": 8099,
      "ball": 8100,
      "book": 8101,
      "bred": 8102,
      "bject": 8103,
      "bham": 8104,
      "bhors": 8105,
      "business": 8106,
      "cas": 8107,
      "could": 8108,
      "cond": 8109,
      "creat": 8110,
      "corn": 8111,
      "chard": 8112,
      "certain": 8113,
      "cats": 8114,
      "custom": 8115,
      "content": 8116,
      "cued": 8117,
      "cency": 8118,
      "dan": 8119,
      "dent": 8120,
      "dur": 8121,
      "dro": 8122,
      "dish": 8123,
      "dict": 8124,
      "doubt": 8125,
      "deliver": 8126,
      "ele": 8127,
      "every": 8128,
      "eress": 8129,
      "eases": 8130,
      "fan": 8131,
      "fix": 8132,
      "fellows": 8133,
      "gom": 8134,
      "gher": 8135,
      "gone": 8136,
      "gnant": 8137,
      "hill": 8138,
      "hra": 8139,
      "ias": 8140,
      "ige": 8141,
      "iod": 8142,
      "iber": 8143,
      "iable": 8144,
      "iction": 8145,
      "iby": 8146,
      "ky": 8147,
      "lay": 8148,
      "lord": 8149,
      "lous": 8150,
      "live": 8151,
      "lves": 8152,
      "lorn": 8153,
      "lause": 8154,
      "mo": 8155,
      "min": 8156,
      "mast": 8157,
      "mak": 8158,
      "matter": 8159,
      "mony": 8160,
      "net": 8161,
      "none": 8162,
      "nel": 8163,
      "need": 8164,
      "oz": 8165,
      "oft": 8166,
      "oever": 8167,
      "phe": 8168,
      "pse": 8169,
      "pter": 8170,
      "pho": 8171,
      "past": 8172,
      "part": 8173,
      "pence": 8174,
      "poor": 8175,
      "piece": 8176,
      "pril": 8177,
      "poses": 8178,
      "rings": 8179,
      "rates": 8180,
      "roop": 8181,
      "sl": 8182,
      "sir": 8183,
      "sil": 8184,
      "song": 8185,
      "sist": 8186,
      "since": 8187,
      "serv": 8188,
      "sorrow": 8189,
      "sby": 8190,
      "sia": 8191,
      "school": 8192,
      "te": 8193,
      "too": 8194,
      "tree": 8195,
      "true": 8196,
      "tered": 8197,
      "trick": 8198,
      "tsey": 8199,
      "uc": 8200,
      "uing": 8201,
      "uity": 8202,
      "ubs": 8203,
      "ugg": 8204,
      "ueless": 8205,
      "vill": 8206,
      "vion": 8207,
      "vity": 8208,
      "vice": 8209,
      "viol": 8210,
      "wr": 8211,
      "wind": 8212,
      "worn": 8213,
      "ween": 8214,
      "widow": 8215,
      "wench": 8216,
      "warn": 8217,
      "worth": 8218,
      "yally": 8219,
      "ymph": 8220,
      "zwater": 8221,
      "ĠĠ": 8222,
      "ĠNot": 8223,
      "ĠThese": 8224,
      "Ġtil": 8225,
      "Ġtum": 8226,
      "Ġtire": 8227,
      "Ġtatter": 8228,
      "Ġtides": 8229,
      "Ġtunes": 8230,
      "Ġtales": 8231,
      "Ġteeming": 8232,
      "Ġtumbling": 8233,
      "hen": 8234,
      "hence": 8235,
      "Ġau": 8236,
      "Ġaust": 8237,
      "Ġaery": 8238,
      "Ġaches": 8239,
      "Ġsly": 8240,
      "Ġsurn": 8241,
      "Ġsongs": 8242,
      "Ġmot": 8243,
      "Ġmow": 8244,
      "Ġming": 8245,
      "Ġmart": 8246,
      "Ġmum": 8247,
      "Ġmap": 8248,
      "Ġmass": 8249,
      "Ġmute": 8250,
      "Ġmuse": 8251,
      "inc": 8252,
      "inet": 8253,
      "inance": 8254,
      "inable": 8255,
      "inite": 8256,
      "Ġwra": 8257,
      "Ġware": 8258,
      "Ġwaken": 8259,
      "Ġwaning": 8260,
      "Ġwenches": 8261,
      "Ġwalks": 8262,
      "reef": 8263,
      "repare": 8264,
      "reement": 8265,
      "haw": 8266,
      "hast": 8267,
      "happ": 8268,
      "nders": 8269,
      "Ġbust": 8270,
      "Ġbone": 8271,
      "Ġbau": 8272,
      "Ġbind": 8273,
      "Ġbate": 8274,
      "Ġbide": 8275,
      "Ġbaw": 8276,
      "Ġbier": 8277,
      "Ġbale": 8278,
      "Ġbount": 8279,
      "Ġbench": 8280,
      "Ġbash": 8281,
      "Ġbills": 8282,
      "isk": 8283,
      "isle": 8284,
      "Ġfen": 8285,
      "Ġfed": 8286,
      "Ġfut": 8287,
      "Ġfate": 8288,
      "Ġfence": 8289,
      "Ġfile": 8290,
      "Ġfester": 8291,
      "Ġfitted": 8292,
      "Ġfees": 8293,
      "Ġfitting": 8294,
      "Ġfowl": 8295,
      "Ġfront": 8296,
      "Ġfickle": 8297,
      "Ġfathom": 8298,
      "Ġfestival": 8299,
      "erman": 8300,
      "eria": 8301,
      "erwhelm": 8302,
      "itche": 8303,
      "Ġdun": 8304,
      "Ġdaint": 8305,
      "Ġdastard": 8306,
      "Ġdaring": 8307,
      "Ġduteous": 8308,
      "Ġdainty": 8309,
      "Ġced": 8310,
      "Ġcas": 8311,
      "Ġcard": 8312,
      "Ġcele": 8313,
      "Ġnearer": 8314,
      "Ġnerves": 8315,
      "Ġniece": 8316,
      "Ġnuns": 8317,
      "Ġnearest": 8318,
      "Ġnymph": 8319,
      "Ġninet": 8320,
      "Ġlain": 8321,
      "Ġlame": 8322,
      "Ġlass": 8323,
      "Ġlaughter": 8324,
      "Ġlaz": 8325,
      "Ġlecher": 8326,
      "Ġyew": 8327,
      "Ġyellow": 8328,
      "Ġthra": 8329,
      "Ġthres": 8330,
      "Ġthrew": 8331,
      "Ġthreef": 8332,
      "arth": 8333,
      "arling": 8334,
      "Ġhook": 8335,
      "Ġhilt": 8336,
      "Ġhint": 8337,
      "Ġhounds": 8338,
      "Ġhills": 8339,
      "Ġox": 8340,
      "Ġost": 8341,
      "Ġoce": 8342,
      "Ġtoss": 8343,
      "Ġphe": 8344,
      "Ġpir": 8345,
      "Ġpith": 8346,
      "Ġpoo": 8347,
      "Ġpul": 8348,
      "Ġpull": 8349,
      "Ġpark": 8350,
      "Ġpens": 8351,
      "Ġpotion": 8352,
      "Ġpines": 8353,
      "Ġpals": 8354,
      "Ġpiled": 8355,
      "Ġprunes": 8356,
      "ĠIrish": 8357,
      "Ġhen": 8358,
      "Ġhew": 8359,
      "Ġhedge": 8360,
      "oting": 8361,
      "oted": 8362,
      "stit": 8363,
      "stood": 8364,
      "stool": 8365,
      "strue": 8366,
      "staring": 8367,
      "owing": 8368,
      "ange": 8369,
      "anous": 8370,
      "another": 8371,
      "anks": 8372,
      "answer": 8373,
      "oming": 8374,
      "Ġgle": 8375,
      "Ġgay": 8376,
      "Ġgir": 8377,
      "Ġgear": 8378,
      "Ġgilt": 8379,
      "Ġgild": 8380,
      "Ġgorge": 8381,
      "Ġginger": 8382,
      "Ġglove": 8383,
      "atin": 8384,
      "athan": 8385,
      "atory": 8386,
      "atiate": 8387,
      "Ġbeho": 8388,
      "Ġbecom": 8389,
      "sea": 8390,
      "Ġinhabit": 8391,
      "Ġhab": 8392,
      "Ġhaven": 8393,
      "lex": 8394,
      "lehill": 8395,
      "ayer": 8396,
      "ldren": 8397,
      "iry": 8398,
      "edy": 8399,
      "uto": 8400,
      "utus": 8401,
      "utches": 8402,
      "imple": 8403,
      "Ġnotorious": 8404,
      "cho": 8405,
      "Ġissues": 8406,
      "Ġforn": 8407,
      "Ġforms": 8408,
      "Ġforlorn": 8409,
      "keep": 8410,
      "Ġweb": 8411,
      "ooing": 8412,
      "Ġeg": 8413,
      "Ġel": 8414,
      "Ġew": 8415,
      "Ġegg": 8416,
      "hertsey": 8417,
      "enting": 8418,
      "rip": 8419,
      "rian": 8420,
      "ribe": 8421,
      "Ġsty": 8422,
      "Ġstart": 8423,
      "Ġstall": 8424,
      "Ġstage": 8425,
      "Ġstint": 8426,
      "Ġstew": 8427,
      "Ġstray": 8428,
      "Ġsteter": 8429,
      "Ġstring": 8430,
      "Ġstarts": 8431,
      "Ġstrat": 8432,
      "Ġkern": 8433,
      "Ġkenn": 8434,
      "ashy": 8435,
      "asci": 8436,
      "asite": 8437,
      "Ġrevers": 8438,
      "Ġrelish": 8439,
      "Ġrelease": 8440,
      "Ġrevell": 8441,
      "lying": 8442,
      "lysses": 8443,
      "raign": 8444,
      "Ġliars": 8445,
      "urity": 8446,
      "urther": 8447,
      "urps": 8448,
      "urbs": 8449,
      "urope": 8450,
      "alf": 8451,
      "alo": 8452,
      "alance": 8453,
      "alty": 8454,
      "Ġsoar": 8455,
      "Ġsober": 8456,
      "Ġsolace": 8457,
      "Ġascend": 8458,
      "Ġaspiring": 8459,
      "rosby": 8460,
      "hilip": 8461,
      "vering": 8462,
      "Ġshamed": 8463,
      "Ġdol": 8464,
      "Ġdoit": 8465,
      "Ġdoings": 8466,
      "usc": 8467,
      "usale": 8468,
      "usual": 8469,
      "ussia": 8470,
      "ifter": 8471,
      "Ġsem": 8472,
      "Ġsex": 8473,
      "Ġsevent": 8474,
      "Ġsepar": 8475,
      "geon": 8476,
      "geal": 8477,
      "Thither": 8478,
      "Throng": 8479,
      "Ġsues": 8480,
      "Ġsuret": 8481,
      "Ġsulp": 8482,
      "Told": 8483,
      "Together": 8484,
      "Ġherds": 8485,
      "rung": 8486,
      "ruised": 8487,
      "things": 8488,
      "thought": 8489,
      "thren": 8490,
      "Ġant": 8491,
      "Ġangu": 8492,
      "ternal": 8493,
      "arded": 8494,
      "hance": 8495,
      "hanging": 8496,
      "Ġspot": 8497,
      "Ġspell": 8498,
      "Ġspear": 8499,
      "Ġspurn": 8500,
      "Ġspace": 8501,
      "Ġspotted": 8502,
      "Ġfails": 8503,
      "Ġfabric": 8504,
      "ĠCy": 8505,
      "ĠCot": 8506,
      "ĠCast": 8507,
      "ĠCall": 8508,
      "ĠChertsey": 8509,
      "ĠCrosby": 8510,
      "Ġknell": 8511,
      "Ġknavery": 8512,
      "ĠRag": 8513,
      "ĠRoss": 8514,
      "ĠRussia": 8515,
      "Ġvest": 8516,
      "Ġvio": 8517,
      "Ġvap": 8518,
      "Ġvices": 8519,
      "asted": 8520,
      "astian": 8521,
      "Ġwhate": 8522,
      "ighton": 8523,
      "Ġshine": 8524,
      "Ġshouts": 8525,
      "ulation": 8526,
      "Ġupper": 8527,
      "qua": 8528,
      "quin": 8529,
      "quis": 8530,
      "qual": 8531,
      "quess": 8532,
      "quaint": 8533,
      "quiet": 8534,
      "Ġgoodman": 8535,
      "usters": 8536,
      "Ġpry": 8537,
      "Ġatone": 8538,
      "Ġmanly": 8539,
      "Ġmankind": 8540,
      "Ġmanacles": 8541,
      "Ġmangled": 8542,
      "ĠMab": 8543,
      "Ġwheres": 8544,
      "Ġwheels": 8545,
      "ĠEurope": 8546,
      "Ġamity": 8547,
      "Ġamended": 8548,
      "endom": 8549,
      "icing": 8550,
      "ican": 8551,
      "icide": 8552,
      "icester": 8553,
      "Ġconver": 8554,
      "Ġconvers": 8555,
      "Ġconvent": 8556,
      "Ġconstable": 8557,
      "Ġblots": 8558,
      "Ġblasp": 8559,
      "vener": 8560,
      "ĠGuild": 8561,
      "ĠGregory": 8562,
      "Forget": 8563,
      "Ġshepher": 8564,
      "Ġsheets": 8565,
      "eminate": 8566,
      "Ġgoest": 8567,
      "areth": 8568,
      "Ġwasp": 8569,
      "oln": 8570,
      "ĠLay": 8571,
      "ĠLud": 8572,
      "ĠLatin": 8573,
      "Ġhatches": 8574,
      "Ġknowest": 8575,
      "Ġcannib": 8576,
      "ersha": 8577,
      "ershire": 8578,
      "Ġsayest": 8579,
      "Ġswim": 8580,
      "Ġswine": 8581,
      "Ġswifter": 8582,
      "Ġbrine": 8583,
      "Ġbrittle": 8584,
      "pper": 8585,
      "Ġorchard": 8586,
      "ĠSay": 8587,
      "ĠSome": 8588,
      "ĠSix": 8589,
      "ĠShow": 8590,
      "ĠSeb": 8591,
      "ĠSURREY": 8592,
      "ĠSALIS": 8593,
      "Ġusing": 8594,
      "Ġusage": 8595,
      "ĠOf": 8596,
      "ĠOr": 8597,
      "ĠOnce": 8598,
      "ĠOverdone": 8599,
      "ĠBel": 8600,
      "ĠBoy": 8601,
      "ĠBret": 8602,
      "ĠBrist": 8603,
      "ĠBrand": 8604,
      "ĠBishop": 8605,
      "odity": 8606,
      "Ġung": 8607,
      "Ġunity": 8608,
      "Ġunman": 8609,
      "Ġunaw": 8610,
      "Ġunlo": 8611,
      "Ġungra": 8612,
      "Ġunacc": 8613,
      "Ġungentle": 8614,
      "Ġunivers": 8615,
      "Ġunthrift": 8616,
      "Ġunavoided": 8617,
      "Ġunusual": 8618,
      "igation": 8619,
      "hyme": 8620,
      "elpho": 8621,
      "Ġquest": 8622,
      "Whence": 8623,
      "Ġjar": 8624,
      "Ġjump": 8625,
      "Ġjoll": 8626,
      "ĠHad": 8627,
      "ĠHas": 8628,
      "ĠHallow": 8629,
      "Ġhoped": 8630,
      "cible": 8631,
      "cipl": 8632,
      "Ġprover": 8633,
      "Ġproduce": 8634,
      "Ġproffer": 8635,
      "ĠPut": 8636,
      "ĠPil": 8637,
      "ĠPriam": 8638,
      "ĠPhilip": 8639,
      "Ġsails": 8640,
      "umn": 8641,
      "Ġplent": 8642,
      "Ġplotted": 8643,
      "pecially": 8644,
      "ĠWife": 8645,
      "Ġensue": 8646,
      "Ġenroll": 8647,
      "Ġenjoin": 8648,
      "Ġenfranch": 8649,
      "unch": 8650,
      "Ġrood": 8651,
      "Ġrings": 8652,
      "Ġrates": 8653,
      "Ġoutst": 8654,
      "pted": 8655,
      "pture": 8656,
      "Ġhowl": 8657,
      "ĠAE": 8658,
      "ĠAg": 8659,
      "ĠAt": 8660,
      "ĠAfri": 8661,
      "ĠAriel": 8662,
      "ĠAbhors": 8663,
      "ĠApril": 8664,
      "Ġtrudge": 8665,
      "Ġhandle": 8666,
      "Ġsomebod": 8667,
      "Ġmarquess": 8668,
      "Inf": 8669,
      "acket": 8670,
      "ĠYes": 8671,
      "Ġdislike": 8672,
      "Ġdishes": 8673,
      "Ġdisposed": 8674,
      "Ġdiseases": 8675,
      "Ġdiscipl": 8676,
      "Ġhearth": 8677,
      "Ġability": 8678,
      "Ġabuses": 8679,
      "Ġfoaming": 8680,
      "Ġdaylight": 8681,
      "Ġrod": 8682,
      "Ġroad": 8683,
      "Ġrope": 8684,
      "Ġrogues": 8685,
      "Ġroyally": 8686,
      "Ġexha": 8687,
      "Ġexternal": 8688,
      "Ġtellus": 8689,
      "agate": 8690,
      "agems": 8691,
      "Ġrip": 8692,
      "Ġarticles": 8693,
      "Ġarticle": 8694,
      "Ġslide": 8695,
      "Ġslanders": 8696,
      "Ġwary": 8697,
      "Ġwarning": 8698,
      "Ġflour": 8699,
      "Ġflag": 8700,
      "Ġfliers": 8701,
      "Ġfearless": 8702,
      "ĠTHOMAS": 8703,
      "bery": 8704,
      "bering": 8705,
      "oughby": 8706,
      "Ġbrethren": 8707,
      "Beg": 8708,
      "apable": 8709,
      "ighs": 8710,
      "Ġgreatly": 8711,
      "Ġfairies": 8712,
      "izard": 8713,
      "Ġpartake": 8714,
      "Ġpartial": 8715,
      "Ġcalling": 8716,
      "Ġadul": 8717,
      "Ġadorn": 8718,
      "Ġadult": 8719,
      "Ġadder": 8720,
      "Ġcommit": 8721,
      "Ġcommodity": 8722,
      "Yourself": 8723,
      "Ġclothe": 8724,
      "Ġpreparation": 8725,
      "Ġpregnant": 8726,
      "assad": 8727,
      "ĠDion": 8728,
      "ĠDelpho": 8729,
      "Ġperused": 8730,
      "Ġperiod": 8731,
      "liction": 8732,
      "livion": 8733,
      "Ġscra": 8734,
      "Ġscare": 8735,
      "Ġscars": 8736,
      "Ġscouts": 8737,
      "Ġpresum": 8738,
      "Ġpresses": 8739,
      "Ġprescri": 8740,
      "Ġnightly": 8741,
      "pery": 8742,
      "peror": 8743,
      "peration": 8744,
      "Ġraw": 8745,
      "Ġrarest": 8746,
      "Ġraze": 8747,
      "Ġrabble": 8748,
      "Ġkeen": 8749,
      "abb": 8750,
      "ĠFifth": 8751,
      "Ġapplause": 8752,
      "Ġcontem": 8753,
      "Ġremiss": 8754,
      "Ġremote": 8755,
      "ilty": 8756,
      "swear": 8757,
      "sworn": 8758,
      "ressing": 8759,
      "Ġbegging": 8760,
      "Ġlongs": 8761,
      "Ġlonging": 8762,
      "ĠMark": 8763,
      "Ġlively": 8764,
      "meant": 8765,
      "Ġrepaid": 8766,
      "Ġreproof": 8767,
      "Ġreprieve": 8768,
      "forward": 8769,
      "Ġmightily": 8770,
      "atching": 8771,
      "ĠJud": 8772,
      "ĠJule": 8773,
      "Ġrub": 8774,
      "Ġconsume": 8775,
      "Ġconserves": 8776,
      "Ġcrowned": 8777,
      "Ġpeck": 8778,
      "Ġpeasant": 8779,
      "hallow": 8780,
      "Ġlevied": 8781,
      "Ġharms": 8782,
      "Ġharder": 8783,
      "Ġresteth": 8784,
      "Ġcourses": 8785,
      "Ġentire": 8786,
      "attery": 8787,
      "Ġtongueless": 8788,
      "Ġkeeping": 8789,
      "iously": 8790,
      "Ġslender": 8791,
      "Ġreserved": 8792,
      "Ġresidence": 8793,
      "fts": 8794,
      "Ġmoans": 8795,
      "Ġmolehill": 8796,
      "retion": 8797,
      "Ġhourly": 8798,
      "uddy": 8799,
      "Ġendow": 8800,
      "Ġendea": 8801,
      "ieldy": 8802,
      "Ġpricks": 8803,
      "Ġpurged": 8804,
      "Ġpurses": 8805,
      "Ġpursues": 8806,
      "Ġpurposes": 8807,
      "Ġcompell": 8808,
      "Ġcomposition": 8809,
      "ertainty": 8810,
      "Ġchain": 8811,
      "Ġchaff": 8812,
      "Ġchains": 8813,
      "Prosper": 8814,
      "Ġsuborn": 8815,
      "Ġsubsc": 8816,
      "Ġsubmission": 8817,
      "Ġsuburbs": 8818,
      "Ġsmiled": 8819,
      "Ġsmelt": 8820,
      "ected": 8821,
      "Ġtraged": 8822,
      "Ġtragic": 8823,
      "Ġtraffic": 8824,
      "Ġhush": 8825,
      "Ġneedy": 8826,
      "two": 8827,
      "Ġtreble": 8828,
      "Stir": 8829,
      "Ġseemeth": 8830,
      "Ġrightly": 8831,
      "aching": 8832,
      "Ġbragg": 8833,
      "Ġbrazen": 8834,
      "Ġcheers": 8835,
      "Ġcharms": 8836,
      "Ġcharters": 8837,
      "Ġcharitable": 8838,
      "Ġchanges": 8839,
      "Ġconfined": 8840,
      "Ġhandsome": 8841,
      "beha": 8842,
      "bered": 8843,
      "Ġcoats": 8844,
      "Ġglister": 8845,
      "Ġimpose": 8846,
      "Ġfortnight": 8847,
      "Ġfortunate": 8848,
      "Ġbringing": 8849,
      "Ġmistook": 8850,
      "Ġpasses": 8851,
      "Ġthrong": 8852,
      "Ġpleaseth": 8853,
      "ĠAnswer": 8854,
      "Clifford": 8855,
      "Ġbesiege": 8856,
      "Ġjustly": 8857,
      "Ġjustify": 8858,
      "Ġwrongfully": 8859,
      "Ġmiscar": 8860,
      "ension": 8861,
      "Ġplaced": 8862,
      "blind": 8863,
      "Ġundert": 8864,
      "Ġhelping": 8865,
      "Ġlesson": 8866,
      "Ġfooling": 8867,
      "Ġsuns": 8868,
      "Ġchid": 8869,
      "Ġchides": 8870,
      "Ġchron": 8871,
      "Unb": 8872,
      "Unw": 8873,
      "Ġbusied": 8874,
      "Angelo": 8875,
      "overed": 8876,
      "Ġstride": 8877,
      "Ġstripes": 8878,
      "ivity": 8879,
      "Ġstreak": 8880,
      "Ġwomanish": 8881,
      "Ġturning": 8882,
      "Ġhumane": 8883,
      "Ġbelongs": 8884,
      "Ġcourts": 8885,
      "Ġtalked": 8886,
      "Ġoverheard": 8887,
      "Ġoverthrow": 8888,
      "Ġbuilt": 8889,
      "Ġburial": 8890,
      "Ġibat": 8891,
      "Ġattent": 8892,
      "Ġattach": 8893,
      "Ġplays": 8894,
      "Ġinstance": 8895,
      "Ġinstead": 8896,
      "Ġwelcom": 8897,
      "Ġwelkin": 8898,
      "Ġcurs": 8899,
      "Ġcurbs": 8900,
      "Ġemulation": 8901,
      "pling": 8902,
      "plain": 8903,
      "Ġsending": 8904,
      "Ġcountryman": 8905,
      "Ġdoubted": 8906,
      "Ġwishing": 8907,
      "Ġreasonable": 8908,
      "Wouldst": 8909,
      "Ġdances": 8910,
      "Ġbreaths": 8911,
      "Ġgiant": 8912,
      "Ġstrain": 8913,
      "Ġdiscred": 8914,
      "Ġdiscords": 8915,
      "Ġdiscreet": 8916,
      "Ġdiscovery": 8917,
      "Ġdiscretion": 8918,
      "Alone": 8919,
      "Ġsenis": 8920,
      "Ġcommandment": 8921,
      "Ġwinding": 8922,
      "Ġstrang": 8923,
      "Ġswearing": 8924,
      "Ġdepth": 8925,
      "comb": 8926,
      "comfort": 8927,
      "Ġtending": 8928,
      "Ġgreets": 8929,
      "Ġgetting": 8930,
      "Ġintends": 8931,
      "Ġintended": 8932,
      "Ġinterest": 8933,
      "Ġkissing": 8934,
      "Ġbreaking": 8935,
      "Ġawe": 8936,
      "Ġawful": 8937,
      "Hermione": 8938,
      "Ġtemperate": 8939,
      "Ġsupple": 8940,
      "Ġspoils": 8941,
      "Ġlamp": 8942,
      "Ġrequite": 8943,
      "Ġrequital": 8944,
      "Ġmete": 8945,
      "Ġsoonest": 8946,
      "Ġreturns": 8947,
      "acre": 8948,
      "ackey": 8949,
      "Ġmarrying": 8950,
      "Ġfooting": 8951,
      "Ġwarrants": 8952,
      "ĠJulius": 8953,
      "Ġthroughly": 8954,
      "soe": 8955,
      "Ġchoke": 8956,
      "Ġcolder": 8957,
      "Ġasked": 8958,
      "Ġplucked": 8959,
      "show": 8960,
      "ĠMontgom": 8961,
      "Ġstrangely": 8962,
      "Ġbats": 8963,
      "Ġentreated": 8964,
      "Whoop": 8965,
      "Ġvisor": 8966,
      "Ġdispro": 8967,
      "ixture": 8968,
      "Mayor": 8969,
      "Ġordain": 8970,
      "Ġordinance": 8971,
      "Ġquicken": 8972,
      "Ġdesired": 8973,
      "Ġhardy": 8974,
      "Ġwooers": 8975,
      "Ġinfancy": 8976,
      "Ġinfamy": 8977,
      "Ġinflu": 8978,
      "Ġinfinite": 8979,
      "Become": 8980,
      "Spoke": 8981,
      "Ġwearing": 8982,
      "Ġdelivery": 8983,
      "Ġspeedily": 8984,
      "Ġquarre": 8985,
      "Ġprofound": 8986,
      "Ġstrengthen": 8987,
      "cession": 8988,
      "Ġforefather": 8989,
      "Ġforerun": 8990,
      "Ġforetell": 8991,
      "Ġdivide": 8992,
      "Ġcarrion": 8993,
      "Ġposts": 8994,
      "Ġposterns": 8995,
      "Ġexecut": 8996,
      "Ġparch": 8997,
      "Ġparadise": 8998,
      "Ġparlous": 8999,
      "Ġparasite": 9000,
      "Ġincur": 9001,
      "Ġincapable": 9002,
      "Ġrecount": 9003,
      "ĠTheir": 9004,
      "Ġtitles": 9005,
      "Ġopening": 9006,
      "Ġshorten": 9007,
      "Ġseeking": 9008,
      "Ġmurdering": 9009,
      "changing": 9010,
      "Ġvehe": 9011,
      "ĠHelp": 9012,
      "Ġagony": 9013,
      "Ġagreement": 9014,
      "Ġwhipped": 9015,
      "Ġwatchful": 9016,
      "Ġdistemper": 9017,
      "Seeking": 9018,
      "Ġacting": 9019,
      "Ġwasted": 9020,
      "Ġwondering": 9021,
      "Ġbites": 9022,
      "Ġbiting": 9023,
      "Ġstole": 9024,
      "Ġstirru": 9025,
      "Ġclouded": 9026,
      "suing": 9027,
      "Ġdrinks": 9028,
      "Ġpraised": 9029,
      "Ġenterpr": 9030,
      "voury": 9031,
      "Ġfitter": 9032,
      "Ġgarlic": 9033,
      "Ġchangeling": 9034,
      "Ġdeliverance": 9035,
      "LORDS": 9036,
      "ĠThink": 9037,
      "Ġskin": 9038,
      "Ġsickly": 9039,
      "Ġsignories": 9040,
      "Ġwishes": 9041,
      "Ġregion": 9042,
      "Ġregreet": 9043,
      "Ġconsuls": 9044,
      "Ġcheerful": 9045,
      "Ġordering": 9046,
      "Ġorderly": 9047,
      "Ġfourth": 9048,
      "Ġdug": 9049,
      "Ġducats": 9050,
      "Ġliberties": 9051,
      "verns": 9052,
      "Ġmoveables": 9053,
      "shell": 9054,
      "sheathe": 9055,
      "Ġfrowning": 9056,
      "Ġfeasting": 9057,
      "Ġgrove": 9058,
      "Ġsoften": 9059,
      "Ġbeggary": 9060,
      "Ġconsented": 9061,
      "Revol": 9062,
      "ĠForrest": 9063,
      "hematic": 9064,
      "Ġbarb": 9065,
      "Ġbarr": 9066,
      "Ġbargain": 9067,
      "Ġdropp": 9068,
      "Ġdarken": 9069,
      "Ġdarkly": 9070,
      "Ġcrad": 9071,
      "Ġcrimes": 9072,
      "Ġcrutch": 9073,
      "ĠChurch": 9074,
      "Ġexpost": 9075,
      "Ġgotten": 9076,
      "Ġintercept": 9077,
      "Ġintercession": 9078,
      "Ġevident": 9079,
      "Ġsummon": 9080,
      "Ġvictorious": 9081,
      "Ġrespects": 9082,
      "Ġbriefly": 9083,
      "Ġvisiting": 9084,
      "Ġmalicious": 9085,
      "Ġspeechless": 9086,
      "Ġworshipful": 9087,
      "spo": 9088,
      "Ġfresher": 9089,
      "Ġfreshest": 9090,
      "Ġlimb": 9091,
      "Ġpenury": 9092,
      "Ġpenny": 9093,
      "ĠPlace": 9094,
      "ĠPlayer": 9095,
      "ĠPlashy": 9096,
      "Ġleader": 9097,
      "Ġpatiently": 9098,
      "Ġlamentations": 9099,
      "Ġbroils": 9100,
      "Ġbawdy": 9101,
      "Ġcleft": 9102,
      "Ġcreation": 9103,
      "Ġcapable": 9104,
      "Ġcapital": 9105,
      "Ġlacks": 9106,
      "Ġopposed": 9107,
      "Ġeating": 9108,
      "Ġviolate": 9109,
      "Ġapproaches": 9110,
      "Ġcomplices": 9111,
      "ĠChristendom": 9112,
      "Ġsurm": 9113,
      "Ġsurly": 9114,
      "Ġsurvey": 9115,
      "Conf": 9116,
      "Plain": 9117,
      "Pluck": 9118,
      "Ġbirths": 9119,
      "arlisle": 9120,
      "Ġpainful": 9121,
      "Ġbecame": 9122,
      "Standing": 9123,
      "Ġtorches": 9124,
      "Ġtorments": 9125,
      "Ġwildly": 9126,
      "Ġcaus": 9127,
      "Ġcertainly": 9128,
      "semary": 9129,
      "Ġinjured": 9130,
      "Ġinnocency": 9131,
      "Ġurging": 9132,
      "Thinking": 9133,
      "ĠStand": 9134,
      "ĠStaff": 9135,
      "Ġpleasures": 9136,
      "Mariner": 9137,
      "Ġapothecary": 9138,
      "Ġshock": 9139,
      "Ġmeditation": 9140,
      "Ġobst": 9141,
      "Ġobdur": 9142,
      "Ġoblivion": 9143,
      "Ġdooms": 9144,
      "Ġfavourable": 9145,
      "Ġuncertain": 9146,
      "ighbours": 9147,
      "ĠEnglishman": 9148,
      "Ġlane": 9149,
      "settled": 9150,
      "Ġrefuge": 9151,
      "ĠMercury": 9152,
      "Ġtempor": 9153,
      "Enforce": 9154,
      "Envir": 9155,
      "bborn": 9156,
      "himself": 9157,
      "Ġdrowning": 9158,
      "angled": 9159,
      "Ġeffects": 9160,
      "Ġswiftly": 9161,
      "ĠPrithee": 9162,
      "Ġdesperately": 9163,
      "Ġdoublet": 9164,
      "Meaning": 9165,
      "Ġauthorities": 9166,
      "Ġfruits": 9167,
      "Ġelders": 9168,
      "Ġstudies": 9169,
      "Ġstudied": 9170,
      "Ġenjoys": 9171,
      "Ġwretchedness": 9172,
      "Brought": 9173,
      "eye": 9174,
      "eyed": 9175,
      "Ġbastardy": 9176,
      "Ġcorners": 9177,
      "Ġhelms": 9178,
      "stantial": 9179,
      "Ġdegenerate": 9180,
      "Ġseverity": 9181,
      "ĠWilloughby": 9182,
      "Ġcountermand": 9183,
      "Ġcounterpo": 9184,
      "Ġbeggarly": 9185,
      "Loved": 9186,
      "monstrous": 9187,
      "Ġdwelling": 9188,
      "Ġgentry": 9189,
      "Ġbutchers": 9190,
      "Ġunfit": 9191,
      "Ġadded": 9192,
      "Ġprivately": 9193,
      "Ġverge": 9194,
      "Ġverity": 9195,
      "attling": 9196,
      "Ġrelation": 9197,
      "Ġrelieve": 9198,
      "Ġdealing": 9199,
      "Ġarrival": 9200,
      "Ġsmoking": 9201,
      "Blind": 9202,
      "Desp": 9203,
      "Except": 9204,
      "constable": 9205,
      "Ġbait": 9206,
      "Ġstabbed": 9207,
      "Ġspeeches": 9208,
      "Ġshores": 9209,
      "Ġproofs": 9210,
      "Ġjointure": 9211,
      "Ġprophecies": 9212,
      "Ġembracements": 9213,
      "Ġinnocents": 9214,
      "Adieu": 9215,
      "Advance": 9216,
      "Ġedict": 9217,
      "Ġwagon": 9218,
      "rehend": 9219,
      "Ġelection": 9220,
      "Ġelements": 9221,
      "Ġdecree": 9222,
      "Ġdecrees": 9223,
      "Ġnecessary": 9224,
      "Ġnecessities": 9225,
      "Ġsailors": 9226,
      "Ġprevails": 9227,
      "Rescue": 9228,
      "Ġescap": 9229,
      "ĠWherefore": 9230,
      "Ġoffenders": 9231,
      "Ġheaviness": 9232,
      "Ġheavily": 9233,
      "Showing": 9234,
      "Ġprofession": 9235,
      "Ġexpressly": 9236,
      "appare": 9237,
      "proud": 9238,
      "Ġbandy": 9239,
      "Ġbondage": 9240,
      "Ġdetested": 9241,
      "Ġcalf": 9242,
      "Ġphysicians": 9243,
      "Ġvanqu": 9244,
      "Ġvanish": 9245,
      "Ġdeserts": 9246,
      "Ġtransg": 9247,
      "Ġaffected": 9248,
      "Ġleanness": 9249,
      "Ġaccusations": 9250,
      "Ġpunishment": 9251,
      "Repair": 9252,
      "Ġbasil": 9253,
      "Ġfeeble": 9254,
      "Ġfashions": 9255,
      "Ġdivers": 9256,
      "Ġports": 9257,
      "Ġportion": 9258,
      "Ġbewray": 9259,
      "Ġcomplete": 9260,
      "Ġambush": 9261,
      "Ġambassad": 9262,
      "Ġargument": 9263,
      "Ġarguments": 9264,
      "ĠProceed": 9265,
      "Ġadvancement": 9266,
      "Ġpersuaded": 9267,
      "Ġpetitions": 9268,
[...]
