{
  "version": "1.0",
  "truncation": null,
  "padding": null,
  "added_tokens": [
    {
      "id": 0,
      "content": "<|endoftext|>",
      "single_word": false,
      "lstrip": false,
      "rstrip": false,
      "normalized": false,
      "special": true
    }
  ],
  "normalizer": null,
  "pre_tokenizer": {
    "type": "ByteLevel",
    "add_prefix_space": false,
    "trim_offsets": true,
    "use_regex": true
  },
  "post_processor": {
    "type": "ByteLevel",
    "add_prefix_space": true,
    "trim_offsets": false,
    "use_regex": true
  },
  "decoder": {
    "type": "ByteLevel",
    "add_prefix_space": true,
    "trim_offsets": true,
    "use_regex": true
  },
  "model": {
    "type": "BPE",
    "dropout": null,
    "unk_token": null,
    "continuing_subword_prefix": null,
    "end_of_word_suffix": null,
    "fuse_unk": false,
    "byte_fallback": false,
    "vocab": {
      "<|endoftext|>": 0,
      "!": 1,
      "%": 2,
      "(": 3,
      ")": 4,
      "*": 5,
      ",": 6,
      "-": 7,
      ".": 8,
      "0": 9,
      "1": 10,
      "2": 11,
      "3": 12,
      "4": 13,
      "5": 14,
      "6": 15,
      "7": 16,
      "8": 17,
      "9": 18,
      ":": 19,
      ";": 20,
      "?": 21,
      "A": 22,
      "B": 23,
      "C": 24,
      "D": 25,
      "E": 26,
      "F": 27,
      "G": 28,
      "H": 29,
      "I": 30,
      "J": 31,
      "K": 32,
      "L": 33,
      "M": 34,
      "N": 35,
      "O": 36,
      "P": 37,
      "Q": 38,
      "R": 39,
      "S": 40,
      "T": 41,
      "U": 42,
      "V": 43,
      "W": 44,
      "Z": 45,
      "a": 46,
      "b": 47,
      "c": 48,
      "d": 49,
      "e": 50,
      "f": 51,
      "g": 52,
      "h": 53,
      "i": 54,
      "j": 55,
      "k": 56,
      "l": 57,
      "m": 58,
      "n": 59,
      "o": 60,
      "p": 61,
      "q": 62,
      "r": 63,
      "s": 64,
      "t": 65,
      "u": 66,
      "v": 67,
      "w": 68,
      "x": 69,
      "y": 70,
      "z": 71,
      "¤": 72,
      "¦": 73,
      "¨": 74,
      "©": 75,
      "ª": 76,
      "«": 77,
      "¯": 78,
      "²": 79,
      "¶": 80,
      "»": 81,
      "¼": 82,
      "Â": 83,
      "Ã": 84,
      "â": 85,
      "Ċ": 86,
      "č": 87,
      "Ġ": 88,
      "Ģ": 89,
      "Ħ": 90,
      "ĵ": 91,
      "ĸ": 92,
      "ĺ": 93,
      "Ļ": 94,
      "ľ": 95,
      "ŀ": 96,
      "ł": 97,
      "ch": 98,
      "er": 99,
      "Ã¤": 100,
      "Ġd": 101,
      "sch": 102,
      "Ã¼": 103,
      "nd": 104,
      "Ġg": 105,
      "Ġs": 106,
      "âĢ": 107,
      "Ġe": 108,
      "Ġh": 109,
      "Ġu": 110,
      "Ġw": 111,
      "et": 112,
      "Ġi": 113,
      "Ġa": 114,
      "Ġde": 115,
      "Ġn": 116,
      "ei": 117,
      "Ġm": 118,
      "li": 119,
      "ss": 120,
      "Ġund": 121,
      "âĢĻ": 122,
      "nn": 123,
      "Ġz": 124,
      "Ġsi": 125,
      "tt": 126,
      "ge": 127,
      "Ã¶": 128,
      "scht": 129,
      "ĠS": 130,
      "ie": 131,
      "ĠhÃ¤": 132,
      "Ġv": 133,
      "Ġb": 134,
      "it": 135,
      "ĠD": 136,
      "ed": 137,
      "ar": 138,
      "Ġisch": 139,
      "ach": 140,
      "ll": 141,
      "an": 142,
      "as": 143,
      "ĠhÃ¤tt": 144,
      "ĠB": 145,
      "Ã¼r": 146,
      "ĠM": 147,
      "ig": 148,
      "Ġch": 149,
      "ber": 150,
      "ue": 151,
      "čĊ": 152,
      "ĠH": 153,
      "Ã¤nn": 154,
      "al": 155,
      "ne": 156,
      "um": 157,
      "ĠG": 158,
      "Ġgs": 159,
      "ra": 160,
      "ĠâĢ": 161,
      "Ġwo": 162,
      "Ġf": 163,
      "re": 164,
      "ĠnÃ¼": 165,
      "Ġem": 166,
      "Ġau": 167,
      "Ġsch": 168,
      "ti": 169,
      "Ġj": 170,
      "Ch": 171,
      "be": 172,
      "uu": 173,
      "ere": 174,
      "cht": 175,
      "ĠA": 176,
      "sse": 177,
      "ri": 178,
      "me": 179,
      "ĠW": 180,
      "Ġes": 181,
      "Ġmit": 182,
      "ĠT": 183,
      "ĠE": 184,
      "ĠCh": 185,
      "Ã¤n": 186,
      "ir": 187,
      "or": 188,
      "ur": 189,
      "Ġhet": 190,
      "ĠâĢĵ": 191,
      "Ġso": 192,
      "Ġbi": 193,
      "te": 194,
      "ĠF": 195,
      "ĠN": 196,
      "fe": 197,
      "Ġer": 198,
      "ĠÃ¼": 199,
      "Ġna": 200,
      "der": 201,
      "ĠnÃ¼d": 202,
      "mer": 203,
      "Ġgsi": 204,
      "ah": 205,
      "Ġei": 206,
      "Ġver": 207,
      "en": 208,
      "Ġda": 209,
      "Ġhei": 210,
      "Ġdas": 211,
      "Ġvo": 212,
      "Ġl": 213,
      "ro": 214,
      "eh": 215,
      "Â«": 216,
      "Â»": 217,
      "Ġt": 218,
      "ni": 219,
      "uet": 220,
      "ĠP": 221,
      "ck": 222,
      "Ġim": 223,
      "ĠÂ«": 224,
      "Ġdie": 225,
      "nder": 226,
      "ter": 227,
      "âĢľ": 228,
      "Ã¤r": 229,
      "Ġen": 230,
      "de": 231,
      "Ġdr": 232,
      "ng": 233,
      "Ġuf": 234,
      "ĠdÃ¤nn": 235,
      "Ġscho": 236,
      "etz": 237,
      "le": 238,
      "and": 239,
      "rÃ¤": 240,
      "st": 241,
      "ĠZ": 242,
      "au": 243,
      "ĠU": 244,
      "Ġo": 245,
      "Ã¤ge": 246,
      "Ġwie": 247,
      "eit": 248,
      "gg": 249,
      "se": 250,
      "Ġgh": 251,
      "Ġwi": 252,
      "ĠSt": 253,
      "Ġp": 254,
      "Ã¼e": 255,
      "Ġsind": 256,
      "nne": 257,
      "Ġzw": 258,
      "ĠSch": 259,
      "Ġgan": 260,
      "ĠfÃ¼r": 261,
      "Ã¼t": 262,
      "ru": 263,
      "Ġder": 264,
      "ĠJ": 265,
      "Ġaber": 266,
      "Ġja": 267,
      "ĠV": 268,
      "ert": 269,
      "Ġdass": 270,
      "uf": 271,
      "âĢĺ": 272,
      "ii": 273,
      "ĠL": 274,
      "ĠwÃ¤nn": 275,
      "Ġmir": 276,
      "ĠchÃ¶": 277,
      "ĠâĢŀ": 278,
      "is": 279,
      "pp": 280,
      "tz": 281,
      "ĠR": 282,
      "Ġall": 283,
      "lich": 284,
      "ĠÃ¼ber": 285,
      "ang": 286,
      "ich": 287,
      "Ġam": 288,
      "Ġmer": 289,
      "Ã¤nk": 290,
      "Ġganz": 291,
      "mach": 292,
      "rÃ¼": 293,
      "ĠÃ¤": 294,
      "Ġbe": 295,
      "ĠDe": 296,
      "la": 297,
      "si": 298,
      "Ġk": 299,
      "Ġih": 300,
      "Ã¶r": 301,
      "ĠhÃ¤nd": 302,
      "Ġdo": 303,
      "em": 304,
      "fach": 305,
      "ĠdÃ¤": 306,
      "Ġnur": 307,
      "ĠMa": 308,
      "ĠEr": 309,
      "ung": 310,
      "Ġal": 311,
      "ĠmÃ¼e": 312,
      "Ġsich": 313,
      "tin": 314,
      "Ġjetz": 315,
      "es": 316,
      "lar": 317,
      "ĠI": 318,
      "Ġgl": 319,
      "Ġguet": 320,
      "eil": 321,
      "nnt": 322,
      "mm": 323,
      "nt": 324,
      "us": 325,
      "und": 326,
      "Ġaa": 327,
      "artin": 328,
      "ĠMartin": 329,
      "Ġeifach": 330,
      "Ġheig": 331,
      "anne": 332,
      "ell": 333,
      "id": 334,
      "ill": 335,
      "ner": 336,
      "uch": 337,
      "ĠÃ¶": 338,
      "eig": 339,
      "sst": 340,
      "sser": 341,
      "aa": 342,
      "Ġgw": 343,
      "Ġhi": 344,
      "Ġimmer": 345,
      "ft": 346,
      "ut": 347,
      "ĠK": 348,
      "il": 349,
      "mi": 350,
      "mal": 351,
      "ĠO": 352,
      "Ã¤h": 353,
      "âĢŀ": 354,
      "Ġdem": 355,
      "Ġvu": 356,
      "eder": 357,
      "ĠEs": 358,
      "Ġvom": 359,
      "ĠÃ¶pp": 360,
      "ee": 361,
      "gs": 362,
      "Ġus": 363,
      "Ġnach": 364,
      "Ġmi": 365,
      "Ġzum": 366,
      "tter": 367,
      "Ġcho": 368,
      "rau": 369,
      "uus": 370,
      "Ġbim": 371,
      "ĠMax": 372,
      "ĠmÃ¼esse": 373,
      "un": 374,
      "Ġgr": 375,
      "ĠsÃ¤": 376,
      "Ġha": 377,
      "Ġwas": 378,
      "ĠHer": 379,
      "ĠGlar": 380,
      "Ġoder": 381,
      "Ġdoch": 382,
      "at": 383,
      "ait": 384,
      "el": 385,
      "hal": 386,
      "Ġscht": 387,
      "Ã¤k": 388,
      "Ã¼Ã¼t": 389,
      "Ġseig": 390,
      "Ġzue": 391,
      "gel": 392,
      "irÃ¤k": 393,
      "ahr": 394,
      "cke": 395,
      "Ġwider": 396,
      "ff": 397,
      "ier": 398,
      "ol": 399,
      "ou": 400,
      "ueder": 401,
      "ĠÃ": 402,
      "Ã¤ll": 403,
      "schi": 404,
      "Ġgf": 405,
      "ĠsÃ¤ge": 406,
      "ein": 407,
      "liich": 408,
      "schte": 409,
      "Ġchli": 410,
      "Â»,": 411,
      "irÃ¤kter": 412,
      "aar": 413,
      "eb": 414,
      "ffe": 415,
      "isch": 416,
      "iet": 417,
      "oss": 418,
      "pf": 419,
      "rum": 420,
      "ts": 421,
      "uscht": 422,
      "Ġli": 423,
      "Ã¤me": 424,
      "Ġhal": 425,
      "ĠwÃ¤": 426,
      "ĠwÃ¼": 427,
      "ĠScht": 428,
      "ĠDas": 429,
      "ĠDirÃ¤kter": 430,
      "ede": 431,
      "Ã¼rscht": 432,
      "igs": 433,
      "Ġchu": 434,
      "orf": 435,
      "ĠÃ¼Ã¼": 436,
      "Ġdrum": 437,
      "ĠHerr": 438,
      "!âĢľ": 439,
      "age": 440,
      "get": 441,
      "Ġgra": 442,
      "Ġuse": 443,
      "ĠwÃ¤r": 444,
      "Ġas": 445,
      "Ġander": 446,
      "Ġnie": 447,
      "ged": 448,
      "Ġvill": 449,
      "ues": 450,
      "Ġemal": 451,
      "Ġbis": 452,
      "St": 453,
      "in": 454,
      "ĠrÃ¤": 455,
      "Ġgsch": 456,
      "Ġgmach": 457,
      "Ġuus": 458,
      "Ġwei": 459,
      "Ġin": 460,
      "Ġich": 461,
      "Ġab": 462,
      "Ġdeet": 463,
      "Ġnid": 464,
      "Ġmach": 465,
      "ĠSi": 466,
      "ange": 467,
      "rass": 468,
      "uure": 469,
      "ehr": 470,
      "Ġgha": 471,
      "Ġals": 472,
      "Ġhalt": 473,
      "Ġgrad": 474,
      "escht": 475,
      "ind": 476,
      "lei": 477,
      "luet": 478,
      "mme": 479,
      "on": 480,
      "ug": 481,
      "wÃ¤": 482,
      "Ã¼Ã¼": 483,
      "Ġig": 484,
      "Ġdene": 485,
      "Ġmues": 486,
      "schter": 487,
      "ĠHe": 488,
      "ĠFa": 489,
      "ĠFrau": 490,
      "ĠNa": 491,
      "ahre": 492,
      "Â».": 493,
      "ĠPro": 494,
      "ĠUnd": 495,
      "Ġwieder": 496,
      "ĠchÃ¶nne": 497,
      "Ã¤nkli": 498,
      "unggel": 499,
      "ag": 500,
      "egg": 501,
      "ib": 502,
      "ige": 503,
      "lo": 504,
      "let": 505,
      "oh": 506,
      "tet": 507,
      "ze": 508,
      "Ã¼sch": 509,
      "Ã¼Ã¼r": 510,
      "Ġebe": 511,
      "Ġwe": 512,
      "ete": 513,
      "ĠzÃ¤me": 514,
      "Ġvor": 515,
      "ĠBÃ¤nkli": 516,
      "Ã¼rli": 517,
      "ĠnÃ¼t": 518,
      "ĠWer": 519,
      "Ã¤ng": 520,
      "ĠghÃ¶r": 521,
      "Ġzwee": 522,
      "latter": 523,
      "Ġjetzt": 524,
      "Ã¤ller": 525,
      "Ġgmacht": 526,
      "luetw": 527,
      "di": 528,
      "ke": 529,
      "mp": 530,
      "ocke": 531,
      "rde": 532,
      "ud": 533,
      "yt": 534,
      "cho": 535,
      "Ã¤l": 536,
      "Ã¼sst": 537,
      "Ġgliich": 538,
      "ĠsÃ¶": 539,
      "Ġuuf": 540,
      "ĠwÃ¼r": 541,
      "ett": 542,
      "Ġnuch": 543,
      "tte": 544,
      "ien": 545,
      "ĠDa": 546,
      "ĠDer": 547,
      "ĠBlatter": 548,
      "ĠHuus": 549,
      "Ġworde": 550,
      "ĠnÃ¼mme": 551,
      "ĠAu": 552,
      "ĠAber": 553,
      "ĠTanne": 554,
      "urscht": 555,
      "ĠNach": 556,
      "ĠÃ¼s": 557,
      "Ġlang": 558,
      "ĠPuure": 559,
      "ckt": 560,
      "macher": 561,
      "elle": 562,
      "hals": 563,
      "rummacher": 564,
      "Ġchunnt": 565,
      "ĠÃ¼Ã¼s": 566,
      "ĠrÃ¤cht": 567,
      "ann": 568,
      "gar": 569,
      "kt": 570,
      "mei": 571,
      "mli": 572,
      "zue": 573,
      "ĠÃ¤r": 574,
      "che": 575,
      "Ã¤um": 576,
      "Ġdu": 577,
      "Ġgar": 578,
      "Ġgah": 579,
      "Ġgro": 580,
      "Ġst": 581,
      "ĠwÃ¤ge": 582,
      "Ġir": 583,
      "Ġno": 584,
      "Ġmeh": 585,
      "lig": 586,
      "Ġzu": 587,
      "Ġsim": 588,
      "ĠhÃ¤d": 589,
      "acht": 590,
      "Ã¤nnt": 591,
      "Ġgseit": 592,
      "Ġeme": 593,
      "Ġjed": 594,
      "chtig": 595,
      "ĠChÃ¤ller": 596,
      "ĠChrummacher": 597,
      "ort": 598,
      "feli": 599,
      "ĠtÃ¤": 600,
      "âĢľ.": 601,
      "ĠVa": 602,
      "Ġihn": 603,
      "mmt": 604,
      "ĠgwÃ¼sst": 605,
      "uto": 606,
      "Ġweiss": 607,
      "De": 608,
      "aum": 609,
      "gge": 610,
      "hei": 611,
      "lÃ¶": 612,
      "ms": 613,
      "ns": 614,
      "rie": 615,
      "so": 616,
      "uss": 617,
      "cher": 618,
      "Ã¤b": 619,
      "Ã¤m": 620,
      "Ã¤sse": 621,
      "Ã¤feli": 622,
      "Ġdra": 623,
      "schp": 624,
      "ndere": 625,
      "Ġag": 626,
      "Ġsii": 627,
      "ĠBo": 628,
      "uege": 629,
      "Ġeine": 630,
      "ens": 631,
      "enau": 632,
      "âĢľ,": 633,
      "ĠStunggel": 634,
      "Ġgange": 635,
      "Ġihm": 636,
      "ĠÃ¶ppis": 637,
      "ĠChÃ¤llerhals": 638,
      "Sch": 639,
      "ger": 640,
      "iert": 641,
      "lÃ¼": 642,
      "oge": 643,
      "ub": 644,
      "ul": 645,
      "under": 646,
      "ver": 647,
      "zmal": 648,
      "Ġr": 649,
      "Ã¤ch": 650,
      "Ã¤nd": 651,
      "Ġdi": 652,
      "Ġds": 653,
      "Ġdere": 654,
      "Ġgn": 655,
      "Ġgo": 656,
      "Ġsait": 657,
      "Ġhan": 658,
      "Ġum": 659,
      "Ġume": 660,
      "Ġufe": 661,
      "Ġwer": 662,
      "Ġwett": 663,
      "ĠmÃ¤": 664,
      "lie": 665,
      "Ġsin": 666,
      "ĠSp": 667,
      "ieh": 668,
      "lle": 669,
      "ĠBluetw": 670,
      "ĠMo": 671,
      "ĠMal": 672,
      "bere": 673,
      "ueg": 674,
      "Ġgseh": 675,
      "Ġgsait": 676,
      "ĠschÃ¶": 677,
      "uuf": 678,
      "ĠAuto": 679,
      "ĠTÃ¼r": 680,
      "ĠTÃ¤feli": 681,
      "Ġsogar": 682,
      "ĠtÃ¤nk": 683,
      "ĠPf": 684,
      "ufueder": 685,
      "ĠhÃ¤nds": 686,
      "ild": 687,
      "ĠÃĦ": 688,
      "ĠwÃ¼ss": 689,
      "Ġmache": 690,
      "ĠVater": 691,
      "Ross": 692,
      "ab": 693,
      "ad": 694,
      "ass": 695,
      "all": 696,
      "asser": 697,
      "bar": 698,
      "bÃ¤um": 699,
      "eg": 700,
      "ka": 701,
      "ly": 702,
      "mÃ¤": 703,
      "net": 704,
      "pa": 705,
      "rÃ¶": 706,
      "wage": 707,
      "ers": 708,
      "Ã¼g": 709,
      "ĠgÃ¤h": 710,
      "Ġgenau": 711,
      "Ġis": 712,
      "Ġabe": 713,
      "lii": 714,
      "Ġunder": 715,
      "Ġsini": 716,
      "Ã¶re": 717,
      "ĠSo": 718,
      "Ġbs": 719,
      "Ġber": 720,
      "ĠDÃ¼rscht": 721,
      "ĠhÃ¤tts": 722,
      "ĠMer": 723,
      "iget": 724,
      "ume": 725,
      "Ġwott": 726,
      "ĠfrÃ¼": 727,
      "ĠAb": 728,
      "Ã¤nt": 729,
      "ĠNe": 730,
      "ĠNur": 731,
      "Ġverb": 732,
      "Ġheid": 733,
      "ehre": 734,
      "Ã¤rn": 735,
      "ĠZw": 736,
      "Ġob": 737,
      "Ġobe": 738,
      "Ġwiit": 739,
      "Ġwill": 740,
      "ĠLÃ¼Ã¼t": 741,
      "ĠwÃ¤nns": 742,
      "Ġhinder": 743,
      "milie": 744,
      "ĠOber": 745,
      "olz": 746,
      "eggt": 747,
      "ĠghÃ¶rt": 748,
      "ĠwÃ¼rd": 749,
      "Das": 750,
      "Seil": 751,
      "aal": 752,
      "bri": 753,
      "dorf": 754,
      "fahre": 755,
      "gf": 756,
      "gÃ¤sse": 757,
      "im": 758,
      "iz": 759,
      "immt": 760,
      "nert": 761,
      "os": 762,
      "pfe": 763,
      "sp": 764,
      "tÃ¼rli": 765,
      "ube": 766,
      "wir": 767,
      "eri": 768,
      "erscht": 769,
      "Ã¤g": 770,
      "Ġdri": 771,
      "sche": 772,
      "ĠgÃ¤rn": 773,
      "Ġeiget": 774,
      "ĠwÃ¶": 775,
      "Ġwen": 776,
      "Ġwelle": 777,
      "Ġischt": 778,
      "Ġaf": 779,
      "Ġnu": 780,
      "Ġmei": 781,
      "Ġsig": 782,
      "schtens": 783,
      "ĠSach": 784,
      "itz": 785,
      "ĠDie": 786,
      "art": 787,
      "ant": 788,
      "anke": 789,
      "ĠMund": 790,
      "iger": 791,
      "Ġchan": 792,
      "ĠHund": 793,
      "umm": 794,
      "ĠGr": 795,
      "Ġfa": 796,
      "Ġfescht": 797,
      "tige": 798,
      "ĠAnder": 799,
      "ĠWild": 800,
      "ĠTag": 801,
      "urt": 802,
      "Ġhett": 803,
      "ĠnatÃ¼rli": 804,
      "Ġeis": 805,
      "ener": 806,
      "enand": 807,
      "nisch": 808,
      "dem": 809,
      "ĠdÃ¤nnzmal": 810,
      "ande": 811,
      "Ġzwii": 812,
      "ĠSchl": 813,
      "runn": 814,
      "rucht": 815,
      "ĠVer": 816,
      "ertig": 817,
      "ĠÃ¼bercho": 818,
      "Ġbesser": 819,
      "ĠdÃ¤m": 820,
      "Ġsicher": 821,
      "ellt": 822,
      "unge": 823,
      "ĠsÃ¤b": 824,
      "Ã¼Ã¼tsch": 825,
      "Ġlie": 826,
      "ĠFamilie": 827,
      "Ã¼Ã¼rw": 828,
      "ĠsÃ¶tt": 829,
      "meind": 830,
      "ussbÃ¤um": 831,
      "Ġhani": 832,
      "ĠwÃ¼ssed": 833,
      "nertÃ¼Ã¼tsch": 834,
      "ĠMundart": 835,
      "?Â»": 836,
      "Frau": 837,
      "Sp": 838,
      "abe": 839,
      "fÃ¼r": 840,
      "gr": 841,
      "ho": 842,
      "hni": 843,
      "holz": 844,
      "jeggt": 845,
      "lber": 846,
      "no": 847,
      "nÃ¤": 848,
      "nge": 849,
      "naa": 850,
      "ot": 851,
      "offe": 852,
      "rer": 853,
      "wi": 854,
      "zi": 855,
      "zoge": 856,
      "Ġ1": 857,
      "Ġ?": 858,
      "Ġre": 859,
      "Ġere": 860,
      "chi": 861,
      "Ġsp": 862,
      "Ġsuscht": 863,
      "Ġetz": 864,
      "ĠhÃ¼": 865,
      "ĠhÃ¶": 866,
      "Ġusse": 867,
      "Ġwar": 868,
      "eischter": 869,
      "Ã¶i": 870,
      "ĠSÃ¤": 871,
      "ĠSÃ¶": 872,
      "Ġbed": 873,
      "ĠDÃ¤": 874,
      "ĠDorf": 875,
      "anz": 876,
      "ĠBe": 877,
      "ĠBier": 878,
      "ĠBaum": 879,
      "ĠMi": 880,
      "ĠMit": 881,
      "igi": 882,
      "ĠHein": 883,
      "alter": 884,
      "ĠGra": 885,
      "ĠGmeind": 886,
      "ĠfrÃ¶": 887,
      "ĠschÃ¼Ã¼": 888,
      "uut": 889,
      "ĠAl": 890,
      "ĠWage": 891,
      "ĠWalter": 892,
      "Ġmitenand": 893,
      "ĠChaar": 894,
      "ĠFueder": 895,
      "ĠFÃ¼Ã¼rw": 896,
      "aht": 897,
      "Ġeinisch": 898,
      "ĠvergÃ¤sse": 899,
      "Ġheiged": 900,
      "Ġlos": 901,
      "ross": 902,
      "Ġtro": 903,
      "etzt": 904,
      "stube": 905,
      "ĠZyt": 906,
      "ĠUnder": 907,
      "ĠUus": 908,
      "eits": 909,
      "Ġzwei": 910,
      "ruckt": 911,
      "ĠJoh": 912,
      "ĠchÃ¶nn": 913,
      "ĠchÃ¶nnt": 914,
      "ĠRe": 915,
      "ĠRoss": 916,
      "liche": 917,
      "Ġamigs": 918,
      "Ġihre": 919,
      "Ġalli": 920,
      "Ġaaf": 921,
      "Ġhine": 922,
      "Ġdemit": 923,
      "ĠgrÃ¼e": 924,
      "ĠsÃ¤lber": 925,
      "ĠGlaris": 926,
      "ĠGlarner": 927,
      "ĠGlarnertÃ¼Ã¼tsch": 928,
      "atÃ¼rli": 929,
      "schicht": 930,
      "ĠwÃ¤ri": 931,
      "Ġanderscht": 932,
      "inde": 933,
      "wÃ¤g": 934,
      "ĠHeu": 935,
      "ĠName": 936,
      "ĠProjeggt": 937,
      "Ġgrosse": 938,
      "Ġjedes": 939,
      "ubete": 940,
      "unders": 941,
      "Ġgnueg": 942,
      "ĠTÃ¼rmli": 943,
      "ĠtÃ¤nkt": 944,
      "Ġbsunders": 945,
      "ĠNew": 946,
      "Ġhindersi": 947,
      "Ġafo": 948,
      "runnstube": 949,
      "ĠHeinz": 950,
      "ĠChaarte": 951,
      "ĠJohann": 952,
      "!Â»": 953,
      ".âĢľ": 954,
      "Es": 955,
      "He": 956,
      "Nach": 957,
      "Ro": 958,
      "Und": 959,
      "Was": 960,
      "am": 961,
      "agg": 962,
      "aff": 963,
      "aib": 964,
      "bet": 965,
      "ble": 966,
      "ca": 967,
      "eere": 968,
      "fort": 969,
      "he": 970,
      "her": 971,
      "hau": 972,
      "ika": 973,
      "lt": 974,
      "lÃ¤": 975,
      "leit": 976,
      "ma": 977,
      "oon": 978,
      "pe": 979,
      "red": 980,
      "ruu": 981,
      "reit": 982,
      "racht": 983,
      "tue": 984,
      "vo": 985,
      "zieh": 986,
      "erh": 987,
      "scha": 988,
      "schwir": 989,
      "Ã¼d": 990,
      "Ã¼ch": 991,
      "Ã¼sse": 992,
      "ndi": 993,
      "Ġgscht": 994,
      "Ġglii": 995,
      "Ġett": 996,
      "Ġhe": 997,
      "Ġwir": 998,
      "eter": 999,
      "etti": 1000,
      "Ġiri": 1001,
      "Ġan": 1002,
      "Ġne": 1003,
      "eis": 1004,
      "ĠmÃ¶": 1005,
      "Ġmein": 1006,
      "lit": 1007,
      "licht": 1008,
      "ĠSti": 1009,
      "ĠhÃ¤t": 1010,
      "Ġvi": 1011,
      "ĠDu": 1012,
      "edanke": 1013,
      "ĠMir": 1014,
      "Ġcha": 1015,
      "uecht": 1016,
      "ĠHand": 1017,
      "ĠGri": 1018,
      "ĠGuscht": 1019,
      "ĠGedanke": 1020,
      "Ġgst": 1021,
      "Ġfre": 1022,
      "Ġfertig": 1023,
      "ĠnÃ¼me": 1024,
      "Ġaus": 1025,
      "Ġschw": 1026,
      "Ġjede": 1027,
      "bel": 1028,
      "ĠAr": 1029,
      "richt": 1030,
      "mel": 1031,
      "ĠWasser": 1032,
      "ĠToon": 1033,
      "ĠEi": 1034,
      "ĠChi": 1035,
      "ĠChuch": 1036,
      "Ġhetti": 1037,
      "Ġsofort": 1038,
      "ĠFre": 1039,
      "ĠNussbÃ¤um": 1040,
      "ĠNatÃ¼rli": 1041,
      "ĠNÃ¼d": 1042,
      "merika": 1043,
      "Ġgsii": 1044,
      "Ġein": 1045,
      "Ġverz": 1046,
      "Ġversch": 1047,
      "Ġdaas": 1048,
      "Ġlet": 1049,
      "ĠlÃ¤ng": 1050,
      "Ġluut": 1051,
      "rog": 1052,
      "ĠtrÃ¤": 1053,
      "ĠtÃ¶r": 1054,
      "ĠPiet": 1055,
      "Ġenand": 1056,
      "leg": 1057,
      "rÃ¤sse": 1058,
      "sta": 1059,
      "ĠZug": 1060,
      "aub": 1061,
      "Ġou": 1062,
      "Ġohni": 1063,
      "gget": 1064,
      "ĠStocke": 1065,
      "ĠzwÃ¼sch": 1066,
      "ĠJa": 1067,
      "ĠVor": 1068,
      "ichaib": 1069,
      "Ġganze": 1070,
      "Ġbeg": 1071,
      "latz": 1072,
      "ĠkÃ¤nnt": 1073,
      "Ã¶rt": 1074,
      "ungs": 1075,
      "ĠIg": 1076,
      "Ġgloffe": 1077,
      "Ġhindere": 1078,
      "ĠKurt": 1079,
      "ĠÃ¶ppe": 1080,
      "ĠÃ¶pper": 1081,
      "Ġgred": 1082,
      "ĠsÃ¤be": 1083,
      "Ġschtimmt": 1084,
      "ahrt": 1085,
      "ĠÃľ": 1086,
      "ĠwÃ¤nd": 1087,
      "ĠwÃ¼sse": 1088,
      "Strass": 1089,
      "Ġuusg": 1090,
      "ehrt": 1091,
      "ĠHeufueder": 1092,
      "ĠWerni": 1093,
      "ĠDame": 1094,
      "Ġgross": 1095,
      "ĠwÃ¤gem": 1096,
      "ĠtÃ¤t": 1097,
      "ĠBode": 1098,
      "ĠBogg": 1099,
      "ĠBluetwÃ¼rscht": 1100,
      "ĠOberdorf": 1101,
      "Ġweniger": 1102,
      "Ġfascht": 1103,
      "naame": 1104,
      "ĠhÃ¼tt": 1105,
      "ĠchÃ¶nnti": 1106,
      "Ġwird": 1107,
      "ĠGuschti": 1108,
      "ĠPieter": 1109,
      "!Â»,": 1110,
      "?âĢľ": 1111,
      "Am": 1112,
      "Au": 1113,
      "Bluetw": 1114,
      "Co": 1115,
      "DÃ¤": 1116,
      "Die": 1117,
      "Etz": 1118,
      "Qu": 1119,
      "att": 1120,
      "atz": 1121,
      "by": 1122,
      "biet": 1123,
      "det": 1124,
      "dig": 1125,
      "ef": 1126,
      "fte": 1127,
      "gi": 1128,
      "hem": 1129,
      "hts": 1130,
      "hÃ¶re": 1131,
      "ip": 1132,
      "iit": 1133,
      "jahr": 1134,
      "kum": 1135,
      "kÃ¼sch": 1136,
      "ler": 1137,
      "mÃ¼": 1138,
      "med": 1139,
      "mÃ¤nt": 1140,
      "nit": 1141,
      "nig": 1142,
      "nah": 1143,
      "nke": 1144,
      "ott": 1145,
      "ole": 1146,
      "pt": 1147,
      "rig": 1148,
      "ser": 1149,
      "ste": 1150,
      "tsch": 1151,
      "trÃ¤": 1152,
      "ust": 1153,
      "unnt": 1154,
      "vor": 1155,
      "wo": 1156,
      "wer": 1157,
      "Ã©": 1158,
      "Ã²": 1159,
      "Ġ(": 1160,
      "Ġ2": 1161,
      "ĠCo": 1162,
      "chnet": 1163,
      "ern": 1164,
      "Ã¤be": 1165,
      "Ġdet": 1166,
      "schii": 1167,
      "nde": 1168,
      "Ġgm": 1169,
      "ĠgÃ¤": 1170,
      "Ġgie": 1171,
      "Ġgit": 1172,
      "Ġgii": 1173,
      "Ġgern": 1174,
      "Ġse": 1175,
      "Ġste": 1176,
      "Ġseit": 1177,
      "Ġsel": 1178,
      "Ġher": 1179,
      "Ġhere": 1180,
      "ĠhÃ¼t": 1181,
      "Ġune": 1182,
      "ets": 1183,
      "Ġiig": 1184,
      "Ġine": 1185,
      "Ġdener": 1186,
      "Ġdezue": 1187,
      "Ġdeby": 1188,
      "Ġnei": 1189,
      "Ġmou": 1190,
      "Ġzieh": 1191,
      "Ġsis": 1192,
      "tti": 1193,
      "gend": 1194,
      "gebiet": 1195,
      "Ã¶f": 1196,
      "Ã¶nd": 1197,
      "ĠSich": 1198,
      "ĠSeil": 1199,
      "ĠhÃ¤mer": 1200,
      "Ġvum": 1201,
      "Ġbei": 1202,
      "ĠblÃ¶": 1203,
      "Ġbly": 1204,
      "Ġbrucht": 1205,
      "ĠDo": 1206,
      "ĠDrum": 1207,
      "edne": 1208,
      "edrÃ¤": 1209,
      "arz": 1210,
      "arte": 1211,
      "arrer": 1212,
      "aseb": 1213,
      "ĠBi": 1214,
      "ĠBrÃ¤": 1215,
      "ĠBrie": 1216,
      "Ã¼ro": 1217,
      "Ġchuu": 1218,
      "uess": 1219,
      "ĠHuu": 1220,
      "ĠHuet": 1221,
      "ĠHÃ¤l": 1222,
      "Ã¤nne": 1223,
      "Ã¤nni": 1224,
      "ald": 1225,
      "ĠGf": 1226,
      "ĠGsch": 1227,
      "rahts": 1228,
      "rey": 1229,
      "Ġaube": 1230,
      "Ġjo": 1231,
      "Ġjung": 1232,
      "ribe": 1233,
      "ĠWÃ¶r": 1234,
      "ĠWien": 1235,
      "ĠWÃ¤g": 1236,
      "ĠTeil": 1237,
      "ĠEl": 1238,
      "ĠCho": 1239,
      "ĠChÃ¤": 1240,
      "ĠChri": 1241,
      "Ã¤ner": 1242,
      "Ġhets": 1243,
      "Ġsoo": 1244,
      "Ġbisch": 1245,
      "ĠFÃ¤": 1246,
      "ĠFÃ¼r": 1247,
      "ĠNaseb": 1248,
      "Ġerch": 1249,
      "Ġerscht": 1250,
      "Ġeim": 1251,
      "Ġverl": 1252,
      "Ġvers": 1253,
      "Ġverruckt": 1254,
      "Ġlue": 1255,
      "Ġluege": 1256,
      "roh": 1257,
      "nis": 1258,
      "ĠdrÃ¼": 1259,
      "Ġdruf": 1260,
      "ĠZu": 1261,
      "ĠZue": 1262,
      "ĠghÃ¶re": 1263,
      "Ġwil": 1264,
      "Ġwichtig": 1265,
      "ĠStra": 1266,
      "ĠStud": 1267,
      "Ġpa": 1268,
      "Ġpricht": 1269,
      "Ġzwar": 1270,
      "ĠSchw": 1271,
      "ĠSchue": 1272,
      "ĠJetz": 1273,
      "ĠVo": 1274,
      "iil": 1275,
      "ĠLand": 1276,
      "ĠLau": 1277,
      "tzdem": 1278,
      "Ġalls": 1279,
      "angt": 1280,
      "Ã¤nke": 1281,
      "mache": 1282,
      "ĠÃ¤mel": 1283,
      "Ġklar": 1284,
      "ĠMaa": 1285,
      "ĠIm": 1286,
      "Ġgueti": 1287,
      "Ġaag": 1288,
      "Ġheigi": 1289,
      "idmer": 1290,
      "ĠKa": 1291,
      "ĠOr": 1292,
      "gsp": 1293,
      "uuser": 1294,
      "ĠgrÃ¶": 1295,
      "elet": 1296,
      "halte": 1297,
      "ffiz": 1298,
      "old": 1299,
      "ĠÃĸ": 1300,
      "ebig": 1301,
      "Ġligge": 1302,
      "ĠSchtri": 1303,
      "Ġniemed": 1304,
      "Stunggel": 1305,
      "Ġgschp": 1306,
      "Ġinere": 1307,
      "Ġabg": 1308,
      "ĠFabri": 1309,
      "ibt": 1310,
      "losse": 1311,
      "mpe": 1312,
      "Ġuufg": 1313,
      "ĠDerungs": 1314,
      "ĠAuer": 1315,
      "ĠNachbere": 1316,
      "ĠNachbar": 1317,
      "Ġjedere": 1318,
      "lÃ¶tz": 1319,
      "Ġwetted": 1320,
      "Ġsinere": 1321,
      "ĠBluetwurscht": 1322,
      "uufnaame": 1323,
      "ĠPfarrer": 1324,
      "Ġwiiter": 1325,
      "pfel": 1326,
      "Ġeigetli": 1327,
      "SpÃ¤nni": 1328,
      "Ġwarum": 1329,
      "ĠSÃ¶ichaib": 1330,
      "ĠschÃ¼Ã¼ch": 1331,
      "ĠFÃ¼Ã¼rwehr": 1332,
      "Heufueder": 1333,
      "Ã¼chel": 1334,
      "Ġhesch": 1335,
      "ĠStich": 1336,
      "ĠToonuufnaame": 1337,
      "ĠChuchi": 1338,
      "ĠFreud": 1339,
      "Ġverzellt": 1340,
      "Ġletschte": 1341,
      "ĠPieterle": 1342,
      "kÃ¼schelet": 1343,
      "Ġgieng": 1344,
      "ĠblÃ¶d": 1345,
      "edrÃ¤ck": 1346,
      "ĠWÃ¶rter": 1347,
      "ĠStudie": 1348,
      "ĠFabrik": 1349,
      "50": 1350,
      "Amerika": 1351,
      "Bier": 1352,
      "Brunnstube": 1353,
      "Er": 1354,
      "Fueder": 1355,
      "Gliich": 1356,
      "HÃ¤": 1357,
      "So": 1358,
      "Sit": 1359,
      "Scht": 1360,
      "Wasser": 1361,
      "Widmer": 1362,
      "ati": 1363,
      "bi": 1364,
      "bei": 1365,
      "bed": 1366,
      "bru": 1367,
      "baum": 1368,
      "bver": 1369,
      "ds": 1370,
      "far": 1371,
      "fol": 1372,
      "gle": 1373,
      "gange": 1374,
      "iere": 1375,
      "ise": 1376,
      "las": 1377,
      "lÃ¤b": 1378,
      "luege": 1379,
      "mu": 1380,
      "nÃ¼": 1381,
      "nscht": 1382,
      "nau": 1383,
      "nlich": 1384,
      "one": 1385,
      "oni": 1386,
      "ock": 1387,
      "rach": 1388,
      "rÃ¼r": 1389,
      "sÃ¤ge": 1390,
      "sanne": 1391,
      "slig": 1392,
      "tig": 1393,
      "uÃ¤": 1394,
      "ure": 1395,
      "uck": 1396,
      "usi": 1397,
      "ujahr": 1398,
      "vill": 1399,
      "viert": 1400,
      "wie": 1401,
      "wÃ¼sse": 1402,
      "xand": 1403,
      "zu": 1404,
      "zug": 1405,
      "Ġq": 1406,
      "Ġri": 1407,
      "Ġor": 1408,
      "ĠQu": 1409,
      "chuu": 1410,
      "chlei": 1411,
      "Ã¤nder": 1412,
      "Ã¤ter": 1413,
      "Ġdrey": 1414,
      "schei": 1415,
      "schli": 1416,
      "Ã¼ck": 1417,
      "Ã¼ert": 1418,
      "Ġgmer": 1419,
      "Ġgmei": 1420,
      "Ġgad": 1421,
      "Ġsei": 1422,
      "âĢ¦": 1423,
      "Ġelei": 1424,
      "Ġung": 1425,
      "Ġwagg": 1426,
      "Ġietz": 1427,
      "Ġane": 1428,
      "Ġandere": 1429,
      "Ġdenn": 1430,
      "Ġdemm": 1431,
      "Ġdehei": 1432,
      "ĠdefÃ¼r": 1433,
      "Ġdevo": 1434,
      "ĠnÃ¤m": 1435,
      "Ġnume": 1436,
      "eili": 1437,
      "eiche": 1438,
      "Ġmo": 1439,
      "line": 1440,
      "ssti": 1441,
      "Ġzur": 1442,
      "Ġzah": 1443,
      "Ġzru": 1444,
      "ĠzrÃ¼": 1445,
      "Ġzeig": 1446,
      "Ġzaal": 1447,
      "Ġsie": 1448,
      "Ġsiin": 1449,
      "Ã¶it": 1450,
      "ĠSunnt": 1451,
      "iel": 1452,
      "iech": 1453,
      "Ġbli": 1454,
      "Ġbri": 1455,
      "ite": 1456,
      "ĠDet": 1457,
      "eded": 1458,
      "arch": 1459,
      "arat": 1460,
      "llt": 1461,
      "ank": 1462,
      "ĠBs": 1463,
      "ĠBÃ¼": 1464,
      "ĠBed": 1465,
      "ĠBre": 1466,
      "ĠBlo": 1467,
      "ĠBrunnstube": 1468,
      "ĠBuuser": 1469,
      "Ã¼re": 1470,
      "ĠMe": 1471,
      "ĠMuu": 1472,
      "ĠMuet": 1473,
      "ĠMetz": 1474,
      "Ġchly": 1475,
      "bers": 1476,
      "ueschter": 1477,
      "ĠHei": 1478,
      "ĠHal": 1479,
      "ĠHÃ¤r": 1480,
      "ĠHug": 1481,
      "ĠHÃ¼Ã¼": 1482,
      "Ã¤nnli": 1483,
      "alat": 1484,
      "nes": 1485,
      "ĠGschicht": 1486,
      "Ġgsetzt": 1487,
      "Ġgsuecht": 1488,
      "rabe": 1489,
      "Ġwos": 1490,
      "Ġfahre": 1491,
      "Ġfahrt": 1492,
      "Ġfroh": 1493,
      "ress": 1494,
      "Ġschri": 1495,
      "tiere": 1496,
      "Chind": 1497,
      "uup": 1498,
      "chte": 1499,
      "ĠAm": 1500,
      "ĠAle": 1501,
      "ĠAca": 1502,
      "ĠAnit": 1503,
      "risch": 1504,
      "ride": 1505,
      "mene": 1506,
      "Ġeso": 1507,
      "ĠTro": 1508,
      "ĠTii": 1509,
      "ĠTrÃ¼": 1510,
      "ĠTÃ¼chel": 1511,
      "ĠTÃ¤nnli": 1512,
      "ĠEh": 1513,
      "ĠChue": 1514,
      "ĠChuscht": 1515,
      "ĠChatz": 1516,
      "ĠChef": 1517,
      "Ã¤nz": 1518,
      "Ã¤ngs": 1519,
      "Ã¤nze": 1520,
      "tem": 1521,
      "ĠFro": 1522,
      "fel": 1523,
      "ĠÃ¼se": 1524,
      "Ġeimal": 1525,
      "Ġverd": 1526,
      "Ġverschi": 1527,
      "enk": 1528,
      "Ġvoor": 1529,
      "Ġla": 1530,
      "Ġlau": 1531,
      "Ġlange": 1532,
      "rot": 1533,
      "ehme": 1534,
      "Ġtue": 1535,
      "ĠtÃ¼e": 1536,
      "Ġtun": 1537,
      "ĠPlatz": 1538,
      "Ġent": 1539,
      "dee": 1540,
      "dene": 1541,
      "demi": 1542,
      "ngt": 1543,
      "stÃ¤nd": 1544,
      "stross": 1545,
      "ĠUf": 1546,
      "ĠUm": 1547,
      "ĠUni": 1548,
      "ĠStÃ¤ge": 1549,
      "ĠStubete": 1550,
      "Ġpf": 1551,
      "Ġpaar": 1552,
      "Ġpass": 1553,
      "Ġparat": 1554,
      "ĠzwÃ¶i": 1555,
      "ĠSchp": 1556,
      "ĠfÃ¼rs": 1557,
      "Ã¼tz": 1558,
      "Ã¼tet": 1559,
      "rut": 1560,
      "ĠJahr": 1561,
      "ĠJaar": 1562,
      "ĠJede": 1563,
      "ĠJass": 1564,
      "ĠJÃ¤ner": 1565,
      "ĠLÃ¼t": 1566,
      "ĠLehme": 1567,
      "ĠchÃ¶ne": 1568,
      "ppe": 1569,
      "ĠRueschter": 1570,
      "rÃ¼nd": 1571,
      "ĠÃ¤ne": 1572,
      "ĠÃ¤uÃ¤": 1573,
      "Ġbeede": 1574,
      "Ġbevor": 1575,
      "lag": 1576,
      "ĠkÃ¤": 1577,
      "Ġkei": 1578,
      "Ġalte": 1579,
      "ĠIch": 1580,
      "Ġgleit": 1581,
      "ntsch": 1582,
      "unde": 1583,
      "uche": 1584,
      "sserand": 1585,
      "aat": 1586,
      "ftere": 1587,
      "ilt": 1588,
      "illicht": 1589,
      "ĠOtti": 1590,
      "Ġmini": 1591,
      "uusig": 1592,
      "Ġschtatt": 1593,
      "Ã¤lle": 1594,
      "Ġgfrog": 1595,
      "ffeli": 1596,
      "ische": 1597,
      "ischp": 1598,
      "pfgebiet": 1599,
      "Ġliit": 1600,
      "ĠSchtrass": 1601,
      "ĠSchtocke": 1602,
      "Ġchunt": 1603,
      "ĠÃ¼Ã¼ch": 1604,
      "gete": 1605,
      "Ġaso": 1606,
      "Ġgschribe": 1607,
      "Ġmached": 1608,
      "ĠSinn": 1609,
      "ĠSiite": 1610,
      "ĠNafte": 1611,
      "ĠNapfgebiet": 1612,
      "ĠProfe": 1613,
      "ĠProble": 1614,
      "ohr": 1615,
      "zeli": 1616,
      "ĠWerner": 1617,
      "ĠghÃ¶red": 1618,
      "ĠsÃ¶ll": 1619,
      "ienscht": 1620,
      "Ġdure": 1621,
      "Ġgaht": 1622,
      "Ġstaht": 1623,
      "Ġirgend": 1624,
      "Ġemene": 1625,
      "ĠtÃ¤ti": 1626,
      "msschwir": 1627,
      "schpanne": 1628,
      "Ġsiini": 1629,
      "Schange": 1630,
      "ulfe": 1631,
      "Ġrede": 1632,
      "Ġreded": 1633,
      "Ġwerdi": 1634,
      "ĠSpiil": 1635,
      "ĠMomÃ¤nt": 1636,
      "ĠschÃ¶ne": 1637,
      "ĠÃĦr": 1638,
      "ĠÃĦndi": 1639,
      "able": 1640,
      "passe": 1641,
      "Ġbereit": 1642,
      "Ġbereits": 1643,
      "Ġverby": 1644,
      "ĠOberholz": 1645,
      "immer": 1646,
      "Ġdrii": 1647,
      "ĠwÃ¶u": 1648,
      "ummere": 1649,
      "ĠGras": 1650,
      "ĠGruess": 1651,
      "Ġhetted": 1652,
      "ĠSchluch": 1653,
      "hof": 1654,
      "nÃ¤u": 1655,
      "wider": 1656,
      "Ġ19": 1657,
      "ĠspÃ¤ter": 1658,
      "ĠhÃ¶chi": 1659,
      "eischteret": 1660,
      "ĠSÃ¤tz": 1661,
      "ĠSÃ¤mi": 1662,
      "ĠGrab": 1663,
      "ĠGraf": 1664,
      "ĠGmeinds": 1665,
      "Ġtrotzdem": 1666,
      "Ġaafangt": 1667,
      "leitig": 1668,
      "erheits": 1669,
      "schaft": 1670,
      "Ġettis": 1671,
      "Ġneue": 1672,
      "Ġviu": 1673,
      "ĠArbet": 1674,
      "ĠlÃ¤ngscht": 1675,
      "ĠtrÃ¤iet": 1676,
      "ĠtÃ¶rf": 1677,
      "legig": 1678,
      "ĠzwÃ¼schet": 1679,
      "Ġbegeischteret": 1680,
      "Ġgredt": 1681,
      "ĠÃľebig": 1682,
      "Ġgrossi": 1683,
      "Bluetwurscht": 1684,
      "stelle": 1685,
      "ĠSicherheits": 1686,
      "ĠBire": 1687,
      "ĠHÃ¤lslig": 1688,
      "ĠGfrÃ¼r": 1689,
      "rahtseil": 1690,
      "ĠWienacht": 1691,
      "ĠElmÃ¤": 1692,
      "ĠChrischt": 1693,
      "ĠNaseband": 1694,
      "ĠerchlÃ¤": 1695,
      "ĠStrasserand": 1696,
      "Ġprichtet": 1697,
      "ĠLausanne": 1698,
      "ĠgrÃ¶sser": 1699,
      "ffizier": 1700,
      "xandra": 1701,
      "Ã¼ckli": 1702,
      "Ġgmeint": 1703,
      "Ġzrugg": 1704,
      "ĠzrÃ¼gg": 1705,
      "ĠBlocher": 1706,
      "ĠMueter": 1707,
      "ĠHalftere": 1708,
      "ĠHÃ¼Ã¼ffeli": 1709,
      "ĠAlexandra": 1710,
      "ĠAcademi": 1711,
      "ĠAnita": 1712,
      "ĠTiidi": 1713,
      "Ġlauft": 1714,
      "ĠRueschterholz": 1715,
      "Ġgfrogt": 1716,
      "ĠNafteli": 1717,
      "ĠProbleem": 1718,
      "msschwirbel": 1719,
      "ĠGfrÃ¼rfach": 1720,
      "ĠAcademia": 1721,
      "-,": 1722,
      "01": 1723,
      "Aber": 1724,
      "Auto": 1725,
      "BÃ¤um": 1726,
      "Ds": 1727,
      "Du": 1728,
      "Der": 1729,
      "DÃ¤nn": 1730,
      "Dienscht": 1731,
      "Eso": 1732,
      "Fa": 1733,
      "Gschicht": 1734,
      "Hei": 1735,
      "Lusi": 1736,
      "Metz": 1737,
      "Manne": 1738,
      "March": 1739,
      "Ne": 1740,
      "Nur": 1741,
      "NussbÃ¤um": 1742,
      "Nummere": 1743,
      "Puure": 1744,
      "Rede": 1745,
      "Uf": 1746,
      "Vor": 1747,
      "Wo": 1748,
      "Will": 1749,
      "Wil": 1750,
      "ali": 1751,
      "aas": 1752,
      "aber": 1753,
      "ander": 1754,
      "app": 1755,
      "ami": 1756,
      "bo": 1757,
      "bt": 1758,
      "bÃ¤": 1759,
      "bue": 1760,
      "blet": 1761,
      "bald": 1762,
      "cch": 1763,
      "dr": 1764,
      "dÃ¶": 1765,
      "dÃ¤m": 1766,
      "ez": 1767,
      "ene": 1768,
      "eme": 1769,
      "eck": 1770,
      "eert": 1771,
      "eget": 1772,
      "fÃ¼": 1773,
      "fli": 1774,
      "fra": 1775,
      "fter": 1776,
      "fall": 1777,
      "finde": 1778,
      "fahrt": 1779,
      "fride": 1780,
      "gh": 1781,
      "gii": 1782,
      "glich": 1783,
      "gliich": 1784,
      "hl": 1785,
      "hr": 1786,
      "hsch": 1787,
      "hand": 1788,
      "hlt": 1789,
      "hÃ¶f": 1790,
      "ial": 1791,
      "ibe": 1792,
      "icht": 1793,
      "ider": 1794,
      "ick": 1795,
      "inder": 1796,
      "imm": 1797,
      "iff": 1798,
      "imli": 1799,
      "johr": 1800,
      "ko": 1801,
      "kti": 1802,
      "kÃ¤nnt": 1803,
      "kehrt": 1804,
      "krut": 1805,
      "led": 1806,
      "lue": 1807,
      "lfe": 1808,
      "land": 1809,
      "lÃ¤ge": 1810,
      "loss": 1811,
      "mt": 1812,
      "mit": 1813,
      "man": 1814,
      "muet": 1815,
      "metz": 1816,
      "maa": 1817,
      "mou": 1818,
      "mpf": 1819,
      "nv": 1820,
      "nor": 1821,
      "nur": 1822,
      "nou": 1823,
      "nkt": 1824,
      "od": 1825,
      "oo": 1826,
      "ov": 1827,
      "osse": 1828,
      "ogg": 1829,
      "ouf": 1830,
      "ont": 1831,
      "oschte": 1832,
      "olle": 1833,
      "pri": 1834,
      "panne": 1835,
      "pft": 1836,
      "pier": 1837,
      "pott": 1838,
      "ret": 1839,
      "rli": 1840,
      "rne": 1841,
      "rÃ¤ng": 1842,
      "rÃ¤nne": 1843,
      "sti": 1844,
      "seh": 1845,
      "shei": 1846,
      "sam": 1847,
      "tr": 1848,
      "tra": 1849,
      "teil": 1850,
      "uli": 1851,
      "uere": 1852,
      "utz": 1853,
      "uedrÃ¤ck": 1854,
      "we": 1855,
      "wy": 1856,
      "wÃ¤r": 1857,
      "wegg": 1858,
      "wort": 1859,
      "winde": 1860,
      "ych": 1861,
      "ysse": 1862,
      "yte": 1863,
      "ydr": 1864,
      "zt": 1865,
      "zÃ¤me": 1866,
      "zyt": 1867,
      "zÃ¼g": 1868,
      "zigi": 1869,
      "zzeli": 1870,
      "Ã¯": 1871,
      "Ġy": 1872,
      "Ġru": 1873,
      "ĠrÃ¼": 1874,
      "ĠÃ¤nt": 1875,
      "chs": 1876,
      "ched": 1877,
      "chne": 1878,
      "chtige": 1879,
      "erer": 1880,
      "ered": 1881,
      "erviert": 1882,
      "Ã¤ck": 1883,
      "Ã¤ut": 1884,
      "Ã¤mp": 1885,
      "Ã¤tte": 1886,
      "ĠdÃ¼": 1887,
      "ĠdÃ¤nk": 1888,
      "schon": 1889,
      "schlosse": 1890,
      "Ã¼nd": 1891,
      "Ã¼gge": 1892,
      "Ã¼lle": 1893,
      "Ã¼ehre": 1894,
      "Ã¼eter": 1895,
      "Ã¼ser": 1896,
      "ndig": 1897,
      "ndlich": 1898,
      "ndescht": 1899,
      "Ġgu": 1900,
      "ĠgÃ¤ge": 1901,
      "Ġglich": 1902,
      "Ġgla": 1903,
      "Ġgeb": 1904,
      "Ġgescht": 1905,
      "ĠgÃ¤b": 1906,
      "ĠgÃ¤sse": 1907,
      "Ġgeere": 1908,
      "Ġggii": 1909,
      "Ġsti": 1910,
      "Ġsuu": 1911,
      "Ġsehr": 1912,
      "Ġsam": 1913,
      "Ġsust": 1914,
      "Ġserviert": 1915,
      "Ġegg": 1916,
      "Ġeus": 1917,
      "ĠewÃ¤g": 1918,
      "Ġechlei": 1919,
      "ĠebÃ¤": 1920,
      "Ġhau": 1921,
      "Ġhuup": 1922,
      "Ġun": 1923,
      "Ġunge": 1924,
      "ĠwÃ¤n": 1925,
      "Ġwem": 1926,
      "ĠwÃ¤h": 1927,
      "etro": 1928,
      "Ġii": 1929,
      "Ġire": 1930,
      "Ġint": 1931,
      "Ġar": 1932,
      "ĠnÃ¶": 1933,
      "ĠnÃ¤ch": 1934,
      "ĠnÃ¤be": 1935,
      "eib": 1936,
      "eige": 1937,
      "eisse": 1938,
      "eist": 1939,
      "Ġme": 1940,
      "Ġmich": 1941,
      "ĠmÃ¤ngs": 1942,
      "lischi": 1943,
      "ssli": 1944,
      "ssig": 1945,
      "nner": 1946,
      "nnÃ©": 1947,
      "Ġzun": 1948,
      "Ġzoge": 1949,
      "ĠzÃ¼g": 1950,
      "Ġzehre": 1951,
      "Ġzerscht": 1952,
      "Ġzimli": 1953,
      "Ġzeige": 1954,
      "Ġsit": 1955,
      "Ġsine": 1956,
      "Ġsicht": 1957,
      "Ġsider": 1958,
      "Ġsiis": 1959,
      "Ġsitz": 1960,
      "gens": 1961,
      "Ã¶h": 1962,
      "Ã¶Ã¶": 1963,
      "Ã¶schter": 1964,
      "Ã¶ver": 1965,
      "Ã¶nau": 1966,
      "Ã¶ssli": 1967,
      "schtet": 1968,
      "schtra": 1969,
      "schtrass": 1970,
      "schtÃ¤nd": 1971,
      "schtande": 1972,
      "schtaht": 1973,
      "ĠSou": 1974,
      "ĠSon": 1975,
      "ĠSoh": 1976,
      "ĠSold": 1977,
      "ĠSalat": 1978,
      "ĠhÃ¤lfe": 1979,
      "ĠvÃ¼re": 1980,
      "Ġbo": 1981,
      "Ġbreit": 1982,
      "Ġbald": 1983,
      "Ġbloss": 1984,
      "Ġbschlosse": 1985,
      "its": 1986,
      "ĠDÃ¤nn": 1987,
      "ĠDrÃ¼": 1988,
      "ĠDrahtseil": 1989,
      "ĠDial": 1990,
      "artet": 1991,
      "achse": 1992,
      "achwÃ¼sse": 1993,
      "ante": 1994,
      "aster": 1995,
      "ĠBie": 1996,
      "ĠBÃ¤r": 1997,
      "ĠBrÃ¼": 1998,
      "ĠBescht": 1999,
      "ĠBild": 2000,
      "ĠBeg": 2001,
      "ĠBÃ¼ro": 2002,
      "ĠBrot": 2003,
      "Ã¼rt": 2004,
      "ĠMou": 2005,
      "ĠMiet": 2006,
      "ĠMeter": 2007,
      "ĠMaster": 2008,
      "igst": 2009,
      "igschtens": 2010,
      "Ġchas": 2011,
      "Ġchum": 2012,
      "Ġchur": 2013,
      "Ġchume": 2014,
      "beri": 2015,
      "uel": 2016,
      "ueber": 2017,
      "uebe": 2018,
      "ĠHor": 2019,
      "ĠHau": 2020,
      "ĠHang": 2021,
      "ĠHung": 2022,
      "ĠHÃ¤ng": 2023,
      "ĠHÃ¶f": 2024,
      "ĠHÃ¼ser": 2025,
      "ĠHueber": 2026,
      "ĠGuet": 2027,
      "ĠGru": 2028,
      "ĠGang": 2029,
      "ĠGsi": 2030,
      "ĠGenau": 2031,
      "ĠGanz": 2032,
      "ĠGross": 2033,
      "ĠGarte": 2034,
      "ĠGold": 2035,
      "ĠGlas": 2036,
      "Ġgsund": 2037,
      "rat": 2038,
      "raachwÃ¼sse": 2039,
      "reg": 2040,
      "reut": 2041,
      "recher": 2042,
      "ĠnÃ¼Ã¼": 2043,
      "Ġempf": 2044,
      "Ġemaal": 2045,
      "Ġaute": 2046,
      "Ġauso": 2047,
      "Ġschu": 2048,
      "Ġschli": 2049,
      "ĠschÃ¤nk": 2050,
      "ĠschwÃ¤": 2051,
      "Ġschaff": 2052,
      "ĠschnÃ¤u": 2053,
      "tiert": 2054,
      "timmt": 2055,
      "Ġjunge": 2056,
      "Chline": 2057,
      "Chez": 2058,
      "uur": 2059,
      "uuch": 2060,
      "uune": 2061,
      "chtli": 2062,
      "ĠApp": 2063,
      "ĠAndere": 2064,
      "ĠAmerika": 2065,
      "ritt": 2066,
      "rinke": 2067,
      "ĠWo": 2068,
      "ĠWie": 2069,
      "ĠWÃ¤nn": 2070,
      "ĠWÃ¤r": 2071,
      "ĠWÃ¤ge": 2072,
      "ĠWÃ¼rscht": 2073,
      "ĠWin": 2074,
      "ĠWurscht": 2075,
      "ĠWitz": 2076,
      "ĠTur": 2077,
      "ĠTisch": 2078,
      "ĠTÃ¤ller": 2079,
      "ĠEm": 2080,
      "ĠEin": 2081,
      "ĠEhe": 2082,
      "ĠEischp": 2083,
      "ĠChla": 2084,
      "ĠChrie": 2085,
      "ĠChuedrÃ¤ck": 2086,
      "Ã¤ntin": 2087,
      "orb": 2088,
      "orge": 2089,
      "orget": 2090,
      "ornig": 2091,
      "urant": 2092,
      "urret": 2093,
      "Ġhettet": 2094,
      "Ġson": 2095,
      "Ġsowie": 2096,
      "Ġsones": 2097,
      "Ġsobald": 2098,
      "Ġbizzeli": 2099,
      "Ġbiigst": 2100,
      "tend": 2101,
      "tell": 2102,
      "ĠFra": 2103,
      "ĠFrÃ¼": 2104,
      "ĠFrig": 2105,
      "ĠNee": 2106,
      "Ġerg": 2107,
      "Ġerfar": 2108,
      "ĠÃ¼si": 2109,
      "ĠÃ¼bri": 2110,
      "Ġnae": 2111,
      "Ġnamal": 2112,
      "derbei": 2113,
      "merk": 2114,
      "Ġverch": 2115,
      "Ġverschp": 2116,
      "Ġversp": 2117,
      "eni": 2118,
      "Ġheimli": 2119,
      "Ġluscht": 2120,
      "Ġlehre": 2121,
      "ĠlÃ¶it": 2122,
      "Ġtuet": 2123,
      "Ġtumm": 2124,
      "ĠPÃ¼Ã¼r": 2125,
      "ĠPurscht": 2126,
      "ĠPred": 2127,
      "tershei": 2128,
      "Ã¤rt": 2129,
      "desse": 2130,
      "Ġdrzue": 2131,
      "Ġdruuf": 2132,
      "ĠdrfÃ¼r": 2133,
      "nggle": 2134,
      "Ġuft": 2135,
      "Ġuffe": 2136,
      "leere": 2137,
      "rÃ¤ms": 2138,
      "rÃ¤ger": 2139,
      "rÃ¤Ã¤ch": 2140,
      "rÃ¤chnet": 2141,
      "stÃ¼r": 2142,
      "ĠZÃ¼g": 2143,
      "ĠZiit": 2144,
      "ĠZnÃ¼": 2145,
      "ĠZeiche": 2146,
      "ĠZimmer": 2147,
      "aufe": 2148,
      "ause": 2149,
      "auff": 2150,
      "ĠUuf": 2151,
      "ĠUnggle": 2152,
      "Ġwies": 2153,
      "ggli": 2154,
      "seum": 2155,
      "Ġgheb": 2156,
      "Ġgheisse": 2157,
      "ĠStad": 2158,
      "ĠStolz": 2159,
      "ĠStaub": 2160,
      "ĠStauff": 2161,
      "Ġprucht": 2162,
      "Ġpruu": 2163,
      "Ġpracht": 2164,
      "Ã¼eft": 2165,
      "Ã¼echer": 2166,
      "ĠSchu": 2167,
      "ĠSchang": 2168,
      "ĠSchmi": 2169,
      "ĠSchul": 2170,
      "ĠSchÃ¶nau": 2171,
      "Ã¼tsch": 2172,
      "runge": 2173,
      "Ġderzue": 2174,
      "ĠJed": 2175,
      "ĠJunge": 2176,
      "ĠVorf": 2177,
      "ĠVort": 2178,
      "ertro": 2179,
      "ĠLu": 2180,
      "ĠLÃ¤ng": 2181,
      "ĠchÃ¶nd": 2182,
      "ĠRot": 2183,
      "ĠRolle": 2184,
      "ĠRÃ¼gge": 2185,
      "Ġallne": 2186,
      "ĠallwÃ¤g": 2187,
      "Ġallpott": 2188,
      "lichk": 2189,
      "ĠÃ¼berall": 2190,
      "ĠÃ¼berhau": 2191,
      "angs": 2192,
      "anget": 2193,
      "angge": 2194,
      "Ġmers": 2195,
      "Ġganzi": 2196,
      "rÃ¼ng": 2197,
      "ĠÃ¤x": 2198,
      "ĠÃ¤ch": 2199,
      "ĠÃ¤ue": 2200,
      "ĠÃ¤sse": 2201,
      "ĠÃ¤lt": 2202,
      "Ġbeschte": 2203,
      "Ġbeka": 2204,
      "Ġbeedne": 2205,
      "ĠDeet": 2206,
      "siits": 2207,
      "ĠkÃ¤nn": 2208,
      "ĠkÃ¤n": 2209,
      "Ġkein": 2210,
      "Ġkeis": 2211,
      "Ã¶rf": 2212,
      "ĠMatsch": 2213,
      "Ġalt": 2214,
      "Ġaluege": 2215,
      "ĠmÃ¼esst": 2216,
      "ĠmÃ¼essti": 2217,
      "ĠIdee": 2218,
      "ĠglÃ¼": 2219,
      "ĠglÃ¤b": 2220,
      "Ġglaub": 2221,
      "ĠglÃ¼tet": 2222,
      "Ġglych": 2223,
      "Ġguets": 2224,
      "mmere": 2225,
      "mmte": 2226,
      "Ġaagf": 2227,
      "Ġaazoge": 2228,
      "aad": 2229,
      "aag": 2230,
      "Ġgwartet": 2231,
      "Ġhing": 2232,
      "Ġhinde": 2233,
      "ftrÃ¤ger": 2234,
      "ĠKo": 2235,
      "ĠKant": 2236,
      "ĠOffizier": 2237,
      "Ã¤hr": 2238,
      "Ã¤hma": 2239,
      "gseh": 2240,
      "gseit": 2241,
      "gsman": 2242,
      "Ġnachdem": 2243,
      "Ġnachher": 2244,
      "Ġmim": 2245,
      "Ġmilit": 2246,
      "Ġmindescht": 2247,
      "unsch": 2248,
      "unet": 2249,
      "ĠHerz": 2250,
      "ĠGlarone": 2251,
      "Ġschtill": 2252,
      "Ġschtaa": 2253,
      "ĠschtÃ¶nd": 2254,
      "ĠzuekÃ¼schelet": 2255,
      "gelmÃ¤": 2256,
      "ahrer": 2257,
      "oufe": 2258,
      "schine": 2259,
      "Ġgfahre": 2260,
      "ĠgfÃ¼ert": 2261,
      "ĠgfÃ¤hr": 2262,
      "ĠsÃ¤ged": 2263,
      "ebigs": 2264,
      "tsmu": 2265,
      "Ġling": 2266,
      "ĠwÃ¤m": 2267,
      "ĠwÃ¼sst": 2268,
      "ĠSchtell": 2269,
      "igsvo": 2270,
      "Ġdrumm": 2271,
      "Ġusefinde": 2272,
      "ĠwÃ¤rs": 2273,
      "ĠwÃ¤red": 2274,
      "Ġniemer": 2275,
      "Stocke": 2276,
      "Stubete": 2277,
      "ĠrÃ¤chnet": 2278,
      "Ġgschii": 2279,
      "Ġuusgsp": 2280,
      "Ġweisch": 2281,
      "Ġmacht": 2282,
      "ehrer": 2283,
      "leid": 2284,
      "leige": 2285,
      "wÃ¤nder": 2286,
      "ĠHeuet": 2287,
      "ĠFascht": 2288,
      "lopfe": 2289,
      "letscht": 2290,
      "Ġvorne": 2291,
      "ĠWerk": 2292,
      "mpet": 2293,
      "Ã¤lt": 2294,
      "Ã¤ler": 2295,
      "ĠuuftrÃ¤": 2296,
      "Ġuufpasse": 2297,
      "ĠwÃ¼rggli": 2298,
      "ientiere": 2299,
      "ĠNachbers": 2300,
      "ĠÃ¼sere": 2301,
      "ĠÃ¼seri": 2302,
      "ĠÃ¼serer": 2303,
      "annet": 2304,
      "Ġgahts": 2305,
      "ligi": 2306,
      "ĠVatter": 2307,
      "nsis": 2308,
      "chers": 2309,
      "ĠaglÃ¼": 2310,
      "geret": 2311,
      "lÃ¼chte": 2312,
      "Ġrangge": 2313,
      "Ġwerd": 2314,
      "Ġwerde": 2315,
      "ĠSprach": 2316,
      "ĠSpraachwÃ¼sse": 2317,
      "ĠSprecher": 2318,
      "ĠMoscht": 2319,
      "ĠMonnÃ©": 2320,
      "Ġgseht": 2321,
      "ĠschÃ¶n": 2322,
      "ĠschÃ¶ns": 2323,
      "ĠtÃ¤nke": 2324,
      "ĠPfleg": 2325,
      "passt": 2326,
      "liibe": 2327,
      "Ġunderschei": 2328,
      "Ġunderdesse": 2329,
      "Ġbsund": 2330,
      "ĠfrÃ¼eh": 2331,
      "ĠfrÃ¼ener": 2332,
      "ĠAbsch": 2333,
      "ĠAbig": 2334,
      "ĠNeujahr": 2335,
      "Ġverbi": 2336,
      "ĠZwee": 2337,
      "Ġobsi": 2338,
      "Ġobschon": 2339,
      "ĠwÃ¼rded": 2340,
      "sprÃ¼ng": 2341,
      "Ġdritte": 2342,
      "Ġeigetlich": 2343,
      "ĠwÃ¶ue": 2344,
      "Ġwenigschtens": 2345,
      "Ġmeischtens": 2346,
      "itzer": 2347,
      "Ġfasch": 2348,
      "ĠSchluck": 2349,
      "ĠSchluuch": 2350,
      "Ġlieber": 2351,
      "Ġliebe": 2352,
      "Ġliecht": 2353,
      "nÃ¤cht": 2354,
      "zioni": 2355,
      "Ġreno": 2356,
      "ĠregelmÃ¤": 2357,
      "ĠhÃ¶ch": 2358,
      "Ġussem": 2359,
      "ĠDorfst": 2360,
      "ĠBeed": 2361,
      "ĠMilit": 2362,
      "ĠGmeindrat": 2363,
      "ĠfrÃ¶get": 2364,
      "ĠfrÃ¶eget": 2365,
      "ĠAlli": 2366,
      "ĠAlte": 2367,
      "ĠUnderschii": 2368,
      "ĠUush": 2369,
      "ĠResta": 2370,
      "ĠRekrut": 2371,
      "ĠgrÃ¼esse": 2372,
      "ĠgrÃ¼esst": 2373,
      "ĠgrÃ¼eft": 2374,
      "ĠHeuwage": 2375,
      "ĠHeuwÃ¤nder": 2376,
      "Nachbere": 2377,
      "Rosi": 2378,
      "zieht": 2379,
      "schafter": 2380,
      "schwirble": 2381,
      "Ġgschtande": 2382,
      "ĠettÃ¤": 2383,
      "ĠmÃ¶ge": 2384,
      "Ġmeined": 2385,
      "Ġchasch": 2386,
      "Ġchaibe": 2387,
      "ĠGrind": 2388,
      "Ġfreue": 2389,
      "Ġschwar": 2390,
      "Ġschwarz": 2391,
      "ĠEine": 2392,
      "ĠChing": 2393,
      "ĠChile": 2394,
      "Ġverschid": 2395,
      "ĠtÃ¶rfe": 2396,
      "ĠVorderbei": 2397,
      "Ġgredet": 2398,
      "ĠsÃ¤bem": 2399,
      "Ġuusgw": 2400,
      "digung": 2401,
      "iiter": 2402,
      "kumen": 2403,
      "kumÃ¤nt": 2404,
      "mÃ¼et": 2405,
      "trÃ¤te": 2406,
      "Ã²Ã²": 2407,
      "ĠCola": 2408,
      "ĠCoca": 2409,
      "Ġgmein": 2410,
      "Ġgits": 2411,
      "Ġstellt": 2412,
      "Ġselbver": 2413,
      "ĠSeilwinde": 2414,
      "Ġblybe": 2415,
      "ĠBrÃ¤m": 2416,
      "ĠBrief": 2417,
      "ĠBrieftrÃ¤ger": 2418,
      "Ã¼rotet": 2419,
      "ĠHuustÃ¼r": 2420,
      "ĠGschenk": 2421,
      "Ġjungi": 2422,
      "ĠChopf": 2423,
      "ĠChÃ¤si": 2424,
      "ĠFÃ¤Ã¤ler": 2425,
      "Ġversuecht": 2426,
      "Ġlueget": 2427,
      "Ġlueged": 2428,
      "ĠZucch": 2429,
      "Ġpasst": 2430,
      "ĠSchwÃ¶schter": 2431,
      "ĠLandstross": 2432,
      "ĠKaffe": 2433,
      "ĠOrte": 2434,
      "ĠOrtsmu": 2435,
      "ĠÃĸpfel": 2436,
      "ĠSchtrick": 2437,
      "ĠSchtriyt": 2438,
      "ĠgschpÃ¼rt": 2439,
      "ĠNachbare": 2440,
      "ĠNachbarin": 2441,
      "lÃ¶tzlich": 2442,
      "Schtrass": 2443,
      "ation": 2444,
      "zugsman": 2445,
      "Ġorientiere": 2446,
      "ĠQuÃ¤lle": 2447,
      "Ġgmerkt": 2448,
      "Ġseisch": 2449,
      "âĢ¦.": 2450,
      "Ġwaggere": 2451,
      "Ġdeheime": 2452,
      "ĠnÃ¤mlich": 2453,
      "Ġzahle": 2454,
      "Ġzeiget": 2455,
      "Ġzaale": 2456,
      "Ġsiinere": 2457,
      "ĠSunntig": 2458,
      "Ġblibe": 2459,
      "Ġbringt": 2460,
      "ĠBsitzer": 2461,
      "ĠBedÃ¼Ã¼t": 2462,
      "ĠBremsschwirbel": 2463,
      "ĠMetzger": 2464,
      "ĠHÃ¤rdÃ¶": 2465,
      "ĠHugi": 2466,
      "ressiert": 2467,
      "Ġschriibt": 2468,
      "ĠTrÃ¼mpf": 2469,
      "ĠFrou": 2470,
      "ĠÃ¼ses": 2471,
      "Ġverschidene": 2472,
      "ĠtÃ¼end": 2473,
      "Ġtunkt": 2474,
      "stÃ¤ndlich": 2475,
      "Ġpassiert": 2476,
      "ĠSchtockep": 2477,
      "ĠProfesser": 2478,
      "ĠSicherheitsab": 2479,
      "ĠChrischtbaum": 2480,
      "ĠerchlÃ¤re": 2481,
      "ĠzrÃ¼ggkÃ¼schelet": 2482,
      "Metzler": 2483,
      "metzgete": 2484,
      "nveh": 2485,
      "ydrante": 2486,
      "ĠÃ¤ntli": 2487,
      "ĠgÃ¤bti": 2488,
      "Ġsamt": 2489,
      "Ġeggschtra": 2490,
      "Ġhaut": 2491,
      "Ġhuupet": 2492,
      "Ġzunere": 2493,
      "ĠzÃ¼glet": 2494,
      "Ġsichtbar": 2495,
      "ĠSonig": 2496,
      "ĠSohn": 2497,
      "ĠSoldat": 2498,
      "ĠDialeggt": 2499,
      "ĠBÃ¤redrÃ¤ck": 2500,
      "ĠBrÃ¼eder": 2501,
      "ĠMieti": 2502,
      "ĠHornveh": 2503,
      "ĠGruppe": 2504,
      "ĠWinter": 2505,
      "ĠTurm": 2506,
      "Ġsowieso": 2507,
      "Ġbiigstande": 2508,
      "ĠFrÃ¼ener": 2509,
      "ĠFrigg": 2510,
      "ĠNeechers": 2511,
      "ĠÃ¼brigens": 2512,
      "Ġluschtig": 2513,
      "ĠlÃ¶itsche": 2514,
      "ĠPÃ¼Ã¼ri": 2515,
      "ĠPredig": 2516,
      "tersheim": 2517,
      "ĠZnÃ¼ni": 2518,
      "ĠZimmermaa": 2519,
      "Ġghebet": 2520,
      "ĠStadt": 2521,
      "ĠStauffer": 2522,
      "Ġpruucht": 2523,
      "ĠSchmitte": 2524,
      "ĠSchÃ¶nauer": 2525,
      "ĠVorteil": 2526,
      "ĠLÃ¤ngnou": 2527,
      "ĠRotmÃ¤": 2528,
      "ĠÃ¼berhaupt": 2529,
      "ĠÃ¤ltere": 2530,
      "Ġbekannt": 2531,
      "ĠglÃ¤bi": 2532,
      "Ġaagfange": 2533,
      "ĠKantuu": 2534,
      "Ã¤hmaschine": 2535,
      "ĠmilitÃ¤": 2536,
      "Ġmindeschtens": 2537,
      "ĠGlaronensis": 2538,
      "ĠaglÃ¼te": 2539,
      "ĠSpraachwÃ¼sseschafter": 2540,
      "Ġunderscheidet": 2541,
      "ĠregelmÃ¤ssig": 2542,
      "ĠMilitÃ¤r": 2543,
      "ĠUnderschiid": 2544,
      "ĠRestaurant": 2545,
      "Ã²Ã²rli": 2546,
      "ĠselbverstÃ¤ndlich": 2547,
      "ĠZucchetti": 2548,
      "ĠOrtsmuseum": 2549,
      "zugsmanÃ¶ver": 2550,
      "ĠHÃ¤rdÃ¶pfel": 2551,
      "ĠSpraachwÃ¼sseschafteri": 2552
    },
    "merges": [
      "c h",
      "e r",
      "Ã ¤",
      "Ġ d",
      "s ch",
      "Ã ¼",
      "n d",
      "Ġ g",
      "Ġ s",
      "â Ģ",
      "Ġ e",
      "Ġ h",
      "Ġ u",
      "Ġ w",
      "e t",
      "Ġ i",
      "Ġ a",
      "Ġd e",
      "Ġ n",
      "e i",
      "Ġ m",
      "l i",
      "s s",
      "Ġu nd",
      "âĢ Ļ",
      "n n",
      "Ġ z",
      "Ġs i",
      "t t",
      "g e",
      "Ã ¶",
      "sch t",
      "Ġ S",
      "i e",
      "Ġh Ã¤",
      "Ġ v",
      "Ġ b",
      "i t",
      "Ġ D",
      "e d",
      "a r",
      "Ġi sch",
      "a ch",
      "l l",
      "a n",
      "a s",
      "ĠhÃ¤ tt",
      "Ġ B",
      "Ã¼ r",
      "Ġ M",
      "i g",
      "Ġ ch",
      "b er",
      "u e",
      "č Ċ",
      "Ġ H",
      "Ã¤ nn",
      "a l",
      "n e",
      "u m",
      "Ġ G",
      "Ġg s",
      "r a",
      "Ġ âĢ",
      "Ġw o",
      "Ġ f",
      "r e",
      "Ġn Ã¼",
      "Ġe m",
      "Ġa u",
      "Ġ sch",
      "t i",
      "Ġ j",
      "C h",
      "b e",
      "u u",
      "er e",
      "ch t",
      "Ġ A",
      "ss e",
      "r i",
      "m e",
      "Ġ W",
      "Ġe s",
      "Ġm it",
      "Ġ T",
      "Ġ E",
      "Ġ Ch",
      "Ã¤ n",
      "i r",
      "o r",
      "u r",
      "Ġh et",
      "ĠâĢ ĵ",
      "Ġs o",
      "Ġb i",
      "t e",
      "Ġ F",
      "Ġ N",
      "f e",
      "Ġ er",
      "Ġ Ã¼",
      "Ġn a",
      "d er",
      "ĠnÃ¼ d",
      "m er",
      "Ġgs i",
      "a h",
      "Ġe i",
      "Ġv er",
      "e n",
      "Ġd a",
      "Ġh ei",
      "Ġd as",
      "Ġv o",
      "Ġ l",
      "r o",
      "e h",
      "Â «",
      "Â »",
      "Ġ t",
      "n i",
      "u et",
      "Ġ P",
      "c k",
      "Ġi m",
      "Ġ Â«",
      "Ġd ie",
      "nd er",
      "t er",
      "âĢ ľ",
      "Ã¤ r",
      "Ġe n",
      "d e",
      "Ġd r",
      "n g",
      "Ġu f",
      "Ġd Ã¤nn",
      "Ġsch o",
      "et z",
      "l e",
      "a nd",
      "r Ã¤",
      "s t",
      "Ġ Z",
      "a u",
      "Ġ U",
      "Ġ o",
      "Ã¤ ge",
      "Ġw ie",
      "ei t",
      "g g",
      "s e",
      "Ġg h",
      "Ġw i",
      "ĠS t",
      "Ġ p",
      "Ã¼ e",
      "Ġsi nd",
      "nn e",
      "Ġz w",
      "ĠS ch",
      "Ġg an",
      "Ġf Ã¼r",
      "Ã¼ t",
      "r u",
      "Ġd er",
      "Ġ J",
      "Ġa ber",
      "Ġj a",
      "Ġ V",
      "er t",
      "Ġda ss",
      "u f",
      "âĢ ĺ",
      "i i",
      "Ġ L",
      "Ġw Ã¤nn",
      "Ġm ir",
      "Ġch Ã¶",
      "ĠâĢ ŀ",
      "i s",
      "p p",
      "t z",
      "Ġ R",
      "Ġa ll",
      "li ch",
      "ĠÃ¼ ber",
      "an g",
      "i ch",
      "Ġa m",
      "Ġm er",
      "Ã¤n k",
      "Ġgan z",
      "m ach",
      "r Ã¼",
      "Ġ Ã¤",
      "Ġb e",
      "ĠD e",
      "l a",
      "s i",
      "Ġ k",
      "Ġi h",
      "Ã¶ r",
      "ĠhÃ¤ nd",
      "Ġd o",
      "e m",
      "f ach",
      "Ġd Ã¤",
      "Ġn ur",
      "ĠM a",
      "ĠE r",
      "u ng",
      "Ġa l",
      "Ġm Ã¼e",
      "Ġsi ch",
      "ti n",
      "Ġj etz",
      "e s",
      "l ar",
      "Ġ I",
      "Ġg l",
      "Ġg uet",
      "ei l",
      "nn t",
      "m m",
      "n t",
      "u s",
      "u nd",
      "Ġa a",
      "ar tin",
      "ĠM artin",
      "Ġei fach",
      "Ġhei g",
      "a nne",
      "e ll",
      "i d",
      "i ll",
      "n er",
      "u ch",
      "Ġ Ã¶",
      "ei g",
      "ss t",
      "ss er",
      "a a",
      "Ġg w",
      "Ġh i",
      "Ġim mer",
      "f t",
      "u t",
      "Ġ K",
      "i l",
      "m i",
      "m al",
      "Ġ O",
      "Ã¤ h",
      "âĢ ŀ",
      "Ġde m",
      "Ġv u",
      "ed er",
      "ĠE s",
      "Ġvo m",
      "ĠÃ¶ pp",
      "e e",
      "g s",
      "Ġu s",
      "Ġn ach",
      "Ġm i",
      "Ġz um",
      "tt er",
      "Ġch o",
      "ra u",
      "uu s",
      "Ġbi m",
      "ĠMa x",
      "ĠmÃ¼e sse",
      "u n",
      "Ġg r",
      "Ġs Ã¤",
      "Ġh a",
      "Ġw as",
      "ĠH er",
      "ĠG lar",
      "Ġo der",
      "Ġdo ch",
      "a t",
      "a it",
      "e l",
      "h al",
      "Ġ scht",
      "Ã¤ k",
      "Ã¼ Ã¼t",
      "Ġs eig",
      "Ġz ue",
      "ge l",
      "ir Ã¤k",
      "ah r",
      "ck e",
      "Ġwi der",
      "f f",
      "i er",
      "o l",
      "o u",
      "u eder",
      "Ġ Ã",
      "Ã¤ ll",
      "sch i",
      "Ġg f",
      "Ġs Ã¤ge",
      "ei n",
      "li ich",
      "scht e",
      "Ġch li",
      "Â» ,",
      "irÃ¤k ter",
      "a ar",
      "e b",
      "f fe",
      "i sch",
      "i et",
      "o ss",
      "p f",
      "r um",
      "t s",
      "u scht",
      "Ġ li",
      "Ã¤ me",
      "Ġh al",
      "Ġw Ã¤",
      "Ġw Ã¼",
      "ĠS cht",
      "ĠD as",
      "ĠD irÃ¤kter",
      "ed e",
      "Ã¼r scht",
      "ig s",
      "Ġch u",
      "or f",
      "ĠÃ¼ Ã¼",
      "Ġdr um",
      "ĠHer r",
      "! âĢľ",
      "a ge",
      "g et",
      "Ġg ra",
      "Ġu se",
      "Ġw Ã¤r",
      "Ġa s",
      "Ġa nder",
      "Ġn ie",
      "ge d",
      "Ġv ill",
      "ue s",
      "Ġem al",
      "Ġbi s",
      "S t",
      "i n",
      "Ġ rÃ¤",
      "Ġg sch",
      "Ġg mach",
      "Ġu us",
      "Ġw ei",
      "Ġi n",
      "Ġi ch",
      "Ġa b",
      "Ġde et",
      "Ġn id",
      "Ġm ach",
      "ĠS i",
      "an ge",
      "ra ss",
      "uu re",
      "eh r",
      "Ġgh a",
      "Ġal s",
      "Ġhal t",
      "Ġgra d",
      "e scht",
      "i nd",
      "l ei",
      "l uet",
      "m me",
      "o n",
      "u g",
      "w Ã¤",
      "Ã¼ Ã¼",
      "Ġi g",
      "Ġde ne",
      "Ġm ues",
      "scht er",
      "ĠH e",
      "ĠF a",
      "ĠF rau",
      "ĠN a",
      "ah re",
      "Â» .",
      "ĠP ro",
      "ĠU nd",
      "Ġwie der",
      "ĠchÃ¶ nne",
      "Ã¤nk li",
      "ung gel",
      "a g",
      "e gg",
      "i b",
      "i ge",
      "l o",
      "l et",
      "o h",
      "t et",
      "z e",
      "Ã¼ sch",
      "Ã¼ Ã¼r",
      "Ġe be",
      "Ġw e",
      "et e",
      "Ġz Ã¤me",
      "Ġv or",
      "ĠB Ã¤nkli",
      "Ã¼r li",
      "ĠnÃ¼ t",
      "ĠW er",
      "Ã¤n g",
      "Ġgh Ã¶r",
      "Ġzw ee",
      "la tter",
      "Ġjetz t",
      "Ã¤ll er",
      "Ġgmach t",
      "luet w",
      "d i",
      "k e",
      "m p",
      "o cke",
      "r de",
      "u d",
      "y t",
      "ch o",
      "Ã¤ l",
      "Ã¼ sst",
      "Ġg liich",
      "Ġs Ã¶",
      "Ġu uf",
      "Ġw Ã¼r",
      "et t",
      "Ġn uch",
      "tt e",
      "ie n",
      "ĠD a",
      "ĠD er",
      "ĠB latter",
      "ĠH uus",
      "Ġwo rde",
      "ĠnÃ¼ mme",
      "ĠA u",
      "ĠA ber",
      "ĠT anne",
      "ur scht",
      "ĠN ach",
      "ĠÃ¼ s",
      "Ġl ang",
      "ĠP uure",
      "ck t",
      "mach er",
      "ell e",
      "hal s",
      "rum macher",
      "Ġchu nnt",
      "ĠÃ¼Ã¼ s",
      "ĠrÃ¤ cht",
      "a nn",
      "g ar",
      "k t",
      "m ei",
      "m li",
      "z ue",
      "Ġ Ã¤r",
      "ch e",
      "Ã¤ um",
      "Ġd u",
      "Ġg ar",
      "Ġg ah",
      "Ġg ro",
      "Ġs t",
      "Ġw Ã¤ge",
      "Ġi r",
      "Ġn o",
      "Ġm eh",
      "li g",
      "Ġz u",
      "Ġsi m",
      "ĠhÃ¤ d",
      "ach t",
      "Ã¤nn t",
      "Ġgs eit",
      "Ġem e",
      "Ġj ed",
      "cht ig",
      "ĠCh Ã¤ller",
      "ĠCh rummacher",
      "or t",
      "fe li",
      "Ġt Ã¤",
      "âĢľ .",
      "ĠV a",
      "Ġih n",
      "mm t",
      "Ġgw Ã¼sst",
      "ut o",
      "Ġwei ss",
      "D e",
      "a um",
      "g ge",
      "h ei",
      "l Ã¶",
      "m s",
      "n s",
      "r ie",
      "s o",
      "u ss",
      "ch er",
      "Ã¤ b",
      "Ã¤ m",
      "Ã¤ sse",
      "Ã¤ feli",
      "Ġd ra",
      "sch p",
      "nd ere",
      "Ġa g",
      "Ġsi i",
      "ĠB o",
      "ue ge",
      "Ġei ne",
      "en s",
      "en au",
      "âĢľ ,",
      "ĠSt unggel",
      "Ġgan ge",
      "Ġih m",
      "ĠÃ¶pp is",
      "ĠChÃ¤ller hals",
      "S ch",
      "g er",
      "i ert",
      "l Ã¼",
      "o ge",
      "u b",
      "u l",
      "u nder",
      "v er",
      "z mal",
      "Ġ r",
      "Ã¤ ch",
      "Ã¤ nd",
      "Ġd i",
      "Ġd s",
      "Ġd ere",
      "Ġg n",
      "Ġg o",
      "Ġs ait",
      "Ġh an",
      "Ġu m",
      "Ġu me",
      "Ġu fe",
      "Ġw er",
      "Ġw ett",
      "Ġm Ã¤",
      "li e",
      "Ġsi n",
      "ĠS p",
      "ie h",
      "ll e",
      "ĠB luetw",
      "ĠM o",
      "ĠM al",
      "ber e",
      "ue g",
      "Ġgs eh",
      "Ġgs ait",
      "Ġsch Ã¶",
      "uu f",
      "ĠA uto",
      "ĠT Ã¼r",
      "ĠT Ã¤feli",
      "Ġso gar",
      "Ġt Ã¤nk",
      "ĠP f",
      "uf ueder",
      "ĠhÃ¤nd s",
      "il d",
      "ĠÃ Ħ",
      "ĠwÃ¼ ss",
      "Ġmach e",
      "ĠVa ter",
      "R oss",
      "a b",
      "a d",
      "a ss",
      "a ll",
      "a sser",
      "b ar",
      "b Ã¤um",
      "e g",
      "k a",
      "l y",
      "m Ã¤",
      "n et",
      "p a",
      "r Ã¶",
      "w age",
      "er s",
      "Ã¼ g",
      "Ġg Ã¤h",
      "Ġg enau",
      "Ġi s",
      "Ġa be",
      "li i",
      "Ġund er",
      "Ġsi ni",
      "Ã¶ re",
      "ĠS o",
      "Ġb s",
      "Ġb er",
      "ĠD Ã¼rscht",
      "ĠhÃ¤tt s",
      "ĠM er",
      "ig et",
      "um e",
      "Ġwo tt",
      "Ġf rÃ¼",
      "ĠA b",
      "Ã¤n t",
      "ĠN e",
      "ĠN ur",
      "Ġver b",
      "Ġhei d",
      "eh re",
      "Ã¤r n",
      "ĠZ w",
      "Ġo b",
      "Ġo be",
      "Ġwi it",
      "Ġwi ll",
      "ĠL Ã¼Ã¼t",
      "ĠwÃ¤nn s",
      "Ġhi nder",
      "mi lie",
      "ĠO ber",
      "ol z",
      "egg t",
      "ĠghÃ¶r t",
      "ĠwÃ¼r d",
      "D as",
      "S eil",
      "a al",
      "b ri",
      "d orf",
      "f ahre",
      "g f",
      "g Ã¤sse",
      "i m",
      "i z",
      "i mmt",
      "n ert",
      "o s",
      "p fe",
      "s p",
      "t Ã¼rli",
      "u be",
      "w ir",
      "er i",
      "er scht",
      "Ã¤ g",
      "Ġd ri",
      "sch e",
      "Ġg Ã¤rn",
      "Ġe iget",
      "Ġw Ã¶",
      "Ġw en",
      "Ġw elle",
      "Ġi scht",
      "Ġa f",
      "Ġn u",
      "Ġm ei",
      "Ġsi g",
      "scht ens",
      "ĠS ach",
      "it z",
      "ĠD ie",
      "ar t",
      "an t",
      "an ke",
      "ĠM und",
      "ig er",
      "Ġch an",
      "ĠH und",
      "um m",
      "ĠG r",
      "Ġf a",
      "Ġf escht",
      "ti ge",
      "ĠA nder",
      "ĠW ild",
      "ĠT ag",
      "ur t",
      "Ġhet t",
      "Ġna tÃ¼rli",
      "Ġei s",
      "en er",
      "en and",
      "ni sch",
      "de m",
      "ĠdÃ¤nn zmal",
      "and e",
      "Ġzw ii",
      "ĠSch l",
      "ru nn",
      "ru cht",
      "ĠV er",
      "ert ig",
      "ĠÃ¼ber cho",
      "Ġbe sser",
      "ĠdÃ¤ m",
      "Ġsich er",
      "ell t",
      "un ge",
      "ĠsÃ¤ b",
      "Ã¼Ã¼t sch",
      "Ġli e",
      "ĠFa milie",
      "Ã¼Ã¼r w",
      "ĠsÃ¶ tt",
      "mei nd",
      "uss bÃ¤um",
      "Ġhan i",
      "ĠwÃ¼ss ed",
      "nert Ã¼Ã¼tsch",
      "ĠMund art",
      "? Â»",
      "F rau",
      "S p",
      "a be",
      "f Ã¼r",
      "g r",
      "h o",
      "h ni",
      "h olz",
      "j eggt",
      "l ber",
      "n o",
      "n Ã¤",
      "n ge",
      "n aa",
      "o t",
      "o ffe",
      "r er",
      "w i",
      "z i",
      "z oge",
      "Ġ 1",
      "Ġ ?",
      "Ġ re",
      "Ġ ere",
      "ch i",
      "Ġs p",
      "Ġs uscht",
      "Ġe tz",
      "Ġh Ã¼",
      "Ġh Ã¶",
      "Ġu sse",
      "Ġw ar",
      "ei schter",
      "Ã¶ i",
      "ĠS Ã¤",
      "ĠS Ã¶",
      "Ġb ed",
      "ĠD Ã¤",
      "ĠD orf",
      "an z",
      "ĠB e",
      "ĠB ier",
      "ĠB aum",
      "ĠM i",
      "ĠM it",
      "ig i",
      "ĠH ein",
      "al ter",
      "ĠG ra",
      "ĠG meind",
      "Ġf rÃ¶",
      "Ġsch Ã¼Ã¼",
      "uu t",
      "ĠA l",
      "ĠW age",
      "ĠW alter",
      "Ġmit enand",
      "ĠCh aar",
      "ĠF ueder",
      "ĠF Ã¼Ã¼rw",
      "ah t",
      "Ġei nisch",
      "Ġver gÃ¤sse",
      "Ġhei ged",
      "Ġl os",
      "ro ss",
      "Ġt ro",
      "etz t",
      "st ube",
      "ĠZ yt",
      "ĠU nder",
      "ĠU us",
      "eit s",
      "Ġzw ei",
      "ru ckt",
      "ĠJ oh",
      "ĠchÃ¶ nn",
      "ĠchÃ¶ nnt",
      "ĠR e",
      "ĠR oss",
      "lich e",
      "Ġam igs",
      "Ġih re",
      "Ġal li",
      "Ġaa f",
      "Ġhi ne",
      "Ġdem it",
      "Ġgr Ã¼e",
      "ĠsÃ¤ lber",
      "ĠGlar is",
      "ĠGlar ner",
      "ĠGlar nertÃ¼Ã¼tsch",
      "at Ã¼rli",
      "schi cht",
      "ĠwÃ¤ ri",
      "Ġander scht",
      "ind e",
      "wÃ¤ g",
      "ĠHe u",
      "ĠNa me",
      "ĠPro jeggt",
      "Ġgro sse",
      "Ġjed es",
      "ub ete",
      "under s",
      "Ġgn ueg",
      "ĠTÃ¼r mli",
      "ĠtÃ¤nk t",
      "Ġbs unders",
      "ĠNe w",
      "Ġhinder si",
      "Ġaf o",
      "runn stube",
      "ĠHein z",
      "ĠChaar te",
      "ĠJoh ann",
      "! Â»",
      ". âĢľ",
      "E s",
      "H e",
      "N ach",
      "R o",
      "U nd",
      "W as",
      "a m",
      "a gg",
      "a ff",
      "a ib",
      "b et",
      "b le",
      "c a",
      "e ere",
      "f ort",
      "h e",
      "h er",
      "h au",
      "i ka",
      "l t",
      "l Ã¤",
      "l eit",
      "m a",
      "o on",
      "p e",
      "r ed",
      "r uu",
      "r eit",
      "r acht",
      "t ue",
      "v o",
      "z ieh",
      "er h",
      "sch a",
      "sch wir",
      "Ã¼ d",
      "Ã¼ ch",
      "Ã¼ sse",
      "nd i",
      "Ġg scht",
      "Ġg lii",
      "Ġe tt",
      "Ġh e",
      "Ġw ir",
      "et er",
      "et ti",
      "Ġi ri",
      "Ġa n",
      "Ġn e",
      "ei s",
      "Ġm Ã¶",
      "Ġm ein",
      "li t",
      "li cht",
      "ĠS ti",
      "ĠhÃ¤ t",
      "Ġv i",
      "ĠD u",
      "ed anke",
      "ĠM ir",
      "Ġch a",
      "ue cht",
      "ĠH and",
      "ĠG ri",
      "ĠG uscht",
      "ĠG edanke",
      "Ġgs t",
      "Ġf re",
      "Ġf ertig",
      "ĠnÃ¼ me",
      "Ġau s",
      "Ġsch w",
      "Ġj ede",
      "be l",
      "ĠA r",
      "ri cht",
      "me l",
      "ĠW asser",
      "ĠT oon",
      "ĠE i",
      "ĠCh i",
      "ĠCh uch",
      "Ġhet ti",
      "Ġso fort",
      "ĠF re",
      "ĠN ussbÃ¤um",
      "ĠN atÃ¼rli",
      "ĠN Ã¼d",
      "mer ika",
      "Ġgsi i",
      "Ġei n",
      "Ġver z",
      "Ġver sch",
      "Ġda as",
      "Ġl et",
      "Ġl Ã¤ng",
      "Ġl uut",
      "ro g",
      "Ġt rÃ¤",
      "Ġt Ã¶r",
      "ĠP iet",
      "Ġen and",
      "le g",
      "rÃ¤ sse",
      "st a",
      "ĠZ ug",
      "au b",
      "Ġo u",
      "Ġo hni",
      "gg et",
      "ĠSt ocke",
      "Ġzw Ã¼sch",
      "ĠJ a",
      "ĠV or",
      "ich aib",
      "Ġganz e",
      "Ġbe g",
      "la tz",
      "Ġk Ã¤nnt",
      "Ã¶r t",
      "ung s",
      "ĠI g",
      "Ġgl offe",
      "Ġhi ndere",
      "ĠK urt",
      "ĠÃ¶pp e",
      "ĠÃ¶pp er",
      "Ġgr ed",
      "ĠsÃ¤ be",
      "Ġscht immt",
      "ahr t",
      "ĠÃ ľ",
      "ĠwÃ¤ nd",
      "ĠwÃ¼ sse",
      "St rass",
      "Ġuus g",
      "ehr t",
      "ĠHe ufueder",
      "ĠWer ni",
      "ĠDa me",
      "Ġgro ss",
      "ĠwÃ¤ge m",
      "ĠtÃ¤ t",
      "ĠBo de",
      "ĠBo gg",
      "ĠBluetw Ã¼rscht",
      "ĠOber dorf",
      "Ġwen iger",
      "Ġfa scht",
      "naa me",
      "ĠhÃ¼ tt",
      "ĠchÃ¶nn ti",
      "Ġwir d",
      "ĠGuscht i",
      "ĠPiet er",
      "! Â»,",
      "? âĢľ",
      "A m",
      "A u",
      "B luetw",
      "C o",
      "D Ã¤",
      "D ie",
      "E tz",
      "Q u",
      "a tt",
      "a tz",
      "b y",
      "b iet",
      "d et",
      "d ig",
      "e f",
      "f te",
      "g i",
      "h em",
      "h ts",
      "h Ã¶re",
      "i p",
      "i it",
      "j ahr",
      "k um",
      "k Ã¼sch",
      "l er",
      "m Ã¼",
      "m ed",
      "m Ã¤nt",
      "n it",
      "n ig",
      "n ah",
      "n ke",
      "o tt",
      "o le",
      "p t",
      "r ig",
      "s er",
      "s te",
      "t sch",
      "t rÃ¤",
      "u st",
      "u nnt",
      "v or",
      "w o",
      "w er",
      "Ã ©",
      "Ã ²",
      "Ġ (",
      "Ġ 2",
      "Ġ Co",
      "ch net",
      "er n",
      "Ã¤ be",
      "Ġd et",
      "sch ii",
      "nd e",
      "Ġg m",
      "Ġg Ã¤",
      "Ġg ie",
      "Ġg it",
      "Ġg ii",
      "Ġg ern",
      "Ġs e",
      "Ġs te",
      "Ġs eit",
      "Ġs el",
      "Ġh er",
      "Ġh ere",
      "Ġh Ã¼t",
      "Ġu ne",
      "et s",
      "Ġi ig",
      "Ġi ne",
      "Ġde ner",
      "Ġde zue",
      "Ġde by",
      "Ġn ei",
      "Ġm ou",
      "Ġz ieh",
      "Ġsi s",
      "tt i",
      "ge nd",
      "ge biet",
      "Ã¶ f",
      "Ã¶ nd",
      "ĠS ich",
      "ĠS eil",
      "ĠhÃ¤ mer",
      "Ġv um",
      "Ġb ei",
      "Ġb lÃ¶",
      "Ġb ly",
      "Ġb rucht",
      "ĠD o",
      "ĠD rum",
      "ed ne",
      "ed rÃ¤",
      "ar z",
      "ar te",
      "ar rer",
      "as eb",
      "ĠB i",
      "ĠB rÃ¤",
      "ĠB rie",
      "Ã¼r o",
      "Ġch uu",
      "ue ss",
      "ĠH uu",
      "ĠH uet",
      "ĠH Ã¤l",
      "Ã¤nn e",
      "Ã¤nn i",
      "al d",
      "ĠG f",
      "ĠG sch",
      "ra hts",
      "re y",
      "Ġau be",
      "Ġj o",
      "Ġj ung",
      "ri be",
      "ĠW Ã¶r",
      "ĠW ien",
      "ĠW Ã¤g",
      "ĠT eil",
      "ĠE l",
      "ĠCh o",
      "ĠCh Ã¤",
      "ĠCh ri",
      "Ã¤n er",
      "Ġhet s",
      "Ġso o",
      "Ġbi sch",
      "ĠF Ã¤",
      "ĠF Ã¼r",
      "ĠN aseb",
      "Ġer ch",
      "Ġer scht",
      "Ġei m",
      "Ġver l",
      "Ġver s",
      "Ġver ruckt",
      "Ġl ue",
      "Ġl uege",
      "ro h",
      "ni s",
      "Ġdr Ã¼",
      "Ġdr uf",
      "ĠZ u",
      "ĠZ ue",
      "Ġgh Ã¶re",
      "Ġwi l",
      "Ġwi chtig",
      "ĠSt ra",
      "ĠSt ud",
      "Ġp a",
      "Ġp richt",
      "Ġzw ar",
      "ĠSch w",
      "ĠSch ue",
      "ĠJ etz",
      "ĠV o",
      "ii l",
      "ĠL and",
      "ĠL au",
      "tz dem",
      "Ġall s",
      "ang t",
      "Ã¤nk e",
      "mach e",
      "ĠÃ¤ mel",
      "Ġk lar",
      "ĠMa a",
      "ĠI m",
      "Ġguet i",
      "Ġaa g",
      "Ġheig i",
      "id mer",
      "ĠK a",
      "ĠO r",
      "gs p",
      "uus er",
      "Ġgr Ã¶",
      "el et",
      "hal te",
      "ff iz",
      "ol d",
      "ĠÃ ĸ",
      "eb ig",
      "Ġli gge",
      "ĠScht ri",
      "Ġnie med",
      "St unggel",
      "Ġgsch p",
      "Ġin ere",
      "Ġab g",
      "ĠFa bri",
      "ib t",
      "lo sse",
      "mp e",
      "Ġuuf g",
      "ĠDer ungs",
      "ĠAu er",
      "ĠNach bere",
      "ĠNach bar",
      "Ġjed ere",
      "lÃ¶ tz",
      "Ġwett ed",
      "Ġsin ere",
      "ĠBluetw urscht",
      "uuf naame",
      "ĠPf arrer",
      "Ġwiit er",
      "pfe l",
      "Ġeiget li",
      "Sp Ã¤nni",
      "Ġwar um",
      "ĠSÃ¶ ichaib",
      "ĠschÃ¼Ã¼ ch",
      "ĠFÃ¼Ã¼rw ehr",
      "He ufueder",
      "Ã¼ch el",
      "Ġhe sch",
      "ĠSti ch",
      "ĠToon uufnaame",
      "ĠChuch i",
      "ĠFre ud",
      "Ġverz ellt",
      "Ġlet schte",
      "ĠPieter le",
      "kÃ¼sch elet",
      "Ġgie ng",
      "ĠblÃ¶ d",
      "edrÃ¤ ck",
      "ĠWÃ¶r ter",
      "ĠStud ie",
      "ĠFabri k",
      "5 0",
      "A merika",
      "B ier",
      "B runnstube",
      "E r",
      "F ueder",
      "G liich",
      "H Ã¤",
      "S o",
      "S it",
      "S cht",
      "W asser",
      "W idmer",
      "a ti",
      "b i",
      "b ei",
      "b ed",
      "b ru",
      "b aum",
      "b ver",
      "d s",
      "f ar",
      "f ol",
      "g le",
      "g ange",
      "i ere",
      "i se",
      "l as",
      "l Ã¤b",
      "l uege",
      "m u",
      "n Ã¼",
      "n scht",
      "n au",
      "n lich",
      "o ne",
      "o ni",
      "o ck",
      "r ach",
      "r Ã¼r",
      "s Ã¤ge",
      "s anne",
      "s lig",
      "t ig",
      "u Ã¤",
      "u re",
      "u ck",
      "u si",
      "u jahr",
      "v ill",
      "v iert",
      "w ie",
      "w Ã¼sse",
      "x and",
      "z u",
      "z ug",
      "Ġ q",
      "Ġ ri",
      "Ġ or",
      "Ġ Qu",
      "ch uu",
      "ch lei",
      "Ã¤ nder",
      "Ã¤ ter",
      "Ġd rey",
      "sch ei",
      "sch li",
      "Ã¼ ck",
      "Ã¼ ert",
      "Ġg mer",
      "Ġg mei",
      "Ġg ad",
      "Ġs ei",
      "âĢ ¦",
      "Ġe lei",
      "Ġu ng",
      "Ġw agg",
      "Ġi etz",
      "Ġa ne",
      "Ġa ndere",
      "Ġde nn",
      "Ġde mm",
      "Ġde hei",
      "Ġde fÃ¼r",
      "Ġde vo",
      "Ġn Ã¤m",
      "Ġn ume",
      "ei li",
      "ei che",
      "Ġm o",
      "li ne",
      "ss ti",
      "Ġz ur",
      "Ġz ah",
      "Ġz ru",
      "Ġz rÃ¼",
      "Ġz eig",
      "Ġz aal",
      "Ġsi e",
      "Ġsi in",
      "Ã¶ it",
      "ĠS unnt",
      "ie l",
      "ie ch",
      "Ġb li",
      "Ġb ri",
      "it e",
      "ĠD et",
      "ed ed",
      "ar ch",
      "ar at",
      "ll t",
      "an k",
      "ĠB s",
      "ĠB Ã¼",
      "ĠB ed",
      "ĠB re",
      "ĠB lo",
      "ĠB runnstube",
      "ĠB uuser",
      "Ã¼r e",
      "ĠM e",
      "ĠM uu",
      "ĠM uet",
      "ĠM etz",
      "Ġch ly",
      "ber s",
      "ue schter",
      "ĠH ei",
      "ĠH al",
      "ĠH Ã¤r",
      "ĠH ug",
      "ĠH Ã¼Ã¼",
      "Ã¤nn li",
      "al at",
      "ne s",
      "ĠG schicht",
      "Ġgs etzt",
      "Ġgs uecht",
      "ra be",
      "Ġwo s",
      "Ġf ahre",
      "Ġf ahrt",
      "Ġf roh",
      "re ss",
      "Ġsch ri",
      "ti ere",
      "Ch ind",
      "uu p",
      "cht e",
      "ĠA m",
      "ĠA le",
      "ĠA ca",
      "ĠA nit",
      "ri sch",
      "ri de",
      "me ne",
      "Ġes o",
      "ĠT ro",
      "ĠT ii",
      "ĠT rÃ¼",
      "ĠT Ã¼chel",
      "ĠT Ã¤nnli",
      "ĠE h",
      "ĠCh ue",
      "ĠCh uscht",
      "ĠCh atz",
      "ĠCh ef",
      "Ã¤n z",
      "Ã¤n gs",
      "Ã¤n ze",
      "te m",
      "ĠF ro",
      "fe l",
      "ĠÃ¼ se",
      "Ġei mal",
      "Ġver d",
      "Ġver schi",
      "en k",
      "Ġvo or",
      "Ġl a",
      "Ġl au",
      "Ġl ange",
      "ro t",
      "eh me",
      "Ġt ue",
      "Ġt Ã¼e",
      "Ġt un",
      "ĠP latz",
      "Ġen t",
      "de e",
      "de ne",
      "de mi",
      "ng t",
      "st Ã¤nd",
      "st ross",
      "ĠU f",
      "ĠU m",
      "ĠU ni",
      "ĠSt Ã¤ge",
      "ĠSt ubete",
      "Ġp f",
      "Ġp aar",
      "Ġp ass",
      "Ġp arat",
      "Ġzw Ã¶i",
      "ĠSch p",
      "ĠfÃ¼r s",
      "Ã¼t z",
      "Ã¼t et",
      "ru t",
      "ĠJ ahr",
      "ĠJ aar",
      "ĠJ ede",
      "ĠJ ass",
      "ĠJ Ã¤ner",
      "ĠL Ã¼t",
      "ĠL ehme",
      "ĠchÃ¶ ne",
      "pp e",
      "ĠR ueschter",
      "rÃ¼ nd",
      "ĠÃ¤ ne",
      "ĠÃ¤ uÃ¤",
      "Ġbe ede",
      "Ġbe vor",
      "la g",
      "Ġk Ã¤",
      "Ġk ei",
      "Ġal te",
      "ĠI ch",
      "Ġgl eit",
      "nt sch",
      "und e",
      "uch e",
      "sser and",
      "aa t",
      "ft ere",
      "il t",
      "il licht",
      "ĠO tti",
      "Ġmi ni",
      "uus ig",
      "Ġscht att",
      "Ã¤ll e",
      "Ġgf rog",
      "ffe li",
      "isch e",
      "isch p",
      "pf gebiet",
      "Ġli it",
      "ĠScht rass",
      "ĠScht ocke",
      "Ġchu nt",
      "ĠÃ¼Ã¼ ch",
      "get e",
      "Ġas o",
      "Ġgsch ribe",
      "Ġmach ed",
      "ĠSi nn",
      "ĠSi ite",
      "ĠNa fte",
      "ĠNa pfgebiet",
      "ĠPro fe",
      "ĠPro ble",
      "oh r",
      "ze li",
      "ĠWer ner",
      "ĠghÃ¶r ed",
      "ĠsÃ¶ ll",
      "ien scht",
      "Ġdu re",
      "Ġgah t",
      "Ġst aht",
      "Ġir gend",
      "Ġeme ne",
      "ĠtÃ¤ ti",
      "ms schwir",
      "schp anne",
      "Ġsii ni",
      "Sch ange",
      "ul fe",
      "Ġr ede",
      "Ġr eded",
      "Ġwer di",
      "ĠSp iil",
      "ĠMo mÃ¤nt",
      "ĠschÃ¶ ne",
      "ĠÃĦ r",
      "ĠÃĦ ndi",
      "ab le",
      "pa sse",
      "Ġber eit",
      "Ġber eits",
      "Ġverb y",
      "ĠOber holz",
      "im mer",
      "Ġdri i",
      "ĠwÃ¶ u",
      "umm ere",
      "ĠGr as",
      "ĠGr uess",
      "Ġhett ed",
      "ĠSchl uch",
      "ho f",
      "nÃ¤ u",
      "wi der",
      "Ġ1 9",
      "Ġsp Ã¤ter",
      "ĠhÃ¶ chi",
      "eischter et",
      "ĠSÃ¤ tz",
      "ĠSÃ¤ mi",
      "ĠGra b",
      "ĠGra f",
      "ĠGmeind s",
      "Ġtro tzdem",
      "Ġaaf angt",
      "leit ig",
      "erh eits",
      "scha ft",
      "Ġett is",
      "Ġne ue",
      "Ġvi u",
      "ĠAr bet",
      "ĠlÃ¤ng scht",
      "ĠtrÃ¤ iet",
      "ĠtÃ¶r f",
      "leg ig",
      "ĠzwÃ¼sch et",
      "Ġbeg eischteret",
      "Ġgred t",
      "ĠÃľ ebig",
      "Ġgross i",
      "Bluetw urscht",
      "ste lle",
      "ĠSich erheits",
      "ĠBi re",
      "ĠHÃ¤l slig",
      "ĠGf rÃ¼r",
      "rahts eil",
      "ĠWien acht",
      "ĠEl mÃ¤",
      "ĠChri scht",
      "ĠNaseb and",
      "Ġerch lÃ¤",
      "ĠStra sserand",
      "Ġpricht et",
      "ĠLau sanne",
      "ĠgrÃ¶ sser",
      "ffiz ier",
      "xand ra",
      "Ã¼ck li",
      "Ġgmei nt",
      "Ġzru gg",
      "ĠzrÃ¼ gg",
      "ĠBlo cher",
      "ĠMuet er",
      "ĠHal ftere",
      "ĠHÃ¼Ã¼ ffeli",
      "ĠAle xandra",
      "ĠAca demi",
      "ĠAnit a",
      "ĠTii di",
      "Ġlau ft",
      "ĠRueschter holz",
      "Ġgfrog t",
      "ĠNafte li",
      "ĠProble em",
      "msschwir bel",
      "ĠGfrÃ¼r fach",
      "ĠAcademi a",
      "- ,",
      "0 1",
      "A ber",
      "A uto",
      "B Ã¤um",
      "D s",
      "D u",
      "D er",
      "D Ã¤nn",
      "D ienscht",
      "E so",
      "F a",
      "G schicht",
      "H ei",
      "L usi",
      "M etz",
      "M anne",
      "M arch",
      "N e",
      "N ur",
      "N ussbÃ¤um",
      "N ummere",
      "P uure",
      "R ede",
      "U f",
      "V or",
      "W o",
      "W ill",
      "W il",
      "a li",
      "a as",
      "a ber",
      "a nder",
      "a pp",
      "a mi",
      "b o",
      "b t",
      "b Ã¤",
      "b ue",
      "b let",
      "b ald",
      "c ch",
      "d r",
      "d Ã¶",
      "d Ã¤m",
      "e z",
      "e ne",
      "e me",
      "e ck",
      "e ert",
      "e get",
      "f Ã¼",
      "f li",
      "f ra",
      "f ter",
      "f all",
      "f inde",
      "f ahrt",
      "f ride",
      "g h",
      "g ii",
      "g lich",
      "g liich",
      "h l",
      "h r",
      "h sch",
      "h and",
      "h lt",
      "h Ã¶f",
      "i al",
      "i be",
      "i cht",
      "i der",
      "i ck",
      "i nder",
      "i mm",
      "i ff",
      "i mli",
      "j ohr",
      "k o",
      "k ti",
      "k Ã¤nnt",
      "k ehrt",
      "k rut",
      "l ed",
      "l ue",
      "l fe",
      "l and",
      "l Ã¤ge",
      "l oss",
      "m t",
      "m it",
      "m an",
      "m uet",
      "m etz",
      "m aa",
      "m ou",
      "m pf",
      "n v",
      "n or",
      "n ur",
      "n ou",
      "n kt",
      "o d",
      "o o",
      "o v",
      "o sse",
      "o gg",
      "o uf",
      "o nt",
      "o schte",
      "o lle",
      "p ri",
      "p anne",
      "p ft",
      "p ier",
      "p ott",
      "r et",
      "r li",
      "r ne",
      "r Ã¤ng",
      "r Ã¤nne",
      "s ti",
      "s eh",
      "s hei",
      "s am",
      "t r",
      "t ra",
      "t eil",
      "u li",
      "u ere",
      "u tz",
      "u edrÃ¤ck",
      "w e",
      "w y",
      "w Ã¤r",
      "w egg",
      "w ort",
      "w inde",
      "y ch",
      "y sse",
      "y te",
      "y dr",
      "z t",
      "z Ã¤me",
      "z yt",
      "z Ã¼g",
      "z igi",
      "z zeli",
      "Ã ¯",
      "Ġ y",
      "Ġ ru",
      "Ġ rÃ¼",
      "Ġ Ã¤nt",
      "ch s",
      "ch ed",
      "ch ne",
      "ch tige",
      "er er",
      "er ed",
      "er viert",
      "Ã¤ ck",
      "Ã¤ ut",
      "Ã¤ mp",
      "Ã¤ tte",
      "Ġd Ã¼",
      "Ġd Ã¤nk",
      "sch on",
      "sch losse",
      "Ã¼ nd",
      "Ã¼ gge",
      "Ã¼ lle",
      "Ã¼ ehre",
      "Ã¼ eter",
      "Ã¼ ser",
      "nd ig",
      "nd lich",
      "nd escht",
      "Ġg u",
      "Ġg Ã¤ge",
      "Ġg lich",
      "Ġg la",
      "Ġg eb",
      "Ġg escht",
      "Ġg Ã¤b",
      "Ġg Ã¤sse",
      "Ġg eere",
      "Ġg gii",
      "Ġs ti",
      "Ġs uu",
      "Ġs ehr",
      "Ġs am",
      "Ġs ust",
      "Ġs erviert",
      "Ġe gg",
      "Ġe us",
      "Ġe wÃ¤g",
      "Ġe chlei",
      "Ġe bÃ¤",
      "Ġh au",
      "Ġh uup",
      "Ġu n",
      "Ġu nge",
      "Ġw Ã¤n",
      "Ġw em",
      "Ġw Ã¤h",
      "et ro",
      "Ġi i",
      "Ġi re",
      "Ġi nt",
      "Ġa r",
      "Ġn Ã¶",
      "Ġn Ã¤ch",
      "Ġn Ã¤be",
      "ei b",
      "ei ge",
      "ei sse",
      "ei st",
      "Ġm e",
      "Ġm ich",
      "Ġm Ã¤ngs",
      "li schi",
      "ss li",
      "ss ig",
      "nn er",
      "nn Ã©",
      "Ġz un",
      "Ġz oge",
      "Ġz Ã¼g",
      "Ġz ehre",
      "Ġz erscht",
      "Ġz imli",
      "Ġz eige",
      "Ġsi t",
      "Ġsi ne",
      "Ġsi cht",
      "Ġsi der",
      "Ġsi is",
      "Ġsi tz",
      "ge ns",
      "Ã¶ h",
      "Ã¶ Ã¶",
      "Ã¶ schter",
      "Ã¶ ver",
      "Ã¶ nau",
      "Ã¶ ssli",
      "scht et",
      "scht ra",
      "scht rass",
      "scht Ã¤nd",
      "scht ande",
      "scht aht",
      "ĠS ou",
      "ĠS on",
      "ĠS oh",
      "ĠS old",
      "ĠS alat",
      "ĠhÃ¤ lfe",
      "Ġv Ã¼re",
      "Ġb o",
      "Ġb reit",
      "Ġb ald",
      "Ġb loss",
      "Ġb schlosse",
      "it s",
      "ĠD Ã¤nn",
      "ĠD rÃ¼",
      "ĠD rahtseil",
      "ĠD ial",
      "ar tet",
      "ach se",
      "ach wÃ¼sse",
      "an te",
      "as ter",
      "ĠB ie",
      "ĠB Ã¤r",
      "ĠB rÃ¼",
      "ĠB escht",
      "ĠB ild",
      "ĠB eg",
      "ĠB Ã¼ro",
      "ĠB rot",
      "Ã¼r t",
      "ĠM ou",
      "ĠM iet",
      "ĠM eter",
      "ĠM aster",
      "ig st",
      "ig schtens",
      "Ġch as",
      "Ġch um",
      "Ġch ur",
      "Ġch ume",
      "ber i",
      "ue l",
      "ue ber",
      "ue be",
      "ĠH or",
      "ĠH au",
      "ĠH ang",
      "ĠH ung",
      "ĠH Ã¤ng",
      "ĠH Ã¶f",
      "ĠH Ã¼ser",
      "ĠH ueber",
      "ĠG uet",
      "ĠG ru",
      "ĠG ang",
      "ĠG si",
      "ĠG enau",
      "ĠG anz",
      "ĠG ross",
      "ĠG arte",
      "ĠG old",
      "ĠG las",
      "Ġgs und",
      "ra t",
      "ra achwÃ¼sse",
      "re g",
      "re ut",
      "re cher",
      "ĠnÃ¼ Ã¼",
      "Ġem pf",
      "Ġem aal",
      "Ġau te",
      "Ġau so",
      "Ġsch u",
      "Ġsch li",
      "Ġsch Ã¤nk",
      "Ġsch wÃ¤",
      "Ġsch aff",
      "Ġsch nÃ¤u",
      "ti ert",
      "ti mmt",
      "Ġj unge",
      "Ch line",
      "Ch ez",
      "uu r",
      "uu ch",
      "uu ne",
      "cht li",
      "ĠA pp",
      "ĠA ndere",
      "ĠA merika",
      "ri tt",
      "ri nke",
      "ĠW o",
      "ĠW ie",
      "ĠW Ã¤nn",
      "ĠW Ã¤r",
      "ĠW Ã¤ge",
      "ĠW Ã¼rscht",
      "ĠW in",
      "ĠW urscht",
      "ĠW itz",
      "ĠT ur",
      "ĠT isch",
      "ĠT Ã¤ller",
      "ĠE m",
      "ĠE in",
      "ĠE he",
      "ĠE ischp",
      "ĠCh la",
      "ĠCh rie",
      "ĠCh uedrÃ¤ck",
      "Ã¤n tin",
      "or b",
      "or ge",
      "or get",
      "or nig",
      "ur ant",
      "ur ret",
      "Ġhet tet",
      "Ġso n",
      "Ġso wie",
      "Ġso nes",
      "Ġso bald",
      "Ġbi zzeli",
      "Ġbi igst",
      "te nd",
      "te ll",
      "ĠF ra",
      "ĠF rÃ¼",
      "ĠF rig",
      "ĠN ee",
      "Ġer g",
      "Ġer far",
      "ĠÃ¼ si",
      "ĠÃ¼ bri",
      "Ġna e",
      "Ġna mal",
      "der bei",
      "mer k",
      "Ġver ch",
      "Ġver schp",
      "Ġver sp",
      "en i",
      "Ġhei mli",
      "Ġl uscht",
      "Ġl ehre",
      "Ġl Ã¶it",
      "Ġt uet",
      "Ġt umm",
      "ĠP Ã¼Ã¼r",
      "ĠP urscht",
      "ĠP red",
      "ter shei",
      "Ã¤r t",
      "de sse",
      "Ġdr zue",
      "Ġdr uuf",
      "Ġdr fÃ¼r",
      "ng gle",
      "Ġuf t",
      "Ġuf fe",
      "le ere",
      "rÃ¤ ms",
      "rÃ¤ ger",
      "rÃ¤ Ã¤ch",
      "rÃ¤ chnet",
      "st Ã¼r",
      "ĠZ Ã¼g",
      "ĠZ iit",
      "ĠZ nÃ¼",
      "ĠZ eiche",
      "ĠZ immer",
      "au fe",
      "au se",
      "au ff",
      "ĠU uf",
      "ĠU nggle",
      "Ġwie s",
      "gg li",
      "se um",
      "Ġgh eb",
      "Ġgh eisse",
      "ĠSt ad",
      "ĠSt olz",
      "ĠSt aub",
      "ĠSt auff",
      "Ġp rucht",
      "Ġp ruu",
      "Ġp racht",
      "Ã¼e ft",
      "Ã¼e cher",
      "ĠSch u",
      "ĠSch ang",
      "ĠSch mi",
      "ĠSch ul",
      "ĠSch Ã¶nau",
      "Ã¼t sch",
      "ru nge",
      "Ġder zue",
      "ĠJ ed",
      "ĠJ unge",
      "ĠV orf",
      "ĠV ort",
      "ert ro",
      "ĠL u",
      "ĠL Ã¤ng",
      "ĠchÃ¶ nd",
      "ĠR ot",
      "ĠR olle",
      "ĠR Ã¼gge",
      "Ġall ne",
      "Ġall wÃ¤g",
      "Ġall pott",
      "lich k",
      "ĠÃ¼ber all",
      "ĠÃ¼ber hau",
      "ang s",
      "ang et",
      "ang ge",
      "Ġmer s",
      "Ġganz i",
      "rÃ¼ ng",
      "ĠÃ¤ x",
      "ĠÃ¤ ch",
      "ĠÃ¤ ue",
      "ĠÃ¤ sse",
      "ĠÃ¤ lt",
      "Ġbe schte",
      "Ġbe ka",
      "Ġbe edne",
      "ĠDe et",
      "si its",
      "Ġk Ã¤nn",
      "Ġk Ã¤n",
      "Ġk ein",
      "Ġk eis",
      "Ã¶r f",
      "ĠMa tsch",
      "Ġal t",
      "Ġal uege",
      "ĠmÃ¼e sst",
      "ĠmÃ¼e ssti",
      "ĠI dee",
      "Ġgl Ã¼",
      "Ġgl Ã¤b",
      "Ġgl aub",
      "Ġgl Ã¼tet",
      "Ġgl ych",
      "Ġguet s",
      "mm ere",
      "mm te",
      "Ġaa gf",
      "Ġaa zoge",
      "aa d",
      "aa g",
      "Ġgw artet",
      "Ġhi ng",
      "Ġhi nde",
      "ft rÃ¤ger",
      "ĠK o",
      "ĠK ant",
      "ĠO ffizier",
      "Ã¤h r",
      "Ã¤h ma",
      "gs eh",
      "gs eit",
      "gs man",
      "Ġnach dem",
      "Ġnach her",
      "Ġmi m",
      "Ġmi lit",
      "Ġmi ndescht",
      "un sch",
      "un et",
      "ĠHer z",
      "ĠGlar one",
      "Ġscht ill",
      "Ġscht aa",
      "Ġscht Ã¶nd",
      "Ġzue kÃ¼schelet",
      "gel mÃ¤",
      "ahr er",
      "ou fe",
      "schi ne",
      "Ġgf ahre",
      "Ġgf Ã¼ert",
      "Ġgf Ã¤hr",
      "ĠsÃ¤ge d",
      "eb igs",
      "ts mu",
      "Ġli ng",
      "ĠwÃ¤ m",
      "ĠwÃ¼ sst",
      "ĠScht ell",
      "igs vo",
      "Ġdrum m",
      "Ġuse finde",
      "ĠwÃ¤r s",
      "ĠwÃ¤r ed",
      "Ġnie mer",
      "St ocke",
      "St ubete",
      "ĠrÃ¤ chnet",
      "Ġgsch ii",
      "Ġuus gsp",
      "Ġwei sch",
      "Ġmach t",
      "ehr er",
      "lei d",
      "lei ge",
      "wÃ¤ nder",
      "ĠHe uet",
      "ĠFa scht",
      "lo pfe",
      "let scht",
      "Ġvor ne",
      "ĠWer k",
      "mp et",
      "Ã¤l t",
      "Ã¤l er",
      "Ġuuf trÃ¤",
      "Ġuuf passe",
      "ĠwÃ¼r ggli",
      "ien tiere",
      "ĠNach bers",
      "ĠÃ¼s ere",
      "ĠÃ¼s eri",
      "ĠÃ¼s erer",
      "ann et",
      "Ġgah ts",
      "lig i",
      "ĠVa tter",
      "ns is",
      "cher s",
      "Ġag lÃ¼",
      "ger et",
      "lÃ¼ chte",
      "Ġr angge",
      "Ġwer d",
      "Ġwer de",
      "ĠSp rach",
      "ĠSp raachwÃ¼sse",
      "ĠSp recher",
      "ĠMo scht",
      "ĠMo nnÃ©",
      "Ġgseh t",
      "ĠschÃ¶ n",
      "ĠschÃ¶ ns",
      "ĠtÃ¤nk e",
      "ĠPf leg",
      "pa sst",
      "lii be",
      "Ġunder schei",
      "Ġunder desse",
      "Ġbs und",
      "ĠfrÃ¼ eh",
      "ĠfrÃ¼ ener",
      "ĠAb sch",
      "ĠAb ig",
      "ĠNe ujahr",
      "Ġverb i",
      "ĠZw ee",
      "Ġob si",
      "Ġob schon",
      "ĠwÃ¼rd ed",
      "sp rÃ¼ng",
      "Ġdri tte",
      "Ġeiget lich",
      "ĠwÃ¶ ue",
      "Ġwen igschtens",
      "Ġmei schtens",
      "itz er",
      "Ġfa sch",
      "ĠSchl uck",
      "ĠSchl uuch",
      "Ġlie ber",
      "Ġlie be",
      "Ġlie cht",
      "nÃ¤ cht",
      "zi oni",
      "Ġre no",
      "Ġre gelmÃ¤",
      "ĠhÃ¶ ch",
      "Ġusse m",
      "ĠDorf st",
      "ĠBe ed",
      "ĠMi lit",
      "ĠGmeind rat",
      "ĠfrÃ¶ get",
      "ĠfrÃ¶ eget",
      "ĠAl li",
      "ĠAl te",
      "ĠUnder schii",
      "ĠUus h",
      "ĠRe sta",
      "ĠRe krut",
      "ĠgrÃ¼e sse",
      "ĠgrÃ¼e sst",
      "ĠgrÃ¼e ft",
      "ĠHeu wage",
      "ĠHeu wÃ¤nder",
      "Nach bere",
      "Ro si",
      "zieh t",
      "scha fter",
      "schwir ble",
      "Ġgscht ande",
      "Ġett Ã¤",
      "ĠmÃ¶ ge",
      "Ġmein ed",
      "Ġcha sch",
      "Ġcha ibe",
      "ĠGri nd",
      "Ġfre ue",
      "Ġschw ar",
      "Ġschw arz",
      "ĠEi ne",
      "ĠChi ng",
      "ĠChi le",
      "Ġversch id",
      "ĠtÃ¶r fe",
      "ĠVor derbei",
      "Ġgred et",
      "ĠsÃ¤be m",
      "Ġuusg w",
      "dig ung",
      "iit er",
      "kum en",
      "kum Ã¤nt",
      "mÃ¼ et",
      "trÃ¤ te",
      "Ã² Ã²",
      "ĠCo la",
      "ĠCo ca",
      "Ġgm ein",
      "Ġgit s",
      "Ġste llt",
      "Ġsel bver",
      "ĠSeil winde",
      "Ġbly be",
      "ĠBrÃ¤ m",
      "ĠBrie f",
      "ĠBrie ftrÃ¤ger",
      "Ã¼ro tet",
      "ĠHuu stÃ¼r",
      "ĠGsch enk",
      "Ġjung i",
      "ĠCho pf",
      "ĠChÃ¤ si",
      "ĠFÃ¤ Ã¤ler",
      "Ġvers uecht",
      "Ġlue get",
      "Ġlue ged",
      "ĠZu cch",
      "Ġpa sst",
      "ĠSchw Ã¶schter",
      "ĠLand stross",
      "ĠKa ffe",
      "ĠOr te",
      "ĠOr tsmu",
      "ĠÃĸ pfel",
      "ĠSchtri ck",
      "ĠSchtri yt",
      "Ġgschp Ã¼rt",
      "ĠNachbar e",
      "ĠNachbar in",
      "lÃ¶tz lich",
      "Scht rass",
      "ati on",
      "zu gsman",
      "Ġor ientiere",
      "ĠQu Ã¤lle",
      "Ġgmer kt",
      "Ġsei sch",
      "âĢ¦ .",
      "Ġwagg ere",
      "Ġdehei me",
      "ĠnÃ¤m lich",
      "Ġzah le",
      "Ġzeig et",
      "Ġzaal e",
      "Ġsiin ere",
      "ĠSunnt ig",
      "Ġbli be",
      "Ġbri ngt",
      "ĠBs itzer",
      "ĠBed Ã¼Ã¼t",
      "ĠBre msschwirbel",
      "ĠMetz ger",
      "ĠHÃ¤r dÃ¶",
      "ĠHug i",
      "ress iert",
      "Ġschri ibt",
      "ĠTrÃ¼ mpf",
      "ĠFro u",
      "ĠÃ¼se s",
      "Ġverschi dene",
      "ĠtÃ¼e nd",
      "Ġtun kt",
      "stÃ¤nd lich",
      "Ġpass iert",
      "ĠSchtocke p",
      "ĠProfe sser",
      "ĠSicherheits ab",
      "ĠChrischt baum",
      "ĠerchlÃ¤ re",
      "ĠzrÃ¼gg kÃ¼schelet",
      "Metz ler",
      "metz gete",
      "nv eh",
      "ydr ante",
      "ĠÃ¤nt li",
      "ĠgÃ¤b ti",
      "Ġsam t",
      "Ġegg schtra",
      "Ġhau t",
      "Ġhuup et",
      "Ġzun ere",
      "ĠzÃ¼g let",
      "Ġsicht bar",
      "ĠSon ig",
      "ĠSoh n",
      "ĠSold at",
      "ĠDial eggt",
      "ĠBÃ¤r edrÃ¤ck",
      "ĠBrÃ¼ eder",
      "ĠMiet i",
      "ĠHor nveh",
      "ĠGru ppe",
      "ĠWin ter",
      "ĠTur m",
      "Ġsowie so",
      "Ġbiigst ande",
      "ĠFrÃ¼ ener",
      "ĠFrig g",
      "ĠNee chers",
      "ĠÃ¼bri gens",
      "Ġluscht ig",
      "ĠlÃ¶it sche",
      "ĠPÃ¼Ã¼r i",
      "ĠPred ig",
      "tershei m",
      "ĠZnÃ¼ ni",
      "ĠZimmer maa",
      "Ġgheb et",
      "ĠStad t",
      "ĠStauff er",
      "Ġpruu cht",
      "ĠSchmi tte",
      "ĠSchÃ¶nau er",
      "ĠVort eil",
      "ĠLÃ¤ng nou",
      "ĠRot mÃ¤",
      "ĠÃ¼berhau pt",
      "ĠÃ¤lt ere",
      "Ġbeka nnt",
      "ĠglÃ¤b i",
      "Ġaagf ange",
      "ĠKant uu",
      "Ã¤hma schine",
      "Ġmilit Ã¤",
      "Ġmindescht ens",
      "ĠGlarone nsis",
      "ĠaglÃ¼ te",
      "ĠSpraachwÃ¼sse schafter",
      "Ġunderschei det",
      "ĠregelmÃ¤ ssig",
      "ĠMilit Ã¤r",
      "ĠUnderschii d",
      "ĠResta urant",
      "Ã²Ã² rli",
      "Ġselbver stÃ¤ndlich",
      "ĠZucch etti",
      "ĠOrtsmu seum",
      "zugsman Ã¶ver",
      "ĠHÃ¤rdÃ¶ pfel",
      "ĠSpraachwÃ¼sseschafter i"
    ]
  }
}